{
  "version": "1.0",
  "truncation": null,
  "padding": null,
  "added_tokens": [
    {
      "id": 0,
      "content": "[UNK]",
      "single_word": false,
      "lstrip": false,
      "rstrip": false,
      "normalized": false,
      "special": true
    },
    {
      "id": 1,
      "content": "[PAD]",
      "single_word": false,
      "lstrip": false,
      "rstrip": false,
      "normalized": false,
      "special": true
    },
    {
      "id": 2,
      "content": "[SOS]",
      "single_word": false,
      "lstrip": false,
      "rstrip": false,
      "normalized": false,
      "special": true
    },
    {
      "id": 3,
      "content": "[EOS]",
      "single_word": false,
      "lstrip": false,
      "rstrip": false,
      "normalized": false,
      "special": true
    }
  ],
  "normalizer": null,
  "pre_tokenizer": {
    "type": "Whitespace"
  },
  "post_processor": null,
  "decoder": null,
  "model": {
    "type": "BPE",
    "dropout": null,
    "unk_token": "[UNK]",
    "continuing_subword_prefix": null,
    "end_of_word_suffix": null,
    "fuse_unk": false,
    "byte_fallback": false,
    "ignore_merges": false,
    "vocab": {
      "[UNK]": 0,
      "[PAD]": 1,
      "[SOS]": 2,
      "[EOS]": 3,
      "!": 4,
      "\"": 5,
      "#": 6,
      "$": 7,
      "%": 8,
      "&": 9,
      "'": 10,
      "(": 11,
      ")": 12,
      "*": 13,
      "+": 14,
      ",": 15,
      "-": 16,
      ".": 17,
      "/": 18,
      "0": 19,
      "1": 20,
      "2": 21,
      "3": 22,
      "4": 23,
      "5": 24,
      "6": 25,
      "7": 26,
      "8": 27,
      "9": 28,
      ":": 29,
      ";": 30,
      "<": 31,
      "=": 32,
      ">": 33,
      "?": 34,
      "@": 35,
      "A": 36,
      "B": 37,
      "C": 38,
      "D": 39,
      "E": 40,
      "F": 41,
      "G": 42,
      "H": 43,
      "I": 44,
      "J": 45,
      "K": 46,
      "L": 47,
      "M": 48,
      "N": 49,
      "O": 50,
      "P": 51,
      "Q": 52,
      "R": 53,
      "S": 54,
      "T": 55,
      "U": 56,
      "V": 57,
      "W": 58,
      "X": 59,
      "Y": 60,
      "Z": 61,
      "[": 62,
      "\\": 63,
      "]": 64,
      "_": 65,
      "`": 66,
      "a": 67,
      "b": 68,
      "c": 69,
      "d": 70,
      "e": 71,
      "f": 72,
      "g": 73,
      "h": 74,
      "i": 75,
      "j": 76,
      "k": 77,
      "l": 78,
      "m": 79,
      "n": 80,
      "o": 81,
      "p": 82,
      "q": 83,
      "r": 84,
      "s": 85,
      "t": 86,
      "u": 87,
      "v": 88,
      "w": 89,
      "x": 90,
      "y": 91,
      "z": 92,
      "{": 93,
      "}": 94,
      "~": 95,
      "©": 96,
      "×": 97,
      "ँ": 98,
      "ं": 99,
      "ः": 100,
      "अ": 101,
      "आ": 102,
      "इ": 103,
      "ई": 104,
      "उ": 105,
      "ऊ": 106,
      "ऋ": 107,
      "ए": 108,
      "ऐ": 109,
      "ऑ": 110,
      "ओ": 111,
      "औ": 112,
      "क": 113,
      "ख": 114,
      "ग": 115,
      "घ": 116,
      "च": 117,
      "छ": 118,
      "ज": 119,
      "झ": 120,
      "ञ": 121,
      "ट": 122,
      "ठ": 123,
      "ड": 124,
      "ढ": 125,
      "ण": 126,
      "त": 127,
      "थ": 128,
      "द": 129,
      "ध": 130,
      "न": 131,
      "प": 132,
      "फ": 133,
      "ब": 134,
      "भ": 135,
      "म": 136,
      "य": 137,
      "र": 138,
      "ल": 139,
      "व": 140,
      "श": 141,
      "ष": 142,
      "स": 143,
      "ह": 144,
      "़": 145,
      "ा": 146,
      "ि": 147,
      "ी": 148,
      "ु": 149,
      "ू": 150,
      "ृ": 151,
      "ॅ": 152,
      "े": 153,
      "ै": 154,
      "ॉ": 155,
      "ो": 156,
      "ौ": 157,
      "्": 158,
      "।": 159,
      "१": 160,
      "—": 161,
      "“": 162,
      "”": 163,
      "…": 164,
      "™": 165,
      "ें": 166,
      "्र": 167,
      "स्": 168,
      "कर": 169,
      "का": 170,
      "या": 171,
      "क्": 172,
      "र्": 173,
      "के": 174,
      "को": 175,
      "है": 176,
      "ाइ": 177,
      "ना": 178,
      "लि": 179,
      "प्र": 180,
      "से": 181,
      "यो": 182,
      "ता": 183,
      "वि": 184,
      "करें": 185,
      "ाइल": 186,
      "डि": 187,
      "पर": 188,
      "ही": 189,
      "सं": 190,
      "ित": 191,
      "जा": 192,
      "फ़": 193,
      "नही": 194,
      "नहीं": 195,
      "में": 196,
      "ने": 197,
      "#-": 198,
      "्य": 199,
      "की": 200,
      "एँ": 201,
      "फ़ाइल": 202,
      "लिए": 203,
      "ड़": 204,
      "ति": 205,
      "नि": 206,
      "मा": 207,
      "ला": 208,
      "#-#-": 209,
      "ार": 210,
      "पा": 211,
      "स्क": 212,
      "हा": 213,
      "स्थ": 214,
      "योग": 215,
      "ले": 216,
      "खा": 217,
      "कि": 218,
      "सा": 219,
      "प्": 220,
      "वी": 221,
      "डी": 222,
      "क्ष": 223,
      "चा": 224,
      "दे": 225,
      "ल्": 226,
      "जो": 227,
      "डिस्क": 228,
      "दि": 229,
      "टा": 230,
      "परि": 231,
      "ंग": 232,
      "रि": 233,
      "बा": 234,
      "सी": 235,
      "री": 236,
      "मि": 237,
      "लें": 238,
      "सम": 239,
      "एक": 240,
      "रहा": 241,
      "न्": 242,
      "नाम": 243,
      "वा": 244,
      "रा": 245,
      "लग": 246,
      "देश": 247,
      "ुन": 248,
      "त्र": 249,
      "क्र": 250,
      "वर्": 251,
      "टि": 252,
      "स्त": 253,
      "डियो": 254,
      "योज": 255,
      "और": 256,
      "ंड": 257,
      "अन": 258,
      "स्था": 259,
      "ेज": 260,
      "उप": 261,
      "फाइल": 262,
      "ंट": 263,
      "आप": 264,
      "जोड़": 265,
      "योजना": 266,
      "निर्": 267,
      "परियोजना": 268,
      "हु": 269,
      "यन": 270,
      "लिख": 271,
      "प्लग": 272,
      "प्रो": 273,
      "कार": 274,
      "ष्": 275,
      "छवि": 276,
      "ली": 277,
      "ंच": 278,
      "खो": 279,
      "अनु": 280,
      "धि": 281,
      "हैं": 282,
      "अं": 283,
      "यह": 284,
      "प्रयोग": 285,
      "पू": 286,
      "भी": 287,
      "क्ति": 288,
      "चयन": 289,
      "कु": 290,
      "..": 291,
      "ट्र": 292,
      "कृ": 293,
      "ग्र": 294,
      "हो": 295,
      "बना": 296,
      "नी": 297,
      "चुन": 298,
      "क्रि": 299,
      "सू": 300,
      "ोड": 301,
      "er": 302,
      "त्": 303,
      "बद": 304,
      "क्या": 305,
      "रो": 306,
      "इन": 307,
      "रू": 308,
      "मान": 309,
      "दा": 310,
      "क्त": 311,
      "िका": 312,
      "जोड़ें": 313,
      "ब्र": 314,
      "ut": 315,
      "जे": 316,
      "me": 317,
      "#-#-#": 318,
      "#-#-#-#-#": 319,
      "सूच": 320,
      "पया": 321,
      "कृपया": 322,
      "ते": 323,
      "इस": 324,
      "साथ": 325,
      "किया": 326,
      "पूर्": 327,
      "कोई": 328,
      "इंच": 329,
      "निर्देश": 330,
      "मे": 331,
      "करने": 332,
      "टाएँ": 333,
      "रण": 334,
      "ड़ा": 335,
      "पं": 336,
      "ंभ": 337,
      "कॉ": 338,
      "दिखा": 339,
      "चुनें": 340,
      "चाह": 341,
      "स्थित": 342,
      "फल": 343,
      "यु": 344,
      "re": 345,
      "ती": 346,
      "रे": 347,
      "गा": 348,
      "स्ट": 349,
      "सभी": 350,
      "सेट": 351,
      "बग": 352,
      "रख": 353,
      "ों": 354,
      "विक": 355,
      "करण": 356,
      "क्ट": 357,
      "ड़ी": 358,
      "निर्देशिका": 359,
      "नया": 360,
      "कर्": 361,
      "शी": 362,
      "सि": 363,
      "वीडियो": 364,
      "in": 365,
      "ल्प": 366,
      "चयनित": 367,
      "जाएँ": 368,
      "शन": 369,
      "एं": 370,
      "द्": 371,
      "ुटि": 372,
      "त्रुटि": 373,
      "गु": 374,
      "ैग": 375,
      "गया": 376,
      "क्रिय": 377,
      "प्लगइन": 378,
      "सह": 379,
      "or": 380,
      "स्थान": 381,
      "स्थिति": 382,
      "अक्ष": 383,
      "no": 384,
      "th": 385,
      "ैसे": 386,
      "चि": 387,
      "खाली": 388,
      "योग्य": 389,
      "्यू": 390,
      "फि": 391,
      "लाइ": 392,
      "अंत": 393,
      "पी": 394,
      "कें": 395,
      "बं": 396,
      "पाठ": 397,
      "\"%": 398,
      "उपयोग": 399,
      "विकल्प": 400,
      "ग्रा": 401,
      "सीडी": 402,
      "खोलें": 403,
      "पंक्ति": 404,
      "सहेज": 405,
      "र्थ": 406,
      "ँच": 407,
      "समर्थ": 408,
      "बि": 409,
      "en": 410,
      "पै": 411,
      "अप": 412,
      "बदलें": 413,
      "वीडी": 414,
      "डीवीडी": 415,
      "टी": 416,
      "मौ": 417,
      "ल्ड": 418,
      "कर्ता": 419,
      "di": 420,
      "nome": 421,
      "्रो": 422,
      "सक": 423,
      "gnome": 424,
      "ंडो": 425,
      "विंडो": 426,
      "क्ष्य": 427,
      "ग्राम": 428,
      "प्रोग्राम": 429,
      "जेक्ट": 430,
      "्रोत": 431,
      "अधि": 432,
      "ैक": 433,
      "फ्": 434,
      "कार्": 435,
      "लक्ष्य": 436,
      "प्रार": 437,
      "पि": 438,
      "स्वी": 439,
      "संदेश": 440,
      "रिक्त": 441,
      "on": 442,
      "यदि": 443,
      "शा": 444,
      "ब्": 445,
      "पु": 446,
      "आर": 447,
      "नक": 448,
      "भा": 449,
      "दिखाएँ": 450,
      "सूची": 451,
      "हे": 452,
      "जू": 453,
      "मु": 454,
      "िन": 455,
      "प्रोजेक्ट": 456,
      "li": 457,
      "सार": 458,
      "पाद": 459,
      "hi": 460,
      "र्ष": 461,
      "आकार": 462,
      "डे": 463,
      "रखें": 464,
      "शीर्ष": 465,
      "चे": 466,
      "ज़": 467,
      "्स": 468,
      "लोड": 469,
      "il": 470,
      "स्ता": 471,
      "हटाएँ": 472,
      "करना": 473,
      "र्ट": 474,
      "po": 475,
      "णी": 476,
      "संपाद": 477,
      "क्स": 478,
      "पूर्ण": 479,
      "...": 480,
      "शि": 481,
      "बर्": 482,
      "स्तु": 483,
      "वर्त": 484,
      "लाल": 485,
      "सहेजें": 486,
      "कमा": 487,
      "वे": 488,
      "वस्तु": 489,
      "सक्रिय": 490,
      "गी": 491,
      "रंग": 492,
      "ऑडियो": 493,
      "लिखने": 494,
      "श्": 495,
      "ट्रैक": 496,
      "फ्ल": 497,
      "कमांड": 498,
      "टर": 499,
      "किसी": 500,
      "फ्लैग": 501,
      "ब्रैसे": 502,
      "ब्रैसेरो": 503,
      "ईंट": 504,
      "पान": 505,
      "हुकु": 506,
      "हुकुम": 507,
      "तस्वी": 508,
      "कॉल": 509,
      "चिड़ी": 510,
      "अति": 511,
      "्या": 512,
      "हला": 513,
      "चाहते": 514,
      "तस्वीर": 515,
      "मद": 516,
      "सफल": 517,
      "at": 518,
      "ष्ट": 519,
      "चौ": 520,
      "तम": 521,
      "is": 522,
      "फो": 523,
      "प्लगिन": 524,
      "nj": 525,
      "वार": 526,
      "युक्ति": 527,
      "तर": 528,
      "मौजू": 529,
      "हर": 530,
      "es": 531,
      "पथ": 532,
      "जि": 533,
      "बे": 534,
      "सका": 535,
      "पो": 536,
      "स्क्र": 537,
      "स्व": 538,
      "फ़ॉ": 539,
      "युक्त": 540,
      "अधिक": 541,
      "अतिरिक्त": 542,
      "पित": 543,
      "िए": 544,
      "मोड": 545,
      "njut": 546,
      "ब्रे": 547,
      "गुण": 548,
      "njuta": 549,
      "al": 550,
      "द्वार": 551,
      "द्वारा": 552,
      "ढू": 553,
      "पट": 554,
      "Anjuta": 555,
      "an": 556,
      "डा": 557,
      "न्ट": 558,
      "धार": 559,
      "ष्ठ": 560,
      "ंक": 561,
      "अग": 562,
      "खे": 563,
      "डिबग": 564,
      "समय": 565,
      "क्रिया": 566,
      "ंढ": 567,
      "घु": 568,
      "ढूंढ": 569,
      "छो": 570,
      "पता": 571,
      "पहु": 572,
      "ये": 573,
      "क्का": 574,
      "नीय": 575,
      "पुन": 576,
      "प्रारंभ": 577,
      "चौड़ा": 578,
      "एस": 579,
      "फिर": 580,
      "मेल": 581,
      "ँचा": 582,
      "अव": 583,
      "सूचना": 584,
      "त्ता": 585,
      "रूप": 586,
      "चौड़ाई": 587,
      "चाहिए": 588,
      "प्रकार": 589,
      "ख्या": 590,
      "संख्या": 591,
      "पे": 592,
      "स्करण": 593,
      "the": 594,
      "बंध": 595,
      "\\\\": 596,
      "तु": 597,
      "बनाएँ": 598,
      "दू": 599,
      "मिटाएँ": 600,
      "सब": 601,
      "लेख": 602,
      "ोट": 603,
      "संस्करण": 604,
      "ँक": 605,
      "बाहर": 606,
      "आई": 607,
      "आँक": 608,
      "नक़": 609,
      "ड्र": 610,
      "दो": 611,
      "पह": 612,
      "ge": 613,
      "बी": 614,
      "जी": 615,
      "दी": 616,
      "नक़ल": 617,
      "of": 618,
      "वरण": 619,
      "क्लि": 620,
      "न्यू": 621,
      "ra": 622,
      "आँकड़ा": 623,
      "विधि": 624,
      "स्रोत": 625,
      "समा": 626,
      "दर्": 627,
      "अनुप्रयोग": 628,
      "मिला": 629,
      "यू": 630,
      "ूह": 631,
      "समूह": 632,
      "CD": 633,
      "ion": 634,
      "दु": 635,
      "मौजूदा": 636,
      ":%": 637,
      "HE": 638,
      "चला": 639,
      "लो": 640,
      "उट": 641,
      "यी": 642,
      "परिवर्त": 643,
      "खोज": 644,
      "कै": 645,
      "करता": 646,
      "कुछ": 647,
      "दस्ता": 648,
      "बार": 649,
      "श्य": 650,
      "ic": 651,
      "आउट": 652,
      "वेज": 653,
      "ैध": 654,
      "प्त": 655,
      "बाद": 656,
      "दस्तावेज": 657,
      "ढ़": 658,
      "लं": 659,
      "हाय": 660,
      "जाँच": 661,
      "मदद": 662,
      "मी": 663,
      "लिखें": 664,
      "AD": 665,
      "कम": 666,
      "HEAD": 667,
      "कॉपी": 668,
      "फलक": 669,
      "यर": 670,
      "ma": 671,
      "पर्": 672,
      "देख": 673,
      "प्रबंध": 674,
      "पूर्व": 675,
      "बंद": 676,
      "क्षम": 677,
      "ट्री": 678,
      "खेल": 679,
      "(%": 680,
      "चु": 681,
      "नल": 682,
      "आरंभ": 683,
      "हरा": 684,
      "प्रा": 685,
      "ंटर": 686,
      "सकता": 687,
      "फ्लैग्स": 688,
      "ro": 689,
      "पहुँच": 690,
      "नामः": 691,
      "यात": 692,
      "क्ता": 693,
      "योक्ता": 694,
      "प्रयुक्त": 695,
      "it": 696,
      "इसे": 697,
      "टे": 698,
      "ीन": 699,
      "पुट": 700,
      "मोट": 701,
      "लाग": 702,
      "रिमोट": 703,
      "टें": 704,
      "निंग": 705,
      "स्थापित": 706,
      "lib": 707,
      "UR": 708,
      "निय": 709,
      "ढूंढें": 710,
      "दहला": 711,
      "जाए": 712,
      "वर्ग": 713,
      "सन": 714,
      "हटा": 715,
      "क्से": 716,
      "सारणी": 717,
      "ध्": 718,
      "se": 719,
      "जब": 720,
      "बिल्ड": 721,
      "स्क्रीन": 722,
      "दस्तावेज़": 723,
      "फा": 724,
      "पोर्ट": 725,
      "व्य": 726,
      "फ़ॉन्ट": 727,
      "छोड़": 728,
      "लॉ": 729,
      "दृ": 730,
      "्रे": 731,
      "वर्ण": 732,
      "वर्सन": 733,
      "सबवर्सन": 734,
      "rec": 735,
      "समर्थन": 736,
      "श्रोत": 737,
      "िस्": 738,
      "कोड": 739,
      "ल्डर": 740,
      "चाल": 741,
      "पहले": 742,
      "लागू": 743,
      "st": 744,
      "प्रति": 745,
      "हेतु": 746,
      "SI": 747,
      "सामान": 748,
      "सामान्य": 749,
      "आयात": 750,
      "करे": 751,
      "लित": 752,
      "बर्निंग": 753,
      "पृ": 754,
      "जाने": 755,
      "कार्य": 756,
      "गीत": 757,
      "ड्राइ": 758,
      "पट्": 759,
      "सु": 760,
      "ध्व": 761,
      "गल": 762,
      "शु": 763,
      "DV": 764,
      "to": 765,
      "ंत्र": 766,
      "जरू": 767,
      "तः": 768,
      "भू": 769,
      "शीर्षक": 770,
      "DVD": 771,
      "ड्राइव": 772,
      "पन": 773,
      "गति": 774,
      "तक": 775,
      "प्रबंधक": 776,
      "ंत": 777,
      "ैश": 778,
      "क्शन": 779,
      "पृष्ठ": 780,
      "co": 781,
      "tk": 782,
      "कड़ी": 783,
      "ल्टर": 784,
      "ध्वनि": 785,
      "दौ": 786,
      "सफलता": 787,
      "गई": 788,
      "टर्": 789,
      "सत्र": 790,
      "):": 791,
      "सर": 792,
      "परिवर्तन": 793,
      "सहाय": 794,
      "ल्ट": 795,
      "घुमा": 796,
      "संस्थापित": 797,
      "बगल": 798,
      "पिछ": 799,
      "सक्षम": 800,
      "dit": 801,
      "दौरा": 802,
      "प्रवि": 803,
      "निष्": 804,
      "केंड": 805,
      "निष्क्रिय": 806,
      "ज्": 807,
      "शाह": 808,
      "देखें": 809,
      "ज्ञ": 810,
      "नतम": 811,
      "दृश्य": 812,
      "ER": 813,
      "ON": 814,
      "कई": 815,
      "्न": 816,
      "पूर्वक": 817,
      "सफलतापूर्वक": 818,
      "दौरान": 819,
      "घट": 820,
      "टन": 821,
      "हित": 822,
      "संके": 823,
      "ed": 824,
      "एंटर": 825,
      "यास": 826,
      "स्तंभ": 827,
      "अज्ञ": 828,
      "आधार": 829,
      "ात": 830,
      "अज्ञात": 831,
      "पसं": 832,
      "सर्": 833,
      "जाना": 834,
      "्यूल": 835,
      "ऊँचा": 836,
      "ख्य": 837,
      "िंग": 838,
      "ऊँचाई": 839,
      "कमि": 840,
      "था": 841,
      "सॉ": 842,
      "संपादक": 843,
      "le": 844,
      "जमा": 845,
      "मू": 846,
      "प्रती": 847,
      "तिम": 848,
      "पास": 849,
      "टिप्": 850,
      "अंतिम": 851,
      "रहे": 852,
      "ener": 853,
      "छोड़ें": 854,
      "Co": 855,
      "ou": 856,
      "दिष्ट": 857,
      "निर्दिष्ट": 858,
      "लाइस": 859,
      "पुनः": 860,
      "द्र": 861,
      "्ड": 862,
      "बादशाह": 863,
      "शील": 864,
      "न्यूनतम": 865,
      "पट्टी": 866,
      "भेज": 867,
      "वर": 868,
      "ब्रेरी": 869,
      "लोक": 870,
      "छा": 871,
      "पढ़": 872,
      "न्यास": 873,
      "बदल": 874,
      "स्वतः": 875,
      "डिबगर": 876,
      "तन": 877,
      "कार्ड": 878,
      "क्लिक": 879,
      "स्थानीय": 880,
      "लाइन": 881,
      "दें": 882,
      "ैति": 883,
      "util": 884,
      "ैतिज": 885,
      "कारी": 886,
      "डिंग": 887,
      "साफ": 888,
      "चालित": 889,
      "सिमु": 890,
      "अधिकतम": 891,
      "कैम": 892,
      "सिमुले": 893,
      "असफल": 894,
      "ध्य": 895,
      "र्ड": 896,
      "केज": 897,
      "रिक": 898,
      "कुल": 899,
      "ing": 900,
      "खण": 901,
      "शे": 902,
      "सेकेंड": 903,
      "रीय": 904,
      "अक्षम": 905,
      "केंद्र": 906,
      "de": 907,
      "लिखा": 908,
      "जारी": 909,
      "फिल्टर": 910,
      "पाइ": 911,
      "चित": 912,
      "लब्": 913,
      "पैकेज": 914,
      "प्रारू": 915,
      "लब्ध": 916,
      "el": 917,
      "ter": 918,
      "जन": 919,
      "दर": 920,
      "न्न": 921,
      "समर्थित": 922,
      "मुख्य": 923,
      "विडियो": 924,
      "सां": 925,
      "अवैध": 926,
      "बीच": 927,
      "VER": 928,
      "ar": 929,
      "स्तर": 930,
      "ज़ू": 931,
      "क्की": 932,
      "विवरण": 933,
      "लाइब्रेरी": 934,
      "ब्रेक": 935,
      "SION": 936,
      "VERSION": 937,
      "क़": 938,
      "याँ": 939,
      "प्रयोक्ता": 940,
      "वाद": 941,
      "हुआ": 942,
      "भाव": 943,
      "अगर": 944,
      "िस्म": 945,
      "क़िस्म": 946,
      "02": 947,
      "बटन": 948,
      "रद्": 949,
      "पणी": 950,
      "टिप्पणी": 951,
      "पें": 952,
      "बत": 953,
      "नीचे": 954,
      "चलाएँ": 955,
      "ke": 956,
      "टॉ": 957,
      "ेस": 958,
      "सहायक": 959,
      "im": 960,
      "उपलब्ध": 961,
      "वल": 962,
      "लेखन": 963,
      "वर्णन": 964,
      "छु": 965,
      "पत्ता": 966,
      "टिंग": 967,
      "रोकें": 968,
      "gl": 969,
      "हाशि": 970,
      "क्षैतिज": 971,
      "जिस": 972,
      "URI": 973,
      "सिमुलेशन": 974,
      "Gener": 975,
      "चल": 976,
      "ाइट": 977,
      "तिक": 978,
      "शो": 979,
      "सकी": 980,
      "विन्यास": 981,
      "भाष": 982,
      "शीर्षिका": 983,
      "पर्क": 984,
      "हाशिया": 985,
      "अद": 986,
      "वित": 987,
      "स्थायी": 988,
      "उपकरण": 989,
      "स्वचालित": 990,
      "अद्य": 991,
      "ऊपर": 992,
      "टैग": 993,
      "फं": 994,
      "शब्": 995,
      "स्के": 996,
      "वर्तमान": 997,
      "शब्द": 998,
      "वरीय": 999,
      "संपादन": 1000,
      "gedit": 1001,
      "प्रारूप": 1002,
      "चर": 1003,
      "घुमाव": 1004,
      "कमिट": 1005,
      "गम": 1006,
      "फ्रे": 1007,
      "प्रदर्": 1008,
      "बाक्स": 1009,
      "एक्स": 1010,
      "टो": 1011,
      "लिये": 1012,
      "संपर्क": 1013,
      "वीएस": 1014,
      "सीवीएस": 1015,
      "अन्य": 1016,
      "gtk": 1017,
      "la": 1018,
      "ेशन": 1019,
      "केतिक": 1020,
      "क्षे": 1021,
      "क्रम": 1022,
      "सांकेतिक": 1023,
      "um": 1024,
      "ूट": 1025,
      "मिटा": 1026,
      "अक्षर": 1027,
      "pro": 1028,
      "गे": 1029,
      "ष्टि": 1030,
      "सकती": 1031,
      "com": 1032,
      "फ्रेम": 1033,
      "विष": 1034,
      "फंक्शन": 1035,
      "na": 1036,
      "संकुल": 1037,
      "रखता": 1038,
      "फोल्डर": 1039,
      "Cogl": 1040,
      "do": 1041,
      "ol": 1042,
      "ठा": 1043,
      "विश्": 1044,
      "लेष": 1045,
      "स्टम": 1046,
      "सिस्टम": 1047,
      "घुसा": 1048,
      "विश्लेष": 1049,
      "िक": 1050,
      "यों": 1051,
      "अंतर्": 1052,
      "ब्रेकपाइ": 1053,
      "क्षेत्र": 1054,
      "बांट": 1055,
      "मोड्यूल": 1056,
      "पेट": 1057,
      "भूमि": 1058,
      "विषय": 1059,
      "ri": 1060,
      "us": 1061,
      "ौर": 1062,
      "कोण": 1063,
      "प्रतीक": 1064,
      ")...": 1065,
      "cd": 1066,
      "iB": 1067,
      "सत्ता": 1068,
      "पाया": 1069,
      "हाँ": 1070,
      "बारे": 1071,
      "आउटपुट": 1072,
      "ग्": 1073,
      "च्": 1074,
      "ताव": 1075,
      "चेताव": 1076,
      "अद्यतन": 1077,
      "प्रदर्श": 1078,
      "GN": 1079,
      "धन": 1080,
      "सही": 1081,
      "काल": 1082,
      "प्रभाव": 1083,
      "जावा": 1084,
      "मिनल": 1085,
      "वाले": 1086,
      "अंतरा": 1087,
      "lic": 1088,
      "अगला": 1089,
      "टर्मिनल": 1090,
      "वरीयता": 1091,
      "av": 1092,
      "एम": 1093,
      "अवधि": 1094,
      "लॉग": 1095,
      "संकेत": 1096,
      "विस्ता": 1097,
      "जाता": 1098,
      "दिया": 1099,
      "रिपोर्ट": 1100,
      "प्राप्त": 1101,
      "विस्तार": 1102,
      "ंचा": 1103,
      "ट्": 1104,
      "ेद": 1105,
      "खाँचा": 1106,
      "बनाए": 1107,
      "रोध": 1108,
      "लंब": 1109,
      "करेगा": 1110,
      "pe": 1111,
      "ser": 1112,
      "आव": 1113,
      "खि": 1114,
      "छक्का": 1115,
      "नहला": 1116,
      "वट": 1117,
      "संशो": 1118,
      "बर्न": 1119,
      "दोहरा": 1120,
      "अस्थायी": 1121,
      "अट्": 1122,
      "खंड": 1123,
      "तो": 1124,
      "पंजा": 1125,
      "जाएगा": 1126,
      "बतौर": 1127,
      "अट्ठा": 1128,
      "एट": 1129,
      "यें": 1130,
      "नेरिक": 1131,
      "तिक्की": 1132,
      "वेब": 1133,
      "शुरू": 1134,
      "bu": 1135,
      "fil": 1136,
      "श्र": 1137,
      "ताश": 1138,
      "दाह": 1139,
      "अधिष्ठ": 1140,
      "अधिष्ठा": 1141,
      "अन्": 1142,
      "असमर्थ": 1143,
      "खाता": 1144,
      "अनुप": 1145,
      "पिछला": 1146,
      "ब्रेकपाइंट": 1147,
      "बन्": 1148,
      "ेंस": 1149,
      "स्थि": 1150,
      "पूर्वा": 1151,
      "सकते": 1152,
      "जरूरी": 1153,
      "लोकन": 1154,
      "चेतावनी": 1155,
      "--": 1156,
      "भि": 1157,
      "जान": 1158,
      "बेगम": 1159,
      "नियंत्र": 1160,
      "rect": 1161,
      "स्नि": 1162,
      "खाका": 1163,
      "जेनेरिक": 1164,
      "स्निपेट": 1165,
      "pp": 1166,
      "म्": 1167,
      "लिया": 1168,
      "ory": 1169,
      "libgnome": 1170,
      "सर्वर": 1171,
      "ub": 1172,
      "ui": 1173,
      "इक्का": 1174,
      "गए": 1175,
      "थन": 1176,
      "ense": 1177,
      "उल": 1178,
      "जैसे": 1179,
      "लिंक": 1180,
      "संग": 1181,
      "बाध्य": 1182,
      "ग्रह": 1183,
      "direct": 1184,
      "पाएँ": 1185,
      "जेट": 1186,
      "गुला": 1187,
      "डेटा": 1188,
      "In": 1189,
      "एकि": 1190,
      "खी": 1191,
      "सत": 1192,
      "किए": 1193,
      "कृत": 1194,
      "ess": 1195,
      "दूस": 1196,
      "प्रविष्ट": 1197,
      "एकिगा": 1198,
      "पत्": 1199,
      "फ़ाइलों": 1200,
      "इनपुट": 1201,
      "रेखण": 1202,
      "स्थिर": 1203,
      "गुलाम": 1204,
      "भव": 1205,
      "संभव": 1206,
      "जार": 1207,
      "साम": 1208,
      "लेखक": 1209,
      "directory": 1210,
      "lo": 1211,
      "वलोकन": 1212,
      "प्रक्रिया": 1213,
      "फ़ाइलें": 1214,
      "देता": 1215,
      "खोल": 1216,
      "अपने": 1217,
      "पूर्वावलोकन": 1218,
      "उत्": 1219,
      "सरण": 1220,
      "्वा": 1221,
      "प्ले": 1222,
      "अनुसरण": 1223,
      "मेन्यू": 1224,
      "वेयर": 1225,
      "शेष": 1226,
      "अनुपस्थित": 1227,
      "Lic": 1228,
      "ev": 1229,
      "ith": 1230,
      "sh": 1231,
      "बता": 1232,
      "हाइल": 1233,
      "केवल": 1234,
      "पिक्से": 1235,
      "संपादित": 1236,
      "दूर": 1237,
      "License": 1238,
      "पिक्सेल": 1239,
      "जु": 1240,
      "मूल": 1241,
      "सामग्र": 1242,
      "भार": 1243,
      "मै": 1244,
      "वैध": 1245,
      "डिफ़ॉ": 1246,
      "रामी": 1247,
      "लगा": 1248,
      "पैरामी": 1249,
      "डिफ़ॉल्ट": 1250,
      "ची": 1251,
      "बहु": 1252,
      "वाकई": 1253,
      "02i": 1254,
      "Dis": 1255,
      "चना": 1256,
      "जनक": 1257,
      "लकी": 1258,
      "क्लिप": 1259,
      "लंबा": 1260,
      "भाषा": 1261,
      "स्केल": 1262,
      "घुसाएँ": 1263,
      "लकीर": 1264,
      "AR": 1265,
      "CV": 1266,
      "अल्": 1267,
      "आय": 1268,
      "कने": 1269,
      "बल": 1270,
      "बजा": 1271,
      "पूरा": 1272,
      "लाइसेंस": 1273,
      "CVS": 1274,
      "AP": 1275,
      "न्य": 1276,
      "भर": 1277,
      "स्ट्र": 1278,
      "प्ट": 1279,
      "आपके": 1280,
      "होगा": 1281,
      "छापें": 1282,
      "प्ति": 1283,
      "एकल": 1284,
      "क्रैश": 1285,
      "बिं": 1286,
      "संशोधन": 1287,
      "जानकारी": 1288,
      "शै": 1289,
      "करेंः": 1290,
      "सो": 1291,
      "चेक": 1292,
      "मित": 1293,
      "रचना": 1294,
      "ांक": 1295,
      "विजेट": 1296,
      "ad": 1297,
      "एक्से": 1298,
      "चरण": 1299,
      "फर": 1300,
      "हाइलाइट": 1301,
      "दूरस्थ": 1302,
      "सामग्री": 1303,
      "शैली": 1304,
      "ho": 1305,
      "उदाह": 1306,
      "टाइ": 1307,
      "विरोध": 1308,
      "बनावट": 1309,
      "इसके": 1310,
      "चुनेंः": 1311,
      "यूआर": 1312,
      "उदाहरण": 1313,
      "but": 1314,
      "py": 1315,
      "आता": 1316,
      "कता": 1317,
      "टरी": 1318,
      "संत": 1319,
      "लिखना": 1320,
      "त्या": 1321,
      "घटना": 1322,
      "ew": 1323,
      "for": 1324,
      "दबा": 1325,
      "नो": 1326,
      "िप्ट": 1327,
      "कोशि": 1328,
      "स्क्रिप्ट": 1329,
      "कोशिश": 1330,
      "app": 1331,
      "पॉ": 1332,
      "साइ": 1333,
      "int": 1334,
      "मौजूद": 1335,
      "पसंद": 1336,
      "रद्द": 1337,
      "file": 1338,
      "ct": 1339,
      "lu": 1340,
      "अग्र": 1341,
      "उस": 1342,
      "चव": 1343,
      "नई": 1344,
      "हें": 1345,
      "याप्त": 1346,
      "लिक": 1347,
      "निका": 1348,
      "कुं": 1349,
      "med": 1350,
      "दीदा": 1351,
      "चुका": 1352,
      "कार्यशील": 1353,
      "पसंदीदा": 1354,
      "अल्फा": 1355,
      "चव्वा": 1356,
      "EO": 1357,
      "MiB": 1358,
      "et": 1359,
      "पाइल": 1360,
      "पत्र": 1361,
      "ह्न": 1362,
      "फ़ि": 1363,
      "चिह्न": 1364,
      "isof": 1365,
      "mage": 1366,
      "जरूर": 1367,
      "भेजें": 1368,
      "स्ट्रिंग": 1369,
      "isofs": 1370,
      "'%": 1371,
      "ab": 1372,
      "ex": 1373,
      "अखंड": 1374,
      "बो": 1375,
      "विफल": 1376,
      "संरेखण": 1377,
      "स्कै": 1378,
      "वीसीडी": 1379,
      "उपयोक्ता": 1380,
      "ation": 1381,
      "मेलबाक्स": 1382,
      "समायोज": 1383,
      "utilus": 1384,
      "टॉगल": 1385,
      "nautilus": 1386,
      "नियंत्रण": 1387,
      "अखंडता": 1388,
      "are": 1389,
      "num": 1390,
      "टू": 1391,
      "टवेयर": 1392,
      "डर": 1393,
      "ण्ड": 1394,
      "तंत्र": 1395,
      "जांच": 1396,
      "अंदर": 1397,
      "बनाया": 1398,
      "भिन्न": 1399,
      "1f": 1400,
      "ck": 1401,
      "धा": 1402,
      "ोल्डर": 1403,
      "फ़ोल्डर": 1404,
      "वाला": 1405,
      "निर्देशांक": 1406,
      "दुक्का": 1407,
      "पर्याप्त": 1408,
      "छुपाएँ": 1409,
      "बताने": 1410,
      "आवरण": 1411,
      "ओं": 1412,
      "औजार": 1413,
      "तत्": 1414,
      "मति": 1415,
      "लिंग": 1416,
      "साझ": 1417,
      "पुनर्": 1418,
      "जाँचें": 1419,
      "make": 1420,
      "10": 1421,
      "ig": 1422,
      "पार": 1423,
      "हैः": 1424,
      "अंतर्वस्तु": 1425,
      "संरचना": 1426,
      "अनुमति": 1427,
      "मेक": 1428,
      "St": 1429,
      "cess": 1430,
      "बफर": 1431,
      "डिया": 1432,
      "पुस्त": 1433,
      "and": 1434,
      "मिलाएं": 1435,
      "मीडिया": 1436,
      "जिसमें": 1437,
      "बिंदु": 1438,
      "कुंजी": 1439,
      "da": 1440,
      "फ्र": 1441,
      "men": 1442,
      "रेखा": 1443,
      "GT": 1444,
      "as": 1445,
      "ce": 1446,
      "अभी": 1447,
      "उन": 1448,
      "विशेष": 1449,
      "विन्य": 1450,
      "रिकार्ड": 1451,
      "सम्": 1452,
      "होना": 1453,
      "दिखाएं": 1454,
      "जिसे": 1455,
      "elp": 1456,
      "समायोजित": 1457,
      "विन्यस्त": 1458,
      "ty": 1459,
      "with": 1460,
      "वाइ": 1461,
      "्ध": 1462,
      "फाइलों": 1463,
      "बद्ध": 1464,
      "दिखाने": 1465,
      "डेस्क": 1466,
      "डाटा": 1467,
      "घटक": 1468,
      "कैमरा": 1469,
      "\",": 1470,
      "AN": 1471,
      "Image": 1472,
      "ऊंचा": 1473,
      "गो": 1474,
      "ां": 1475,
      "हाल": 1476,
      "क्षण": 1477,
      "उपयुक्त": 1478,
      "चुने": 1479,
      "फ्लैग्सः": 1480,
      "हटाएं": 1481,
      "utils": 1482,
      "process": 1483,
      "उलटें": 1484,
      "Disc": 1485,
      "ऊंचाई": 1486,
      "\"-": 1487,
      "ID": 1488,
      "ht": 1489,
      "थमि": 1490,
      "फी": 1491,
      "जाये": 1492,
      "माल": 1493,
      "लेने": 1494,
      "कर्सर": 1495,
      "सिटरी": 1496,
      "मौज़ू": 1497,
      "पोसिटरी": 1498,
      "चुना": 1499,
      "प्राथमि": 1500,
      "ज़ूम": 1501,
      "General": 1502,
      "विश्लेषण": 1503,
      "Pub": 1504,
      "if": 1505,
      "ts": 1506,
      "vi": 1507,
      "ऑफ": 1508,
      "पश्": 1509,
      "बचा": 1510,
      "वत": 1511,
      "वह": 1512,
      "ीक": 1513,
      "आपको": 1514,
      "होस्ट": 1515,
      "मानक": 1516,
      "प्रविष्टि": 1517,
      "लंबाई": 1518,
      "Public": 1519,
      "ch": 1520,
      "आग्रह": 1521,
      "बच्": 1522,
      "स्वा": 1523,
      "डिफ": 1524,
      "ट्रेस": 1525,
      "सेटअप": 1526,
      "पृष्ठभूमि": 1527,
      "अग्रसार": 1528,
      "जरूरत": 1529,
      "मौज़ूदा": 1530,
      "sa": 1531,
      "बड़ा": 1532,
      "स्लाइस": 1533,
      "दिशा": 1534,
      "न्हें": 1535,
      "अनुमान": 1536,
      "पटल": 1537,
      "GNU": 1538,
      "अंतराल": 1539,
      "चेकसम": 1540,
      "ver": 1541,
      "ट्स": 1542,
      "तेज": 1543,
      "तों": 1544,
      "बदला": 1545,
      "तरित": 1546,
      "श्यक": 1547,
      "श्रव्य": 1548,
      "संगत": 1549,
      "help": 1550,
      "छे": 1551,
      "छोड": 1552,
      "छूट": 1553,
      "ठीक": 1554,
      "स्टा": 1555,
      "संचाल": 1556,
      "रिंग": 1557,
      "मिल": 1558,
      "स्ती": 1559,
      "अधिष्ठापित": 1560,
      "lot": 1561,
      "यूआरआई": 1562,
      "GTK": 1563,
      "संचालन": 1564,
      "बढ़": 1565,
      "रूट": 1566,
      "ब्रा": 1567,
      "व्यस्त": 1568,
      "अग्रसारित": 1569,
      "IT": 1570,
      "कं": 1571,
      "ख़": 1572,
      "मॉ": 1573,
      "प्रगति": 1574,
      "वर्ड": 1575,
      "होता": 1576,
      "बनाई": 1577,
      "रेपोसिटरी": 1578,
      "ord": 1579,
      "अपना": 1580,
      "कार्या": 1581,
      "डाय": 1582,
      "बन्द": 1583,
      "libgnomeui": 1584,
      "EOL": 1585,
      "पुस्तक": 1586,
      "dao": 1587,
      "ंजन": 1588,
      "गिन": 1589,
      "पअप": 1590,
      "पंजी": 1591,
      "स्वीकार": 1592,
      "alsa": 1593,
      "पॉपअप": 1594,
      "स्कैन": 1595,
      "प्राथमिकता": 1596,
      "छोडें": 1597,
      "कार्यान्": 1598,
      "Dev": 1599,
      "GL": 1600,
      "nd": 1601,
      "गहरा": 1602,
      "यथन": 1603,
      "पायथन": 1604,
      "मिली": 1605,
      "पहुंच": 1606,
      "सॉफ्": 1607,
      "आवश्यक": 1608,
      "गिनती": 1609,
      "गहराई": 1610,
      "मत": 1611,
      "कोः": 1612,
      "लिटे": 1613,
      "जाती": 1614,
      "सूट": 1615,
      "निर्देशिकाः": 1616,
      "अपार": 1617,
      "बर्स्ट": 1618,
      "हायपर": 1619,
      "प्रदर्शक": 1620,
      "ava": 1621,
      "API": 1622,
      "नोम": 1623,
      "बोर्ड": 1624,
      "तत्व": 1625,
      "लिटेयर": 1626,
      "%.": 1627,
      "बैक": 1628,
      "क्सम": 1629,
      "फ़्": 1630,
      "ारी": 1631,
      "ंटन": 1632,
      "कारक": 1633,
      "पिक्सम": 1634,
      "ate": 1635,
      "पथः": 1636,
      "चालू": 1637,
      "टाइम": 1638,
      "%%": 1639,
      "IS": 1640,
      "ame": 1641,
      "tw": 1642,
      "उभार": 1643,
      "गर": 1644,
      "हिस्": 1645,
      "सेटिंग": 1646,
      "किना": 1647,
      "शाखा": 1648,
      "oftw": 1649,
      "URL": 1650,
      "क्रमण": 1651,
      "उभारें": 1652,
      "oftware": 1653,
      "aut": 1654,
      "अतर": 1655,
      "टै": 1656,
      "यां": 1657,
      "विभा": 1658,
      "रीसेट": 1659,
      "बनाने": 1660,
      "टर्स": 1661,
      "वेबकैम": 1662,
      "अतरफलक": 1663,
      "kig": 1664,
      "sy": 1665,
      "अलग": 1666,
      "धित": 1667,
      "हि": 1668,
      "निश्": 1669,
      "इसकी": 1670,
      "क्टरी": 1671,
      "दूरी": 1672,
      "पहचा": 1673,
      "सॉलिटेयर": 1674,
      "बांटें": 1675,
      "स्वाभा": 1676,
      "kiga": 1677,
      "mm": 1678,
      "गनोम": 1679,
      "ड्": 1680,
      "डैश": 1681,
      "यहाँ": 1682,
      "ैया": 1683,
      "प्रे": 1684,
      "जोकर": 1685,
      "ree": 1686,
      "मौन": 1687,
      "नकल": 1688,
      "sert": 1689,
      "ext": 1690,
      "ब्राउ": 1691,
      "पहुंचनीय": 1692,
      "एल": 1693,
      "एटी": 1694,
      "जर": 1695,
      "ैर": 1696,
      "माण": 1697,
      "स्ते": 1698,
      "रूपा": 1699,
      "विकल्पः": 1700,
      "रद्दी": 1701,
      "विषयवस्तु": 1702,
      "23": 1703,
      "ss": 1704,
      "म्न": 1705,
      "करते": 1706,
      "र्म": 1707,
      "निम्न": 1708,
      "वाप": 1709,
      "जोड़ने": 1710,
      "छोटा": 1711,
      "समाहित": 1712,
      "ेदारी": 1713,
      "लंबवत": 1714,
      "भरें": 1715,
      "साझेदारी": 1716,
      "Gtk": 1717,
      "des": 1718,
      "pt": 1719,
      "पक": 1720,
      "र्फ": 1721,
      "तारी": 1722,
      "संवाद": 1723,
      "फाइलें": 1724,
      "अनुवाद": 1725,
      "ग्रहित": 1726,
      "चुनी": 1727,
      "सिर्फ": 1728,
      "बिना": 1729,
      "संकेतक": 1730,
      "Generic": 1731,
      "प्रदर्शित": 1732,
      "खोलने": 1733,
      "able": 1734,
      "निश्चित": 1735,
      "+)": 1736,
      "24": 1737,
      "TM": 1738,
      "am": 1739,
      "ber": 1740,
      "तर्": 1741,
      "दस्ती": 1742,
      "नों": 1743,
      "लस": 1744,
      "निरी": 1745,
      "मार्": 1746,
      "रानी": 1747,
      "जोड़ा": 1748,
      "लिखे": 1749,
      "होने": 1750,
      "स्टर": 1751,
      "पीआई": 1752,
      "शिता": 1753,
      "दर्शिता": 1754,
      "क्षमता": 1755,
      "record": 1756,
      "top": 1757,
      "cdrecord": 1758,
      "विशेषता": 1759,
      "ISO": 1760,
      "En": 1761,
      "hint": 1762,
      "ktop": 1763,
      "खरा": 1764,
      "तय": 1765,
      "थी": 1766,
      "पन्न": 1767,
      "मो": 1768,
      "लर": 1769,
      "षित": 1770,
      "डिवाइ": 1771,
      "सीमा": 1772,
      "मिन": 1773,
      "आपने": 1774,
      "गुम": 1775,
      "बेस": 1776,
      "डिबगिंग": 1777,
      "कम्": 1778,
      "सुधार": 1779,
      "immed": 1780,
      "खींच": 1781,
      "दूसरे": 1782,
      "number": 1783,
      "धान": 1784,
      "जायेगा": 1785,
      "मॉड": 1786,
      "desktop": 1787,
      "डिवाइस": 1788,
      ").": 1789,
      "mo": 1790,
      "out": 1791,
      "pli": 1792,
      "tr": 1793,
      "आवा": 1794,
      "इस्ते": 1795,
      "लाय": 1796,
      "निर्धार": 1797,
      "सिग्": 1798,
      "सरल": 1799,
      "ribut": 1800,
      "बर्नर": 1801,
      "इस्तेमाल": 1802,
      "निर्धारित": 1803,
      "सिग्नल": 1804,
      "Xlib": 1805,
      "man": 1806,
      "ul": 1807,
      "you": 1808,
      "चात": 1809,
      "चिप": 1810,
      "र्टक": 1811,
      "गलत": 1812,
      "पासवर्ड": 1813,
      "ग्ले": 1814,
      "hoo": 1815,
      "पश्चात": 1816,
      "बदलाव": 1817,
      "Cl": 1818,
      "min": 1819,
      "कस": 1820,
      "गह": 1821,
      "जगह": 1822,
      "बड्": 1823,
      "शॉ": 1824,
      "utter": 1825,
      "स्टेज": 1826,
      "डेव": 1827,
      "फोकस": 1828,
      "डालें": 1829,
      "टॉप": 1830,
      "पत्ते": 1831,
      "पत्तों": 1832,
      "पैरामीटर": 1833,
      "डेस्कटॉप": 1834,
      "वापस": 1835,
      "निरीक्षण": 1836,
      "Clutter": 1837,
      "बड्डी": 1838,
      "ँटें": 1839,
      "ईमेल": 1840,
      "जै": 1841,
      "नोट": 1842,
      "क्स्ट": 1843,
      "संबंध": 1844,
      "बां": 1845,
      "न्दु": 1846,
      "बिन्दु": 1847,
      "डेक": 1848,
      "डाक": 1849,
      "टेक्स्ट": 1850,
      "्डन": 1851,
      "पढ़ा": 1852,
      "खण्डन": 1853,
      "संशोधनः": 1854,
      "निकालें": 1855,
      "खराब": 1856,
      "चिपका": 1857,
      "OM": 1858,
      "ahoo": 1859,
      "md": 1860,
      "yahoo": 1861,
      "आइ": 1862,
      "त्य": 1863,
      "हमे": 1864,
      "ृत्": 1865,
      "संग्रहित": 1866,
      "हुए": 1867,
      "अंजु": 1868,
      "दाखि": 1869,
      "घुमाएँ": 1870,
      "वितरण": 1871,
      "क्लिपबोर्ड": 1872,
      "245": 1873,
      "शॉर्टक": 1874,
      "हमेशा": 1875,
      "दाखिल": 1876,
      "SL": 1877,
      "por": 1878,
      "slot": 1879,
      "चय": 1880,
      "ज्या": 1881,
      "डॉ": 1882,
      "दन": 1883,
      "नोड": 1884,
      "नष्ट": 1885,
      "देगा": 1886,
      "रखना": 1887,
      "thon": 1888,
      "सारे": 1889,
      "प्रकारः": 1890,
      "जाएगी": 1891,
      "भूमिका": 1892,
      "cdr": 1893,
      "python": 1894,
      "रेखांक": 1895,
      "सॉफ्टवेयर": 1896,
      "auto": 1897,
      "port": 1898,
      "(.": 1899,
      "(\\\\": 1900,
      ")?": 1901,
      "Re": 1902,
      "[\\\\": 1903,
      "])?": 1904,
      "su": 1905,
      "use": 1906,
      "उन्हें": 1907,
      "कूट": 1908,
      "ढे": 1909,
      "रह": 1910,
      "याई": 1911,
      "प्रश्": 1912,
      "रिय": 1913,
      "कॉन्": 1914,
      "\\\\])?": 1915,
      "दोष": 1916,
      "गीतसूची": 1917,
      "चित्र": 1918,
      "टिप्पणीः": 1919,
      "Insert": 1920,
      "सतह": 1921,
      "कनेक्ट": 1922,
      "प्रश्न": 1923,
      "\\\\])?:": 1924,
      "ect": 1925,
      "ler": 1926,
      "आब": 1927,
      "रफलक": 1928,
      "सत्या": 1929,
      "ीय": 1930,
      "स्मा": 1931,
      "स्ट्री": 1932,
      "फ़ाइलः": 1933,
      "खोली": 1934,
      "बदले": 1935,
      "तुल": 1936,
      "कनेक्शन": 1937,
      "Devhelp": 1938,
      "कम्पाइल": 1939,
      "ढेर": 1940,
      "स्मार्ट": 1941,
      "60": 1942,
      "660": 1943,
      "9660": 1944,
      "net": 1945,
      "आने": 1946,
      "आगे": 1947,
      "इंटर": 1948,
      "ऐसे": 1949,
      "चै": 1950,
      "तैया": 1951,
      "हस्ता": 1952,
      "र्स": 1953,
      "ताब": 1954,
      "किताब": 1955,
      "रिक्ति": 1956,
      "जोड़ेंः": 1957,
      "तरह": 1958,
      "आरंभिक": 1959,
      "पुनःप्राप्त": 1960,
      "छुपी": 1961,
      "पैरामीटर्स": 1962,
      "संतृ": 1963,
      "टूटी": 1964,
      "अपारदर्शिता": 1965,
      "एटीके": 1966,
      "ISO9660": 1967,
      "ग्लेड": 1968,
      "md5": 1969,
      "रिक्तिकरण": 1970,
      "ms": 1971,
      "rn": 1972,
      "ual": 1973,
      "थम": 1974,
      "नमू": 1975,
      "ैप": 1976,
      "लापन": 1977,
      "क्षा": 1978,
      "क्षित": 1979,
      "चार्ट": 1980,
      "पेटी": 1981,
      "भूत": 1982,
      "पत्ताः": 1983,
      "burn": 1984,
      "मूलभूत": 1985,
      "स्टार्ट": 1986,
      "टैब": 1987,
      "स्वाभाविक": 1988,
      "manual": 1989,
      "नमूना": 1990,
      "be": 1991,
      "असंभव": 1992,
      "आर्": 1993,
      "टाइल": 1994,
      "फॉ": 1995,
      "स्पर": 1996,
      "करो": 1997,
      "काफी": 1998,
      "प्रि": 1999,
      "ताजा": 2000,
      "परस्पर": 2001,
      "ट्रि": 2002,
      "एंकर": 2003,
      "गलती": 2004,
      "शीर्षकः": 2005,
      "ंतरण": 2006,
      "ard": 2007,
      "खिसका": 2008,
      "अधिष्ठापन": 2009,
      "बाध्यकारी": 2010,
      "उत्तर": 2011,
      "चीज": 2012,
      "एक्सेसे": 2013,
      "फ्री": 2014,
      "ANT": 2015,
      "अनुमानित": 2016,
      "पहुंचनीयता": 2017,
      "कॉन्फ़ि": 2018,
      "Free": 2019,
      "OS": 2020,
      "gra": 2021,
      "ix": 2022,
      "ऐसी": 2023,
      "प्रत्य": 2024,
      "परे": 2025,
      "उपस्थित": 2026,
      "छवियों": 2027,
      "पैचे": 2028,
      "शामिल": 2029,
      "चलाने": 2030,
      "खोजना": 2031,
      "नियत": 2032,
      "SIP": 2033,
      "शुदा": 2034,
      "ditor": 2035,
      "बन्ध": 2036,
      "दबाएँ": 2037,
      "डायरे": 2038,
      "कार्यान्वित": 2039,
      "तारीख़": 2040,
      "तयशुदा": 2041,
      "पैचेस": 2042,
      "PA": 2043,
      "Res": 2044,
      "Software": 2045,
      "ac": 2046,
      "bol": 2047,
      "mbol": 2048,
      "पेज": 2049,
      "रल": 2050,
      "वै": 2051,
      "लिस्ट": 2052,
      "सिंग": 2053,
      "त्रुटिः": 2054,
      "पिछली": 2055,
      "GNOM": 2056,
      "menu": 2057,
      "हिस्से": 2058,
      "symbol": 2059,
      "रेखांकित": 2060,
      "GNOME": 2061,
      "sc": 2062,
      "चम": 2063,
      "जहाँ": 2064,
      "नए": 2065,
      "ॉल": 2066,
      "कीलापन": 2067,
      "बाजू": 2068,
      "न्स": 2069,
      "निर्माण": 2070,
      "दायाँ": 2071,
      "रेट": 2072,
      "dist": 2073,
      "वेदन": 2074,
      "बेकार": 2075,
      "पढ़ने": 2076,
      "संतति": 2077,
      "ption": 2078,
      "चमकीलापन": 2079,
      "distribut": 2080,
      "Ekiga": 2081,
      "ंभी": 2082,
      "एन": 2083,
      "खु": 2084,
      "णा": 2085,
      "सेल": 2086,
      "माउस": 2087,
      "दिख": 2088,
      "ंगे": 2089,
      "बाल": 2090,
      "लिखी": 2091,
      "त्म": 2092,
      "रोस्टर": 2093,
      "end": 2094,
      "सारां": 2095,
      "ड्रैग": 2096,
      "परिवर्तनीय": 2097,
      "सहायता": 2098,
      "पहचान": 2099,
      "रूपांतरण": 2100,
      "आवाज": 2101,
      "दोषसुधार": 2102,
      "सारांश": 2103,
      "बजाएँ": 2104,
      "रंजन": 2105,
      "श्रे": 2106,
      "प्रेशन": 2107,
      "जाल": 2108,
      "मापक": 2109,
      "राजे": 2110,
      "क्रे": 2111,
      "भीतर": 2112,
      "ब्जेक्ट": 2113,
      "फोटो": 2114,
      "भाषित": 2115,
      "एक्सप्रेशन": 2116,
      "दोहराएँ": 2117,
      "तुल्य": 2118,
      "राजेश": 2119,
      "323": 2120,
      "Java": 2121,
      "card": 2122,
      "ran": 2123,
      "ऑब्जेक्ट": 2124,
      "ओर": 2125,
      "फाइ": 2126,
      "भरण": 2127,
      "लौ": 2128,
      "हल": 2129,
      "स्या": 2130,
      "काम": 2131,
      "प्रेस": 2132,
      "निहित": 2133,
      "डील": 2134,
      "वाई": 2135,
      "टिक": 2136,
      "this": 2137,
      "पीछे": 2138,
      "पैन": 2139,
      "ज़र": 2140,
      "कॉलम": 2141,
      "समाधान": 2142,
      "जनरल": 2143,
      "art": 2144,
      "विश्लेषित": 2145,
      "अन्तर्": 2146,
      "शैलीः": 2147,
      "डैशर": 2148,
      "लायक": 2149,
      "संतृप्ति": 2150,
      "अन्तर्निहित": 2151,
      "con": 2152,
      "ha": 2153,
      "ject": 2154,
      "option": 2155,
      "इं": 2156,
      "बु": 2157,
      "मैसे": 2158,
      "सला": 2159,
      "काटें": 2160,
      "परेशन": 2161,
      "संवेदन": 2162,
      "हार्ड": 2163,
      "ल्स": 2164,
      "अंजू": 2165,
      "ent": 2166,
      "श्विक": 2167,
      "खोजें": 2168,
      "हटाओ": 2169,
      "शॉर्टकट": 2170,
      "कूटशब्द": 2171,
      "वैश्विक": 2172,
      "सलाह": 2173,
      "संवेदनशील": 2174,
      "अंजूटा": 2175,
      "GiB": 2176,
      "TI": 2177,
      "उपर": 2178,
      "ठहरा": 2179,
      "भरा": 2180,
      "रै": 2181,
      "स्लॉ": 2182,
      "क्ल": 2183,
      "लिपि": 2184,
      "प्रसंग": 2185,
      "नेट": 2186,
      "मानि": 2187,
      "ंटी": 2188,
      "इनकमि": 2189,
      "इसलिए": 2190,
      "रखने": 2191,
      "डेवल": 2192,
      "पताः": 2193,
      "एसवीसीडी": 2194,
      "दर्भ": 2195,
      "यूरो": 2196,
      "ite": 2197,
      "ound": 2198,
      "पेंड": 2199,
      "मिटाएं": 2200,
      "अंतराफलक": 2201,
      "बजाय": 2202,
      "मिति": 2203,
      "हायपरलिंक": 2204,
      "ज्यामिति": 2205,
      "ठहराव": 2206,
      "स्लॉट": 2207,
      "इनकमिंग": 2208,
      "oundation": 2209,
      "00": 2210,
      "Editor": 2211,
      "aj": 2212,
      "hk": 2213,
      "jes": 2214,
      "ml": 2215,
      "sion": 2216,
      "ढा": 2217,
      "वत्ता": 2218,
      "सन्": 2219,
      "केस": 2220,
      "सेवा": 2221,
      "पाई": 2222,
      "लेकि": 2223,
      "रिलिक": 2224,
      "जोड़ना": 2225,
      "अनुसार": 2226,
      "बनाएं": 2227,
      "उपयोगी": 2228,
      "पैच": 2229,
      "गुणवत्ता": 2230,
      "rajes": 2231,
      "प्रबंधन": 2232,
      "row": 2233,
      "प्लेलिस्ट": 2234,
      "साइरिलिक": 2235,
      "type": 2236,
      "नोटः": 2237,
      "cdrdao": 2238,
      "सत्यापन": 2239,
      "डायरेक्टरी": 2240,
      "श्रेणी": 2241,
      "ajha": 2242,
      "hkajha": 2243,
      "लेकिन": 2244,
      "rajeshkajha": 2245,
      "\"--": 2246,
      "Blu": 2247,
      "HO": 2248,
      "ful": 2249,
      "ंटा": 2250,
      "उद्": 2251,
      "कन": 2252,
      "कू": 2253,
      "गार": 2254,
      "ुल": 2255,
      "ेप": 2256,
      "स्को": 2257,
      "सेक": 2258,
      "हालिया": 2259,
      "लेना": 2260,
      "ंगो": 2261,
      "चुनने": 2262,
      "चुनते": 2263,
      "medi": 2264,
      "तीस": 2265,
      "मुक्त": 2266,
      "दोनों": 2267,
      "समाप्त": 2268,
      "समाप्ति": 2269,
      "rol": 2270,
      "प्रतिबन्ध": 2271,
      "सुनिश्चित": 2272,
      "आधारित": 2273,
      "lets": 2274,
      "पढ़ें": 2275,
      "impli": 2276,
      "एमडी": 2277,
      "आयत": 2278,
      "applets": 2279,
      "without": 2280,
      "पंजीकृत": 2281,
      "मिलीसेकेंड": 2282,
      "स्ट्रीम": 2283,
      "Git": 2284,
      "Game": 2285,
      "gin": 2286,
      "आंक": 2287,
      "इति": 2288,
      "गैर": 2289,
      "झु": 2290,
      "स्पे": 2291,
      "कापी": 2292,
      "निर": 2293,
      "हास": 2294,
      "आपका": 2295,
      "हुई": 2296,
      "इंचः": 2297,
      "शेल": 2298,
      "आवंटन": 2299,
      "buf": 2300,
      "साइसर": 2301,
      "संगतता": 2302,
      "बढ़ा": 2303,
      "किनारे": 2304,
      "इतिहास": 2305,
      "',": 2306,
      "Bu": 2307,
      "Balsa": 2308,
      "gz": 2309,
      "pre": 2310,
      "tu": 2311,
      "उंड": 2312,
      "एंड": 2313,
      "घव": 2314,
      "चें": 2315,
      "बै": 2316,
      "बॉ": 2317,
      "िकी": 2318,
      "ेजा": 2319,
      "काव": 2320,
      "र्घव": 2321,
      "डिफो": 2322,
      "पाएं": 2323,
      "डीबग": 2324,
      "वास्त": 2325,
      "लीज": 2326,
      "report": 2327,
      "अंतरफलक": 2328,
      "पंक्तियाँ": 2329,
      "बिट": 2330,
      "प्रोग्राम्स": 2331,
      "illa": 2332,
      "आईडी": 2333,
      "दीर्घव": 2334,
      "raser": 2335,
      "नियमित": 2336,
      "फार्": 2337,
      "सॉफ़्": 2338,
      "progra": 2339,
      "एटलस": 2340,
      "प्लेयर": 2341,
      "shad": 2342,
      "बहुत": 2343,
      "बजायी": 2344,
      "सोल": 2345,
      "फ़िल्टर": 2346,
      "बैकएंड": 2347,
      "पिक्समेप": 2348,
      "आइकन": 2349,
      "ृत्त": 2350,
      "आंकड़ा": 2351,
      "झुकाव": 2352,
      "gzilla": 2353,
      "डिफोल्ट": 2354,
      "दीर्घवृत्त": 2355,
      "rasero": 2356,
      "सॉफ़्टवेयर": 2357,
      "shader": 2358,
      "(\"": 2359,
      "//": 2360,
      "GP": 2361,
      "HTM": 2362,
      "balsa": 2363,
      "gr": 2364,
      "pr": 2365,
      "आंत": 2366,
      "औज़": 2367,
      "कला": 2368,
      "गत": 2369,
      "गरानी": 2370,
      "थ्रे": 2371,
      "दह": 2372,
      "पब्": 2373,
      "भंड": 2374,
      "“%": 2375,
      "याद": 2376,
      "संजाल": 2377,
      "मेंट्स": 2378,
      "निगरानी": 2379,
      "माना": 2380,
      "समस्या": 2381,
      "स्थापन": 2382,
      "जोड़ी": 2383,
      "अनुक्रमण": 2384,
      "होगी": 2385,
      "गुमेंट्स": 2386,
      "हेल्प": 2387,
      "दुक्की": 2388,
      "बदलना": 2389,
      "gtkht": 2390,
      "river": 2391,
      "चेतावनीः": 2392,
      "GtkHTM": 2393,
      "चिपकाएँ": 2394,
      "automake": 2395,
      "आर्गुमेंट्स": 2396,
      "आंतरिक": 2397,
      "औज़ार": 2398,
      "पब्लिक": 2399,
      "भंडार": 2400,
      "अनुक्रमणिका": 2401,
      "gtkhtml": 2402,
      "GtkHTML": 2403,
      "22": 2404,
      "SD": 2405,
      "lin": 2406,
      "नयी": 2407,
      "बड़ी": 2408,
      "मध्य": 2409,
      "वैक": 2410,
      "संदर्भ": 2411,
      "जानी": 2412,
      "पाने": 2413,
      "बाँटें": 2414,
      "खोला": 2415,
      "होती": 2416,
      "चुनो": 2417,
      "ल्पिक": 2418,
      "not": 2419,
      "स्क्रॉल": 2420,
      "पुनरा": 2421,
      "जीएन": 2422,
      "वर्गः": 2423,
      "फाई": 2424,
      "stdo": 2425,
      "tool": 2426,
      "our": 2427,
      "det": 2428,
      "tering": 2429,
      "जिसके": 2430,
      "बांटना": 2431,
      "एमएल": 2432,
      "अन्दर": 2433,
      "libgnomepr": 2434,
      "उत्पन्न": 2435,
      "सोर्स": 2436,
      "intui": 2437,
      "100": 2438,
      "ऑफसेट": 2439,
      "version": 2440,
      "विभाज": 2441,
      "प्रेषित": 2442,
      "त्मक": 2443,
      "डेवलपर": 2444,
      "वैकल्पिक": 2445,
      "जीएनयू": 2446,
      "stdout": 2447,
      "libgnomeprintui": 2448,
      "+/": 2449,
      "Foundation": 2450,
      "Ob": 2451,
      "pix": 2452,
      "up": 2453,
      "आपरेशन": 2454,
      "इंड": 2455,
      "कैसे": 2456,
      "गण": 2457,
      "गयी": 2458,
      "चार": 2459,
      "छि": 2460,
      "फेस": 2461,
      "बाइ": 2462,
      "रजि": 2463,
      "ॉट": 2464,
      "्रवाई": 2465,
      "क्यू": 2466,
      "संग्रह": 2467,
      "फ़ाइलनाम": 2468,
      "परिक": 2469,
      "परिचय": 2470,
      "वर्ती": 2471,
      "कार्रवाई": 2472,
      "चयनक": 2473,
      "दिखाया": 2474,
      "स्थितिः": 2475,
      "पुरा": 2476,
      "पूर्णस्क्रीन": 2477,
      "कैन": 2478,
      "पट्टि": 2479,
      "ave": 2480,
      "म्प": 2481,
      "त्याग": 2482,
      "इंटरफेस": 2483,
      "Object": 2484,
      "गणना": 2485,
      "Dif": 2486,
      "FO": 2487,
      "RW": 2488,
      "ST": 2489,
      "can": 2490,
      "ly": 2491,
      "te": 2492,
      "text": 2493,
      "ंतरित": 2494,
      "अपरि": 2495,
      "कंट": 2496,
      "यं": 2497,
      "रपट": 2498,
      "सें": 2499,
      "स्ति": 2500,
      "स्लाइ": 2501,
      "लेआउट": 2502,
      "रिकॉ": 2503,
      "वास": 2504,
      "अनुलंब": 2505,
      "रूकें": 2506,
      "मेन": 2507,
      "दिखाई": 2508,
      "संदेशः": 2509,
      "पुस्ति": 2510,
      "शिशु": 2511,
      "ictu": 2512,
      "मददगार": 2513,
      "state": 2514,
      "प्रतिलिपि": 2515,
      "जावास्क्रिप्ट": 2516,
      "वरीयताएँ": 2517,
      "लेखकः": 2518,
      "विरोधी": 2519,
      "मेकफाइल": 2520,
      "कंपाइल": 2521,
      "पिक्समैप": 2522,
      "सीमांत": 2523,
      "मिनट": 2524,
      "try": 2525,
      "तुल्यका": 2526,
      "भराई": 2527,
      "media": 2528,
      "बिटरेट": 2529,
      "tools": 2530,
      "Diff": 2531,
      "पुस्तिका": 2532,
      "icture": 2533,
      "IP": 2534,
      "iv": 2535,
      "ld": 2536,
      "एस्": 2537,
      "पठ": 2538,
      "भेद": 2539,
      "रु": 2540,
      "लन": 2541,
      "हरी": 2542,
      "ीमा": 2543,
      "ेन्ट": 2544,
      "कोडिंग": 2545,
      "वितरित": 2546,
      "विभेद": 2547,
      "किंग": 2548,
      "उपयोगकर्ता": 2549,
      "विंडोज़": 2550,
      "बेल": 2551,
      "ERC": 2552,
      "केंद्रित": 2553,
      "वरीयताएं": 2554,
      "सतल": 2555,
      "ण्डर": 2556,
      "आबंटन": 2557,
      "rowisofs": 2558,
      "कलाकार": 2559,
      "ource": 2560,
      "इंडेन्ट": 2561,
      "एस्ले": 2562,
      "विभेदन": 2563,
      "इंडेन्टेशन": 2564,
      "+.": 2565,
      "://": 2566,
      "Bo": 2567,
      "Brasero": 2568,
      "SS": 2569,
      "TH": 2570,
      "Text": 2571,
      "Vi": 2572,
      "driver": 2573,
      "gma": 2574,
      "gener": 2575,
      "pla": 2576,
      "ंप": 2577,
      "कभी": 2578,
      "कथन": 2579,
      "टने": 2580,
      "नज़र": 2581,
      "बज": 2582,
      "बक्से": 2583,
      "ेट": 2584,
      "प्रथम": 2585,
      "संक्रिया": 2586,
      "नेल": 2587,
      "रिकार्": 2588,
      "हुच": 2589,
      "अनुपा": 2590,
      "अनुकू": 2591,
      "पूछ": 2592,
      "नीक": 2593,
      "दान": 2594,
      "दिखाना": 2595,
      "कर्नेल": 2596,
      "फिल्ट": 2597,
      "सहेजी": 2598,
      "पुष्टि": 2599,
      "आरड": 2600,
      "...)": 2601,
      "रंगः": 2602,
      "ट्रैकस": 2603,
      "अतिलेखन": 2604,
      "अधिकतर": 2605,
      "संख्याएं": 2606,
      "raw": 2607,
      "ray": 2608,
      "परिवर्तित": 2609,
      "जाएंगे": 2610,
      "लॉन्": 2611,
      "दृष्टि": 2612,
      "सुसंगतता": 2613,
      "तकनीक": 2614,
      "पुनःभार": 2615,
      "gtk22": 2616,
      "मूल्य": 2617,
      "लगायें": 2618,
      "बहुल": 2619,
      "आयतन": 2620,
      "पत्रिका": 2621,
      "विफलता": 2622,
      "जांचें": 2623,
      "गोचर": 2624,
      "बच्चा": 2625,
      "स्वीकारें": 2626,
      "किनारा": 2627,
      "mmc": 2628,
      "चैनल": 2629,
      "कॉन्फ़िगर": 2630,
      "तीसरे": 2631,
      "पुनरावर्ती": 2632,
      "generic": 2633,
      "रिकार्डिंग": 2634,
      "दृष्टिगोचर": 2635,
      "पुनःभारित": 2636,
      "LD": 2637,
      "OT": 2638,
      "have": 2639,
      "ib": 2640,
      "ne": 2641,
      "अब": 2642,
      "अर": 2643,
      "अभि": 2644,
      "गंत": 2645,
      "घर": 2646,
      "ड्यूल": 2647,
      "पहला": 2648,
      "मेज": 2649,
      "लपे": 2650,
      "शं": 2651,
      "ेक": 2652,
      "र्साइसर": 2653,
      "तावरण": 2654,
      "विलग": 2655,
      "लेबल": 2656,
      "देने": 2657,
      "ल्सा": 2658,
      "परिवर्": 2659,
      "नामकरण": 2660,
      "वातावरण": 2661,
      "कारण": 2662,
      "पाठ्य": 2663,
      "समयः": 2664,
      "नियम": 2665,
      "पिछले": 2666,
      "जमावट": 2667,
      "imal": 2668,
      "नियंत्रित": 2669,
      "दूसरा": 2670,
      "एक्सेर्साइसर": 2671,
      "टूल": 2672,
      "ment": 2673,
      "डाटाबेस": 2674,
      "मॉडल": 2675,
      "प्रिंट": 2676,
      "प्रत्येक": 2677,
      "GPL": 2678,
      "फाईल": 2679,
      "गंतव्य": 2680,
      "परिवर्धित": 2681,
      "),": 2682,
      "HA": 2683,
      "No": 2684,
      "New": 2685,
      "Se": 2686,
      "SHA": 2687,
      "UN": 2688,
      "db": 2689,
      "tra": 2690,
      "ंडिंग": 2691,
      "आसा": 2692,
      "इंजन": 2693,
      "एपीआई": 2694,
      "चलें": 2695,
      "प्यू": 2696,
      "फें": 2697,
      "रक्षित": 2698,
      "लने": 2699,
      "विभिन्न": 2700,
      "संस्थापन": 2701,
      "जायन": 2702,
      "हां": 2703,
      "परिणा": 2704,
      "बाकी": 2705,
      "टिव": 2706,
      "स्तम्": 2707,
      "फाइलनाम": 2708,
      "निर्यात": 2709,
      "प्रोफ़ाइल": 2710,
      "ट्रै": 2711,
      "रोह": 2712,
      "ind": 2713,
      "पंक्तियां": 2714,
      "आरंभी": 2715,
      "चौवा": 2716,
      "खेला": 2717,
      "libisofs": 2718,
      "छांटा": 2719,
      "र्डर": 2720,
      "deo": 2721,
      "भरने": 2722,
      "घटनाओं": 2723,
      "बद्धता": 2724,
      "vir": 2725,
      "जैसा": 2726,
      "अंजुता": 2727,
      "एमडीआई": 2728,
      "Bugzilla": 2729,
      "program": 2730,
      "दहलीज": 2731,
      "त्यागें": 2732,
      "STUN": 2733,
      "परिणाम": 2734,
      "स्तम्भ": 2735,
      "30": 2736,
      "Fil": 2737,
      "Id": 2738,
      "Lib": 2739,
      "growisofs": 2740,
      "java": 2741,
      "sess": 2742,
      "ti": 2743,
      "un": 2744,
      "एच": 2745,
      "एनी": 2746,
      "कच": 2747,
      "गित": 2748,
      "बू": 2749,
      "रही": 2750,
      "हस्त": 2751,
      "संलग": 2752,
      "स्थगित": 2753,
      "बनाना": 2754,
      "त्वर": 2755,
      "मेट": 2756,
      "मेशन": 2757,
      "चाहें": 2758,
      "रेशन": 2759,
      "कर्स": 2760,
      "that": 2761,
      "लक्ष्यः": 2762,
      "atla": 2763,
      "स्रोतः": 2764,
      "अनुप्रयोगों": 2765,
      "चलाएं": 2766,
      "ड्राइवर": 2767,
      "बहुविधि": 2768,
      "ction": 2769,
      "nder": 2770,
      "डॉक": 2771,
      "तैयारी": 2772,
      "पुराने": 2773,
      "पूछें": 2774,
      "LDAP": 2775,
      "File": 2776,
      "session": 2777,
      "एनीमेशन": 2778,
      "'(.": 2779,
      "200": 2780,
      "51": 2781,
      "FF": 2782,
      "Le": 2783,
      "OFF": 2784,
      "SA": 2785,
      "`(.": 2786,
      "ail": 2787,
      "fo": 2788,
      "wil": 2789,
      "war": 2790,
      "आलोक": 2791,
      "डैर": 2792,
      "मन": 2793,
      "तार": 2794,
      "संक्रमण": 2795,
      "ल्टिक": 2796,
      "दिए": 2797,
      "पूछे": 2798,
      "ग्रै": 2799,
      "रों": 2800,
      "ब्रू": 2801,
      "पीय": 2802,
      "शिष्ट": 2803,
      "फोंट": 2804,
      "डाउन": 2805,
      "सर्ज": 2806,
      "टिप्स": 2807,
      "विवरणः": 2808,
      "अन्यथा": 2809,
      "old": 2810,
      "aving": 2811,
      "दाहि": 2812,
      "खीचें": 2813,
      "चीनी": 2814,
      "lugin": 2815,
      "view": 2816,
      "che": 2817,
      "हिब्रू": 2818,
      "GtkS": 2819,
      "+)'": 2820,
      "Entering": 2821,
      "जैंगो": 2822,
      "अंजुटा": 2823,
      "दिखती": 2824,
      "लौटा": 2825,
      "यूरोपीय": 2826,
      "सेकण्ड": 2827,
      "बैकेंड": 2828,
      "कैनवास": 2829,
      "अपरिचित": 2830,
      "View": 2831,
      "gmail": 2832,
      "टनेलिंग": 2833,
      "चाहेंगे": 2834,
      "Leaving": 2835,
      "will": 2836,
      "आलोकित": 2837,
      "डैरक्टरी": 2838,
      "डाउनलोड": 2839,
      "AB": 2840,
      "DTM": 2841,
      "NT": 2842,
      "Sc": 2843,
      "dr": 2844,
      "eiv": 2845,
      "ring": 2846,
      "ऑप्": 2847,
      "फै": 2848,
      "साइट": 2849,
      "केट": 2850,
      "डिजायन": 2851,
      "हाला": 2852,
      "साव": 2853,
      "बायाँ": 2854,
      "क्रो": 2855,
      "प्रोफाइ": 2856,
      "इसका": 2857,
      "मेटा": 2858,
      "पैमाना": 2859,
      "disc": 2860,
      "ong": 2861,
      "फोन": 2862,
      "स्वयं": 2863,
      "संस्करणः": 2864,
      "देखिए": 2865,
      "फास्ट": 2866,
      "व्यव": 2867,
      "receiv": 2868,
      "def": 2869,
      "ऊपरी": 2870,
      "मिटाया": 2871,
      "named": 2872,
      "च्छ": 2873,
      "दूसरी": 2874,
      "लगाएँ": 2875,
      "साझा": 2876,
      "ांस": 2877,
      "फ्रीसेल": 2878,
      "मैसेज": 2879,
      "रैण्डर": 2880,
      "DTMF": 2881,
      "प्रोफाइलिंग": 2882,
      ".%": 2883,
      "11": 2884,
      "CU": 2885,
      "Ctr": 2886,
      "ESS": 2887,
      "FIT": 2888,
      "HANT": 2889,
      "IL": 2890,
      "LAR": 2891,
      "My": 2892,
      "MERC": 2893,
      "NESS": 2894,
      "PUR": 2895,
      "PAR": 2896,
      "POS": 2897,
      "RANT": 2898,
      "UT": 2899,
      "Vo": 2900,
      "WAR": 2901,
      "WIT": 2902,
      "X11": 2903,
      "Yac": 2904,
      "bel": 2905,
      "eb": 2906,
      "kb": 2907,
      "plugin": 2908,
      "tp": 2909,
      "ua": 2910,
      "आसं": 2911,
      "आलेख": 2912,
      "इंत": 2913,
      "गये": 2914,
      "डो": 2915,
      "तरी": 2916,
      "धर": 2917,
      "धरण": 2918,
      "धीमा": 2919,
      "फुल": 2920,
      "मई": 2921,
      "वयन": 2922,
      "स्पैन": 2923,
      "कान": 2924,
      "क्विक": 2925,
      "डिब्": 2926,
      "डिपेंड": 2927,
      "नेजर": 2928,
      "ड़े": 2929,
      "मापन": 2930,
      "दिये": 2931,
      "परिभाषित": 2932,
      "रियो": 2933,
      "रिपो": 2934,
      "बाहरी": 2935,
      "उपशीर्षक": 2936,
      "लिखित": 2937,
      "अनुमापन": 2938,
      "हैंः": 2939,
      "अंदा": 2940,
      "चयनीय": 2941,
      "reen": 2942,
      "ream": 2943,
      "तीन": 2944,
      "खोलेंः": 2945,
      "सहेजन": 2946,
      "टीएस": 2947,
      "पिंग": 2948,
      "आकारः": 2949,
      "वेषित": 2950,
      "ist": 2951,
      "खेलें": 2952,
      "क्रियात्मक": 2953,
      "एसडी": 2954,
      "बीएसडी": 2955,
      "लोडिंग": 2956,
      "जबतक": 2957,
      "गतिः": 2958,
      "प्रतीक्षा": 2959,
      "टैगः": 2960,
      "प्रारूपः": 2961,
      "एक्सएमएल": 2962,
      "टोप": 2963,
      "अंतर्वेषित": 2964,
      "अंतर्क्रियात्मक": 2965,
      "वेबसाइट": 2966,
      "उलटी": 2967,
      "Inc": 2968,
      "even": 2969,
      "मैप": 2970,
      "मैनेजर": 2971,
      "hope": 2972,
      "force": 2973,
      "चिह्नित": 2974,
      "पुनर्निर्देश": 2975,
      "पुनर्नामकरण": 2976,
      "डेस्कटोप": 2977,
      "ANY": 2978,
      "http": 2979,
      "video": 2980,
      "बच्चे": 2981,
      "ITY": 2982,
      "कार्यान्वयन": 2983,
      "विभाजन": 2984,
      "निम्नलिखित": 2985,
      "more": 2986,
      "useful": 2987,
      "रियॉट": 2988,
      "ट्रिगर": 2989,
      "एक्सेसेबल": 2990,
      "एक्सेसेबेल": 2991,
      "distributed": 2992,
      "ranty": 2993,
      "options": 2994,
      "TICU": 2995,
      "मानिटर": 2996,
      "HOUT": 2997,
      "उद्धरण": 2998,
      "implied": 2999,
      "detail": 3000,
      "FOR": 3001,
      "कंपाइलर": 3002,
      "तुल्यकालित": 3003,
      "एस्लेरियॉट": 3004,
      "नज़रअंदा": 3005,
      "See": 3006,
      "track": 3007,
      "आसान": 3008,
      "warranty": 3009,
      "check": 3010,
      "ABIL": 3011,
      "Ctrl": 3012,
      "FITNESS": 3013,
      "HANTABIL": 3014,
      "MERCHANTABIL": 3015,
      "PURPOS": 3016,
      "PARTICU": 3017,
      "RANTY": 3018,
      "WARRANTY": 3019,
      "WITHOUT": 3020,
      "Yacc": 3021,
      "आसंधि": 3022,
      "इंतजार": 3023,
      "डिब्बा": 3024,
      "reamer": 3025,
      "details": 3026,
      "नज़रअंदाज़": 3027,
      "MERCHANTABILITY": 3028,
      "PURPOSE": 3029,
      "PARTICULAR": 3030,
      "09": 3031,
      "Cdr": 3032,
      "Icon": 3033,
      "put": 3034,
      "ग्न": 3035,
      "चों": 3036,
      "ज्य": 3037,
      "थे": 3038,
      "बफ़": 3039,
      "लू": 3040,
      "समान": 3041,
      "ुरी": 3042,
      "काला": 3043,
      "सेरो": 3044,
      "परी": 3045,
      "मेंट": 3046,
      "प्रोफाइल": 3047,
      "reg": 3048,
      "सहेजा": 3049,
      "पैड": 3050,
      "पिक्स": 3051,
      "ब्ल": 3052,
      "वेष": 3053,
      "डालने": 3054,
      "सबसे": 3055,
      "बीज": 3056,
      "मिलान": 3057,
      "देखने": 3058,
      "भेजने": 3059,
      "स्वतःपूर्ण": 3060,
      "गेट": 3061,
      "अन्वेष": 3062,
      "बच्चों": 3063,
      "ब्राउज़": 3064,
      "संबंधित": 3065,
      "तैयार": 3066,
      "खिसकाएँ": 3067,
      "स्कोप": 3068,
      "फार्मेट": 3069,
      "विभाजित": 3070,
      "ourceView": 3071,
      "कचरे": 3072,
      "हस्तचालित": 3073,
      "त्वरक": 3074,
      "GtkSourceView": 3075,
      "बफ़र": 3076,
      "75": 3077,
      "Rol": 3078,
      "Thi": 3079,
      "cu": 3080,
      "cam": 3081,
      "hin": 3082,
      "आरेखण": 3083,
      "कटा": 3084,
      "ग्य": 3085,
      "छर": 3086,
      "ास्ट": 3087,
      "ीकरण": 3088,
      "्रास्ट": 3089,
      "काल्स": 3090,
      "लियन": 3091,
      "विध": 3092,
      "विक्रे": 3093,
      "विशिष्ट": 3094,
      "विविध": 3095,
      "प्वाइ": 3096,
      "मिले": 3097,
      "लगता": 3098,
      "अंश": 3099,
      "रेगु": 3100,
      "स्टैश": 3101,
      "लाइबे": 3102,
      "पंक्तिबद्धता": 3103,
      "डेट": 3104,
      "फ़ॉर्म": 3105,
      "ब्रेसेरो": 3106,
      "कैरो": 3107,
      "recent": 3108,
      "गतिशील": 3109,
      "dec": 3110,
      "label": 3111,
      "श्री": 3112,
      "निकास": 3113,
      "ऑफस्क्रीन": 3114,
      "खींचें": 3115,
      "मॉड्यूल": 3116,
      "डेवहेल्प": 3117,
      "फॉर्म": 3118,
      "roller": 3119,
      "बाइंडिंग": 3120,
      "कंट्रास्ट": 3121,
      "रिकॉर्ड": 3122,
      "लौटाया": 3123,
      "ebcam": 3124,
      "kbit": 3125,
      "बीजशब्द": 3126,
      "Roller": 3127,
      "This": 3128,
      "hindi": 3129,
      "विक्रेता": 3130,
      "रेगुलर": 3131,
      "लाइबेरी": 3132,
      "110": 3133,
      "130": 3134,
      "28": 3135,
      "56": 3136,
      "Cla": 3137,
      "GObject": 3138,
      "You": 3139,
      "bo": 3140,
      "ekiga": 3141,
      "mi": 3142,
      "mk": 3143,
      "og": 3144,
      "odi": 3145,
      "pen": 3146,
      "picture": 3147,
      "software": 3148,
      "tart": 3149,
      "under": 3150,
      "wodi": 3151,
      "अनियत": 3152,
      "इमेज": 3153,
      "उसे": 3154,
      "चो": 3155,
      "छैतिज": 3156,
      "छपाई": 3157,
      "तब": 3158,
      "पद": 3159,
      "भण्ड": 3160,
      "वन": 3161,
      "—%": 3162,
      "र्ध्": 3163,
      "हैवन": 3164,
      "संपन्न": 3165,
      "पाना": 3166,
      "लेपर": 3167,
      "प्स": 3168,
      "ल्म": 3169,
      "वाधर": 3170,
      "जोड़ता": 3171,
      "ट्रांस": 3172,
      "रेक्ट": 3173,
      "org": 3174,
      "अंतः": 3175,
      "पैनल": 3176,
      "पुर्": 3177,
      "कमांडः": 3178,
      "along": 3179,
      "खेले": 3180,
      "मेलन": 3181,
      "अवस्था": 3182,
      "प्राप्ति": 3183,
      "libburn": 3184,
      "प्रतिश": 3185,
      "copy": 3186,
      "ख्यिकी": 3187,
      "प्रतीत": 3188,
      "Copy": 3189,
      "ould": 3190,
      "छाँटें": 3191,
      "सांख्यिकी": 3192,
      "क़िस्मः": 3193,
      "02110": 3194,
      "वर्णनः": 3195,
      "doc": 3196,
      "घुसाई": 3197,
      "कालम": 3198,
      "shed": 3199,
      "should": 3200,
      "चीज़": 3201,
      "पुनर्भंडार": 3202,
      "सम्मेलन": 3203,
      "मालः": 3204,
      "GTKmm": 3205,
      "प्राथमिकताएँ": 3206,
      "हिस्सा": 3207,
      "मार्कर": 3208,
      "बदलावों": 3209,
      "डेवलेपर": 3210,
      "Restart": 3211,
      "distribute": 3212,
      "बुरा": 3213,
      "आर्गुमेंट्सः": 3214,
      "SDL": 3215,
      "प्यूटर": 3216,
      "फेंटें": 3217,
      "बाकीः": 3218,
      "received": 3219,
      "1301": 3220,
      "Class": 3221,
      "wodim": 3222,
      "इमेज़": 3223,
      "भण्डार": 3224,
      "र्ध्वाधर": 3225,
      "\":": 3226,
      "\"[": 3227,
      ")%.": 3228,
      ",...)": 3229,
      "90": 3230,
      "BD": 3231,
      "CP": 3232,
      "EX": 3233,
      "Open": 3234,
      "Spli": 3235,
      "TEX": 3236,
      "Win": 3237,
      "]\"": 3238,
      "dh": 3239,
      "ght": 3240,
      "rra": 3241,
      "rite": 3242,
      "sf": 3243,
      "sum": 3244,
      "wa": 3245,
      "ँहुच": 3246,
      "ंकि": 3247,
      "ंटिंग": 3248,
      "ंपरिक": 3249,
      "उचित": 3250,
      "एंटी": 3251,
      "ऑपरे": 3252,
      "कठ": 3253,
      "नक्स": 3254,
      "पँहुच": 3255,
      "लंग": 3256,
      "सके": 3257,
      "ेबल": 3258,
      "ॉक्": 3259,
      "र्डिंग": 3260,
      "कोडेक": 3261,
      "प्रॉक्": 3262,
      "परत": 3263,
      "संसा": 3264,
      "फ़ाइलतंत्र": 3265,
      "खाते": 3266,
      "सादा": 3267,
      "डीटीएस": 3268,
      "समरूप": 3269,
      "वाली": 3270,
      "ंटित": 3271,
      "प्लगेबल": 3272,
      "अनुक्रिया": 3273,
      "त्वरण": 3274,
      "redh": 3275,
      "रेडियो": 3276,
      "गाने": 3277,
      "inde": 3278,
      "ैगमेंट": 3279,
      "पैदा": 3280,
      "अपडेट": 3281,
      "पियर": 3282,
      "only": 3283,
      "डेड": 3284,
      "ister": 3285,
      "njan": 3286,
      "बेमेल": 3287,
      "प्रारंभिक": 3288,
      "पेक्ष": 3289,
      "तुर्": 3290,
      "दूक": 3291,
      "off": 3292,
      "मिलाएँ": 3293,
      ":%.": 3294,
      "जाँचने": 3295,
      "मीटिंग": 3296,
      "प्रतिनि": 3297,
      "सुपुर्": 3298,
      "codec": 3299,
      "सिमुलेट": 3300,
      "प्रारूपित": 3301,
      "स्तरः": 3302,
      "लेखनयोग्य": 3303,
      "टोन": 3304,
      "dow": 3305,
      "लंबबत": 3306,
      "bug": 3307,
      "सतत": 3308,
      "बताए": 3309,
      "लगाने": 3310,
      "बल्यू": 3311,
      "कतार": 3312,
      "luke": 3313,
      "विफलः": 3314,
      "पारंपरिक": 3315,
      "फ्रैगमेंट": 3316,
      "जायेगी": 3317,
      "लंबाईः": 3318,
      "रिंगिंग": 3319,
      "कंप्यूटर": 3320,
      "हायपरटेक्स्ट": 3321,
      "हिंटिंग": 3322,
      "पहचाना": 3323,
      "239": 3324,
      "Entry": 3325,
      "मिनट्स": 3326,
      "InsertInsert": 3327,
      "आबंटित": 3328,
      "चैट": 3329,
      "फॉन्ट": 3330,
      "screen": 3331,
      "हार्डवेयर": 3332,
      "नेटमीटिंग": 3333,
      "ढाल": 3334,
      "वास्तव": 3335,
      "मध्यम": 3336,
      "pixbuf": 3337,
      "play": 3338,
      "अनुपात": 3339,
      "अनुकूलन": 3340,
      "फिल्टरिंग": 3341,
      "आरडबल्यू": 3342,
      "आरंभीकृत": 3343,
      "सर्जक": 3344,
      "हालांकि": 3345,
      "checksum": 3346,
      "पदक्रम": 3347,
      "Split": 3348,
      "TEXT": 3349,
      "rranjan": 3350,
      "एंटीए": 3351,
      "ऑपरेटिंग": 3352,
      "लंगर": 3353,
      "प्रॉक्सी": 3354,
      "redhat": 3355,
      "index": 3356,
      "सुपुर्द": 3357,
      "\")": 3358,
      "(\"%": 3359,
      "HT": 3360,
      "TX": 3361,
      "VID": 3362,
      "ay": 3363,
      "age": 3364,
      "by": 3365,
      "gen": 3366,
      "hor": 3367,
      "ror": 3368,
      "uma": 3369,
      "ype": 3370,
      "कौ": 3371,
      "तह": 3372,
      "धनीय": 3373,
      "बन": 3374,
      "सच": 3375,
      "र्य": 3376,
      "ाइज़": 3377,
      "ताला": 3378,
      "जापा": 3379,
      "क्षि": 3380,
      "होल्ड": 3381,
      "मेमो": 3382,
      "अपनी": 3383,
      "ब्लॉ": 3384,
      "सूचीबद्ध": 3385,
      "मुद्": 3386,
      "ड्राइल": 3387,
      "स्केलिंग": 3388,
      "lication": 3389,
      "संशोधनीय": 3390,
      "application": 3391,
      "स्कैनिंग": 3392,
      "चुनाव": 3393,
      "खींचना": 3394,
      "रहने": 3395,
      "हस्ताछर": 3396,
      "ढांचा": 3397,
      "time": 3398,
      "दाहिने": 3399,
      "तरीका": 3400,
      "cue": 3401,
      "mkisofs": 3402,
      "VIDEO": 3403,
      "umar": 3404,
      "तहत": 3405,
      "जापानी": 3406,
      "मेमोरी": 3407,
      ",\"": 3408,
      "->": 3409,
      "DG": 3410,
      "DN": 3411,
      "Webcam": 3412,
      "Way": 3413,
      "XDG": 3414,
      "ack": 3415,
      "fp": 3416,
      "ial": 3417,
      "land": 3418,
      "आगत": 3419,
      "इको": 3420,
      "ओवर": 3421,
      "कन्": 3422,
      "धुरी": 3423,
      "नॉ": 3424,
      "मकड़ी": 3425,
      "लब": 3426,
      "लैश": 3427,
      "वत्": 3428,
      "हक": 3429,
      "्नि": 3430,
      "ेंट": 3431,
      "र्व": 3432,
      "प्रभा": 3433,
      "प्रलेखन": 3434,
      "विड": 3435,
      "संग्रा": 3436,
      "रिथम": 3437,
      "रीडर": 3438,
      "देशी": 3439,
      "टिंट": 3440,
      "टिलस": 3441,
      "उपस्थिति": 3442,
      "आपकी": 3443,
      "परियोजनाः": 3444,
      "अनुच्छ": 3445,
      "कुमा": 3446,
      "रूपरे": 3447,
      "मानों": 3448,
      "इसमें": 3449,
      "read": 3450,
      "स्टै": 3451,
      "पंक्तियों": 3452,
      "सहेजते": 3453,
      "अग्नि": 3454,
      "क्लिपिंग": 3455,
      "कैश": 3456,
      "जबकि": 3457,
      "सुरक्षित": 3458,
      "स्तंभों": 3459,
      "आवृत्": 3460,
      "दोहराने": 3461,
      "जुड़ा": 3462,
      "मैट्रि": 3463,
      "उपयोक्तानाम": 3464,
      "तत्काल": 3465,
      "String": 3466,
      "GLSL": 3467,
      "तत्वों": 3468,
      "फ़्लैश": 3469,
      "ब्राउजर": 3470,
      "तर्क": 3471,
      "थीम": 3472,
      "खींचने": 3473,
      "पैरामीटर्सः": 3474,
      "कॉन्फ़िग": 3475,
      "प्रत्यक्ष": 3476,
      "PAL": 3477,
      "दिखता": 3478,
      "बॉक्स": 3479,
      "बॉर्डर": 3480,
      "स्लाइसिंग": 3481,
      "मनपसंद": 3482,
      "पुनर्निर्देशन": 3483,
      "संसाधन": 3484,
      "Wayland": 3485,
      "नॉटिलस": 3486,
      "संग्राहक": 3487,
      "अनुच्छेद": 3488,
      "रूपरेखा": 3489,
      "आवृत्ति": 3490,
      "मैट्रिक्स": 3491,
      "eith": 3492,
      "fy": 3493,
      "free": 3494,
      "lat": 3495,
      "pub": 3496,
      "wx": 3497,
      "win": 3498,
      "ँजी": 3499,
      "आटो": 3500,
      "इट": 3501,
      "इन्स": 3502,
      "उच्": 3503,
      "खरी": 3504,
      "जवा": 3505,
      "ठहर": 3506,
      "थि": 3507,
      "भ्वा": 3508,
      "वृ": 3509,
      "व्यू": 3510,
      "सपोर्ट": 3511,
      "काश": 3512,
      "कोरि": 3513,
      "जायें": 3514,
      "तिथि": 3515,
      "माड्यूल": 3516,
      "परिभाषा": 3517,
      "फाइल्स": 3518,
      "प्रोटो": 3519,
      "कुँजी": 3520,
      "होम": 3521,
      "सूइट": 3522,
      "सूचक": 3523,
      "redistribute": 3524,
      "dify": 3525,
      "lished": 3526,
      "डेशन": 3527,
      "ang": 3528,
      "any": 3529,
      "दर्शा": 3530,
      "पर्ल": 3531,
      "टेम्प": 3532,
      "दस्तावेज़ीकरण": 3533,
      "फाउ": 3534,
      "सर्ग": 3535,
      "terms": 3536,
      "बांटने": 3537,
      "files": 3538,
      "बजाया": 3539,
      "बिंब": 3540,
      "उसके": 3541,
      "Stat": 3542,
      "सम्पाद": 3543,
      "फील्ड": 3544,
      "तेजी": 3545,
      "सॉफ्ट": 3546,
      "modify": 3547,
      "your": 3548,
      "PATH": 3549,
      "थ्रेड": 3550,
      "पट्टिका": 3551,
      "मेनू": 3552,
      "लपेटें": 3553,
      "pluginview": 3554,
      "either": 3555,
      "later": 3556,
      "published": 3557,
      "उच्च": 3558,
      "जवाब": 3559,
      "ठहरें": 3560,
      "प्रोटोकॉल": 3561,
      ".,": 3562,
      "31": 3563,
      "50": 3564,
      "Flo": 3565,
      "Fif": 3566,
      "Fran": 3567,
      "Gdb": 3568,
      "LT": 3569,
      "MA": 3570,
      "Ma": 3571,
      "NON": 3572,
      "OP": 3573,
      "OOT": 3574,
      "Pa": 3575,
      "ROOT": 3576,
      "USA": 3577,
      "fer": 3578,
      "has": 3579,
      "iz": 3580,
      "klin": 3581,
      "lum": 3582,
      "qua": 3583,
      "ry": 3584,
      "ve": 3585,
      "wi": 3586,
      "write": 3587,
      "ंख": 3588,
      "अस्वीकार": 3589,
      "आरोह": 3590,
      "जम्प": 3591,
      "तनी": 3592,
      "दस्": 3593,
      "नवी": 3594,
      "पड़": 3595,
      "पदी": 3596,
      "बक्": 3597,
      "यब": 3598,
      "यस": 3599,
      "व्या": 3600,
      "सस्": 3601,
      "सदस्": 3602,
      "हाइ": 3603,
      "ीक्षा": 3604,
      "ूड": 3605,
      "ृंख": 3606,
      "ेंसी": 3607,
      "स्वि": 3608,
      "क्ले": 3609,
      "क्ट्री": 3610,
      "र्क": 3611,
      "विरा": 3612,
      "विटी": 3613,
      "विपदी": 3614,
      "डिक्ले": 3615,
      "संयुक्त": 3616,
      "लिएः": 3617,
      "माला": 3618,
      "सार्व": 3619,
      "जों": 3620,
      "बाधित": 3621,
      "मिलित": 3622,
      "समीक्षा": 3623,
      "अनजान": 3624,
      "उपसर्ग": 3625,
      "फाइलः": 3626,
      "प्लगइन्स": 3627,
      "रोमानि": 3628,
      "इनक्ल": 3629,
      "सूचि": 3630,
      "गायब": 3631,
      "स्टेंट": 3632,
      "शीट": 3633,
      "द्धि": 3634,
      "द्विपदी": 3635,
      "विकल्पों": 3636,
      "सहेजना": 3637,
      "ename": 3638,
      "dir": 3639,
      "फ्ट": 3640,
      "पुरानी": 3641,
      "जूम": 3642,
      "ज़ः": 3643,
      "शिक्षण": 3644,
      "atch": 3645,
      "फोर्": 3646,
      "वारंटी": 3647,
      "जिटरी": 3648,
      "गुणों": 3649,
      "सबको": 3650,
      "मिलाः": 3651,
      "लोग": 3652,
      "लोअर": 3653,
      "लंबी": 3654,
      "हटाने": 3655,
      "set": 3656,
      "वर्णमाला": 3657,
      "ston": 3658,
      "प्रतिस्थापित": 3659,
      "पृष्ठों": 3660,
      "परिवर्तनः": 3661,
      "छापा": 3662,
      "पाइथन": 3663,
      "याँः": 3664,
      "वादशाह": 3665,
      "भावक": 3666,
      "अद्यतनी": 3667,
      "मिटाने": 3668,
      "संकुलः": 3669,
      "ript": 3670,
      "कालटिप्स": 3671,
      "बनाएगा": 3672,
      "डेटाबेस": 3673,
      "संभवतः": 3674,
      "वैधः": 3675,
      "भाषाएँ": 3676,
      "ARG": 3677,
      "CVSROOT": 3678,
      "दबाएं": 3679,
      "चिह्नों": 3680,
      "सम्मिलित": 3681,
      "बढ़त": 3682,
      "पुस्तकचिह्न": 3683,
      "पंजीयन": 3684,
      "बैकअप": 3685,
      "स्वाभावित": 3686,
      "रूपांतरित": 3687,
      "लायब्रेरी": 3688,
      "पासवर्डः": 3689,
      "minimal": 3690,
      "sudo": 3691,
      "हस्तांतरित": 3692,
      "पहचानने": 3693,
      "JavaSc": 3694,
      "लौटाएँ": 3695,
      "इंस्टेंट": 3696,
      "TION": 3697,
      "क्लटर": 3698,
      "rolename": 3699,
      "वास्तविक": 3700,
      "रजिस्टर": 3701,
      "पट्टियाँ": 3702,
      "सेंटर": 3703,
      "Boston": 3704,
      "लॉन्च": 3705,
      "अभिभावक": 3706,
      "foc": 3707,
      "ग्रैविटी": 3708,
      "फुलस्क्रीन": 3709,
      "डिपेंडेंसी": 3710,
      "अन्वेषक": 3711,
      "कन्सोल": 3712,
      "विडजेट": 3713,
      "Status": 3714,
      "Floor": 3715,
      "Fifth": 3716,
      "Franklin": 3717,
      "LTR": 3718,
      "NONE": 3719,
      "OPTION": 3720,
      "lumn": 3721,
      "नवीनतम": 3722,
      "बक्सा": 3723,
      "सस्पेंड": 3724,
      "सदस्य": 3725,
      "हाइपर": 3726,
      "ृंखला": 3727,
      "स्विच": 3728,
      "विराम": 3729,
      "डिक्लेरेशन": 3730,
      "इनक्लूड": 3731,
      "द्विपदीय": 3732,
      "लोअरकेस": 3733,
      "अद्यतनीकृत": 3734,
      "JavaScript": 3735,
      "Action": 3736,
      "IN": 3737,
      "Lin": 3738,
      "Min": 3739,
      "aul": 3740,
      "mp": 3741,
      "yz": 3742,
      "ंरफलक": 3743,
      "अत": 3744,
      "अमे": 3745,
      "इंग": 3746,
      "उन्न": 3747,
      "उर्ध्वाधर": 3748,
      "ऐसा": 3749,
      "कल": 3750,
      "कअप": 3751,
      "धे": 3752,
      "धर्म": 3753,
      "फेद": 3754,
      "बर": 3755,
      "बल्सा": 3756,
      "मह": 3757,
      "रें": 3758,
      "रवि": 3759,
      "रंत": 3760,
      "राइट": 3761,
      "लड़ी": 3762,
      "लपेट": 3763,
      "सौ": 3764,
      "सफेद": 3765,
      "ाव": 3766,
      "ुलर": 3767,
      "कास": 3768,
      "लिनक्स": 3769,
      "प्रमाण": 3770,
      "प्रकाश": 3771,
      "विपरी": 3772,
      "विकास": 3773,
      "लेट": 3774,
      "सीधे": 3775,
      "उपनाम": 3776,
      "बनायें": 3777,
      "त्व": 3778,
      "मेक्रो": 3779,
      "रेग्य": 3780,
      "सिटिव": 3781,
      "जाएँगी": 3782,
      "ther": 3783,
      "फिल": 3784,
      "अपवाद": 3785,
      "प्रोग्रामः": 3786,
      "डेक्स": 3787,
      "est": 3788,
      "सकाः": 3789,
      "गुणधर्म": 3790,
      "अगली": 3791,
      "छोटे": 3792,
      "तुरंत": 3793,
      "बीडी": 3794,
      "ravir": 3795,
      "कैरेक्ट": 3796,
      "कॉपीराइट": 3797,
      "हटायें": 3798,
      "भूकेंद्र": 3799,
      "लोकल": 3800,
      "pec": 3801,
      "मैं": 3802,
      "विजेट्स": 3803,
      "टाइप": 3804,
      "form": 3805,
      "कंसोल": 3806,
      "भरेंः": 3807,
      "मार्कअप": 3808,
      "रहता": 3809,
      "सारांशः": 3810,
      "सेंसिटिव": 3811,
      "पठनीय": 3812,
      "शंकर": 3813,
      "ट्रैक्स": 3814,
      "atlami": 3815,
      "डिजायनर": 3816,
      "VoIP": 3817,
      "डोमेन": 3818,
      "श्रीवास्तव": 3819,
      "टेम्पलेट": 3820,
      "ault": 3821,
      "अतंरफलक": 3822,
      "अमेरि": 3823,
      "उन्नत": 3824,
      "रविशंकर": 3825,
      "प्रकाशित": 3826,
      "विपरीत": 3827,
      "रेग्युलर": 3828,
      "raviratlami": 3829,
      "/%": 3830,
      "/.": 3831,
      "256": 3832,
      "3यू": 3833,
      "App": 3834,
      "Ch": 3835,
      "FC": 3836,
      "Pix": 3837,
      "RX": 3838,
      "RFC": 3839,
      "SSL": 3840,
      "TP": 3841,
      "eel": 3842,
      "kit": 3843,
      "lt": 3844,
      "op": 3845,
      "rg": 3846,
      "असंगत": 3847,
      "आए": 3848,
      "आस्पे": 3849,
      "ईस्ट": 3850,
      "उज": 3851,
      "ऑफ़": 3852,
      "ओडे": 3853,
      "खित": 3854,
      "खदान": 3855,
      "घटा": 3856,
      "झाव": 3857,
      "तरू": 3858,
      "दस": 3859,
      "दार": 3860,
      "फट": 3861,
      "भुल": 3862,
      "मजे": 3863,
      "यल": 3864,
      "यहां": 3865,
      "वु": 3866,
      "शटर": 3867,
      "सित": 3868,
      "सुन": 3869,
      "हू": 3870,
      "्व": 3871,
      "करके": 3872,
      "क्लॉन्": 3873,
      "कोडेक्स": 3874,
      "लिरियो": 3875,
      "डिके": 3876,
      "संरे": 3877,
      "ड़ें": 3878,
      "लाया": 3879,
      "हाथ": 3880,
      "किला": 3881,
      "परिप्रे": 3882,
      "बाई": 3883,
      "बाल्सा": 3884,
      "न्वित": 3885,
      "वाक्": 3886,
      "निर्मित": 3887,
      "अनुशं": 3888,
      "पूरी": 3889,
      "चुनना": 3890,
      "इनों": 3891,
      "रूसी": 3892,
      "जेएस": 3893,
      "दिखायें": 3894,
      "रेशो": 3895,
      "निर्देशिकाओं": 3896,
      "ग्राफ": 3897,
      "अपठ": 3898,
      "विंडोज": 3899,
      "अधिसूचना": 3900,
      "one": 3901,
      "पुश": 3902,
      "हेड": 3903,
      "मुफ़्": 3904,
      "ated": 3905,
      "eslot": 3906,
      "जिन्हें": 3907,
      "बेकर्स": 3908,
      "पोकर": 3909,
      "स्वत": 3910,
      "ange": 3911,
      "क्रियान्वित": 3912,
      "एसलिरियो": 3913,
      "जीता": 3914,
      "समूहः": 3915,
      "पूर्ववत": 3916,
      "खेलः": 3917,
      "खेलने": 3918,
      "व्यवह": 3919,
      "फ़ॉन्टः": 3920,
      "फ़ॉन्टकॉन्फ़िग": 3921,
      "प्रतिक्रिया": 3922,
      "पृथ": 3923,
      "सुझाव": 3924,
      "भूल": 3925,
      "शेडर": 3926,
      "पैकेजः": 3927,
      "kefiles": 3928,
      "right": 3929,
      "licable": 3930,
      "एम3यू": 3931,
      "लगातार": 3932,
      "स्टाक": 3933,
      "स्तीकरण": 3934,
      "डायल": 3935,
      "टाइमस्टै": 3936,
      "धित्व": 3937,
      "तारीख": 3938,
      "आवाज़": 3939,
      "बांध": 3940,
      "बुकमा": 3941,
      "यूरोप": 3942,
      "item": 3943,
      "सन्दूक": 3944,
      "implies": 3945,
      "स्पेस": 3946,
      "निरस्तीकरण": 3947,
      "press": 3948,
      "link": 3949,
      "स्लाइडर": 3950,
      "गंतव्यः": 3951,
      "Not": 3952,
      "SHA1": 3953,
      "SHA256": 3954,
      "संलग्न": 3955,
      "आलेखीय": 3956,
      "Icons": 3957,
      "ग्नू": 3958,
      "प्वाइंटर": 3959,
      "चोर": 3960,
      "प्रतिशत": 3961,
      "Window": 3962,
      "तुर्की": 3963,
      "प्रतिनिधित्व": 3964,
      "कौन": 3965,
      "Makefiles": 3966,
      "Applicable": 3967,
      "आस्पेक्ट": 3968,
      "ऑफ़लाइन": 3969,
      "ओडेसा": 3970,
      "भुलैया": 3971,
      "मजेदार": 3972,
      "वुड": 3973,
      "क्लॉन्डिके": 3974,
      "संरेखित": 3975,
      "परिप्रेक्ष्य": 3976,
      "अनुशंसित": 3977,
      "मुफ़्त": 3978,
      "एसलिरियोट": 3979,
      "व्यवहार": 3980,
      "टाइमस्टैंप": 3981,
      "Ass": 3982,
      "Ber": 3983,
      "BSD": 3984,
      "GHT": 3985,
      "IGHT": 3986,
      "Kumar": 3987,
      "Nab": 3988,
      "Swa": 3989,
      "Val": 3990,
      "VCD": 3991,
      "Wx": 3992,
      "WID": 3993,
      "XOFF": 3994,
      "YOFF": 3995,
      "cj": 3996,
      "gcj": 3997,
      "ipe": 3998,
      "per": 3999,
      "pil": 4000,
      "tribut": 4001,
      "v2": 4002,
      "xHE": 4003,
      "आस": 4004,
      "एत": 4005,
      "एप्ले": 4006,
      "कित": 4007,
      "टार": 4008,
      "दक्षि": 4009,
      "नरेट": 4010,
      "बफ": 4011,
      "भेजा": 4012,
      "माइज़": 4013,
      "यकरण": 4014,
      "रखा": 4015,
      "वहेल्प": 4016,
      "ाका": 4017,
      "िभाषित": 4018,
      "ैप्स": 4019,
      "ॉर्": 4020,
      "्नक": 4021,
      "स्प": 4022,
      "स्की": 4023,
      "कान्": 4024,
      "क्लो": 4025,
      "र्डि": 4026,
      "नानी": 4027,
      "प्रस्तु": 4028,
      "सेः": 4029,
      "सेल्टिक": 4030,
      "ताज़": 4031,
      "विसम्मेलन": 4032,
      "विएत": 4033,
      "डिली": 4034,
      "संगीत": 4035,
      "जाय": 4036,
      "कीपर": 4037,
      "कीवर्ड": 4038,
      "निजी": 4039,
      "निकोड": 4040,
      "नियाई": 4041,
      "माः": 4042,
      "पांच": 4043,
      "साफ़": 4044,
      "प्टिव": 4045,
      "देते": 4046,
      "ल्फ": 4047,
      "परिवार": 4048,
      "रिसेट": 4049,
      "बाल्टिक": 4050,
      "नामी": 4051,
      "ष्ट्री": 4052,
      "ट्रे": 4053,
      "कृति": 4054,
      "होते": 4055,
      "दाएँ": 4056,
      "जेनरेट": 4057,
      "मेनियाई": 4058,
      "स्टेट": 4059,
      "सिं": 4060,
      "सिक": 4061,
      "चिमी": 4062,
      "फिगर": 4063,
      "अंतर": 4064,
      "टीमाइज़": 4065,
      "पिन": 4066,
      "संदेशों": 4067,
      "onment": 4068,
      "ब्स": 4069,
      "हेडर": 4070,
      "शिंग": 4071,
      "वेस्ट": 4072,
      "जियाई": 4073,
      "बेसिक": 4074,
      "ance": 4075,
      "एसपीआई": 4076,
      "यूक्रे": 4077,
      "यूनानी": 4078,
      "यूनिकोड": 4079,
      "ढ़ा": 4080,
      "पूर्ववत्": 4081,
      "टेंशन": 4082,
      "फाउंड": 4083,
      "पोर्टः": 4084,
      "चालों": 4085,
      "कार्यक्रम": 4086,
      "घटित": 4087,
      "थाई": 4088,
      "ley": 4089,
      "लोकप्रि": 4090,
      "रीयल्म": 4091,
      "elop": 4092,
      "चलाएँः": 4093,
      "keley": 4094,
      "चरः": 4095,
      "एक्सटेंशन": 4096,
      "मिटाई": 4097,
      "मिटाकर": 4098,
      "compil": 4099,
      "name": 4100,
      "dock": 4101,
      "ब्रेकपाइन्ट": 4102,
      "अंतराष्ट्री": 4103,
      "दोहराएं": 4104,
      "म्परिक": 4105,
      "Inte": 4106,
      "जुले": 4107,
      "मैन": 4108,
      "Distribut": 4109,
      "लाइसेंसः": 4110,
      "नोर्डि": 4111,
      "धानी": 4112,
      "पारम्परिक": 4113,
      "उनकी": 4114,
      "पश्चिमी": 4115,
      "ख़ाका": 4116,
      "Develop": 4117,
      "अपारिभाषित": 4118,
      "author": 4119,
      "मार्कर्स": 4120,
      "Envir": 4121,
      "चिपकाएं": 4122,
      "शॉर्टकट्स": 4123,
      "ज्यादा": 4124,
      "आर्मेनियाई": 4125,
      "323v2": 4126,
      "इंपोर्ट": 4127,
      "फार्स्ट": 4128,
      "grated": 4129,
      "इंटरफेसः": 4130,
      "रुक": 4131,
      "THxHE": 4132,
      "अरबी": 4133,
      "Libisofs": 4134,
      "बूलियन": 4135,
      "संलग्नक": 4136,
      "ऑप्टीमाइज़": 4137,
      "फैला": 4138,
      "सावधानी": 4139,
      "istance": 4140,
      "Cdrdao": 4141,
      "ज्यॉर्": 4142,
      "पिक्सबफ": 4143,
      "ब्ल्यू": 4144,
      "गेटकीपर": 4145,
      "Copyright": 4146,
      "कठिन": 4147,
      "pixbufs": 4148,
      "आटोमेक": 4149,
      "भ्वाएस": 4150,
      "कोरियाई": 4151,
      "रोमानियाई": 4152,
      "Minimal": 4153,
      "इंगित": 4154,
      "रेंडर": 4155,
      "Pixbuf": 4156,
      "rgb": 4157,
      "Assistance": 4158,
      "Berkeley": 4159,
      "Naba": 4160,
      "Swap": 4161,
      "WIDTHxHE": 4162,
      "आसपास": 4163,
      "एप्लेट": 4164,
      "टारबाल": 4165,
      "दक्षिण": 4166,
      "स्कीमाः": 4167,
      "ताज़ा": 4168,
      "विएतनामी": 4169,
      "डिलीट": 4170,
      "यूक्रेनी": 4171,
      "फाउंडेशन": 4172,
      "लोकप्रिय": 4173,
      "रीयल्मः": 4174,
      "compiled": 4175,
      "अंतराष्ट्रीयकरण": 4176,
      "Integrated": 4177,
      "Distribution": 4178,
      "नोर्डिक": 4179,
      "Development": 4180,
      "Environment": 4181,
      "ऑप्टीमाइज़्ड": 4182,
      "ज्यॉर्जियाई": 4183,
      "WIDTHxHEIGHT": 4184,
      "-%": 4185,
      "33": 4186,
      "AT": 4187,
      "DA": 4188,
      "DSL": 4189,
      "Gro": 4190,
      "GSt": 4191,
      "NAT": 4192,
      "Pang": 4193,
      "TL": 4194,
      "TCP": 4195,
      "UV": 4196,
      "YUV": 4197,
      "ano": 4198,
      "a09": 4199,
      "bg": 4200,
      "bin": 4201,
      "bgr": 4202,
      "bfp": 4203,
      "ces": 4204,
      "dd": 4205,
      "ds": 4206,
      "gst": 4207,
      "gdb": 4208,
      "ir": 4209,
      "lअनुसार": 4210,
      "par": 4211,
      "pac": 4212,
      "sing": 4213,
      "sub": 4214,
      "sange": 4215,
      "vel": 4216,
      "असमर्थित": 4217,
      "अतुल्यकालित": 4218,
      "आया": 4219,
      "आख़": 4220,
      "उल्": 4221,
      "खर": 4222,
      "चरिंग": 4223,
      "डंप": 4224,
      "ण्": 4225,
      "लम्": 4226,
      "शू": 4227,
      "िरी": 4228,
      "ियों": 4229,
      "ृत": 4230,
      "कांक": 4231,
      "कोश": 4232,
      "लिप्": 4233,
      "प्रचयन": 4234,
      "प्रकार्य": 4235,
      "प्रचय": 4236,
      "प्रदान": 4237,
      "ताकार": 4238,
      "विस्त": 4239,
      "विलंब": 4240,
      "डिवा": 4241,
      "संयोज": 4242,
      "संभा": 4243,
      "संगी": 4244,
      "जाँचा": 4245,
      "निक": 4246,
      "माध्य": 4247,
      "लाधार": 4248,
      "खास": 4249,
      "खाँच": 4250,
      "सापेक्ष": 4251,
      "टागल": 4252,
      "परिसर": 4253,
      "रिया": 4254,
      "बाउंड": 4255,
      "लेंडिंग": 4256,
      "रास्ता": 4257,
      "राशि": 4258,
      "त्रा": 4259,
      "अनुरोध": 4260,
      "सूचकांक": 4261,
      "reet": 4262,
      "गाड़ा": 4263,
      "insert": 4264,
      "गुना": 4265,
      "चिन्": 4266,
      "पीड": 4267,
      "बिगाड़ा": 4268,
      "entry": 4269,
      "ences": 4270,
      "पैंगो": 4271,
      "अधिरोह": 4272,
      "ब्लेंडिंग": 4273,
      "मुच": 4274,
      "ज़े": 4275,
      "क्सचरिंग": 4276,
      "शिफ्ट": 4277,
      "शिखर": 4278,
      "तस्वीरें": 4279,
      "atable": 4280,
      "all": 4281,
      "ढूँ": 4282,
      "anc": 4283,
      "समयरेखा": 4284,
      "चौड़ाईः": 4285,
      "लेखित": 4286,
      "ions": 4287,
      "ionset": 4288,
      "चलाना": 4289,
      "टेड": 4290,
      "टेक्सचरिंग": 4291,
      "ढूंढेंः": 4292,
      "छोड़ना": 4293,
      "प्रतिचित्र": 4294,
      "सॉकेट": 4295,
      "level": 4296,
      "मूलाधार": 4297,
      "arbfp": 4298,
      "02d": 4299,
      "पेंटिंग": 4300,
      "kets": 4301,
      "imatable": 4302,
      "URIs": 4303,
      "चरित": 4304,
      "प्रदर्शन": 4305,
      "मिटाना": 4306,
      "combin": 4307,
      "CoglObject": 4308,
      "विस्तारित": 4309,
      "दोहराना": 4310,
      "अनुपलब्ध": 4311,
      "लियासिंग": 4312,
      "इनपुटः": 4313,
      "भाषाः": 4314,
      "ARB": 4315,
      "आयतों": 4316,
      "आयताकार": 4317,
      "छापेंः": 4318,
      "यूआरआइ": 4319,
      "eta09": 4320,
      "igh": 4321,
      "Street": 4322,
      "बचाया": 4323,
      "sysf": 4324,
      "ब्राउज़र": 4325,
      "बांये": 4326,
      "Remo": 4327,
      "खुला": 4328,
      "फाइनल": 4329,
      "टिकल": 4330,
      "शॉर्टकटः": 4331,
      "EditorInsert": 4332,
      "सेकंड": 4333,
      "prefer": 4334,
      "upEditorInsert": 4335,
      "छिपाएं": 4336,
      "पुष्टिकरण": 4337,
      "atlasing": 4338,
      "ऑप्टिकल": 4339,
      "व्यवसा": 4340,
      "default": 4341,
      "लूप": 4342,
      "regionset": 4343,
      "2833": 4344,
      "box": 4345,
      "OpenGL": 4346,
      "offscreen": 4347,
      "एंटीएलियासिंग": 4348,
      "सचमुच": 4349,
      "ब्लॉकिंग": 4350,
      "cueing": 4351,
      "कुमारी": 4352,
      "ActionGro": 4353,
      "RFC2833": 4354,
      "GStreamer": 4355,
      "Pango": 4356,
      "bgt": 4357,
      "gstreamer": 4358,
      "packets": 4359,
      "sangeeta09": 4360,
      "आख़िरी": 4361,
      "लम्बाई": 4362,
      "शून्य": 4363,
      "लिप्साइ": 4364,
      "विस्तृत": 4365,
      "डिवायस": 4366,
      "संयोजन": 4367,
      "संभालें": 4368,
      "संगीता": 4369,
      "माध्यम": 4370,
      "खाँचे": 4371,
      "insertions": 4372,
      "अधिरोहण": 4373,
      "प्रतिचित्रित": 4374,
      "sysfs": 4375,
      "preferences": 4376,
      "ActionGroupEditorInsert": 4377,
      "#%": 4378,
      ",%": 4379,
      ".?": 4380,
      "AG": 4381,
      "CK": 4382,
      "EC": 4383,
      "Gd": 4384,
      "JS": 4385,
      "MP": 4386,
      "Picture": 4387,
      "Spec": 4388,
      "Type": 4389,
      "ag": 4390,
      "ado": 4391,
      "ca": 4392,
      "ec": 4393,
      "ft": 4394,
      "image": 4395,
      "oimage": 4396,
      "vas": 4397,
      "ंतर": 4398,
      "अध": 4399,
      "अंग": 4400,
      "आखरी": 4401,
      "उम्": 4402,
      "एडा": 4403,
      "कटन": 4404,
      "जरि": 4405,
      "झां": 4406,
      "ढें": 4407,
      "बस": 4408,
      "शन्स": 4409,
      "हॉ": 4410,
      "ोस": 4411,
      "ोसी": 4412,
      "करती": 4413,
      "कोइ": 4414,
      "कोर": 4415,
      "प्री": 4416,
      "प्रकटन": 4417,
      "मात्रा": 4418,
      "लेगा": 4419,
      "क्षर": 4420,
      "मिश्र": 4421,
      "न्त": 4422,
      "अनुक्रम": 4423,
      "अंक": 4424,
      "ery": 4425,
      "error": 4426,
      "बदली": 4427,
      "इनके": 4428,
      "जेड": 4429,
      "mes": 4430,
      "इससे": 4431,
      "स्टी": 4432,
      "चिक": 4433,
      "सहेजे": 4434,
      "dial": 4435,
      "स्वीकृत": 4436,
      "आरक्षित": 4437,
      "pop": 4438,
      "isoimage": 4439,
      "जिटर": 4440,
      "अगले": 4441,
      "मिलानों": 4442,
      "मीद": 4443,
      "rom": 4444,
      "see": 4445,
      "व्यक्ति": 4446,
      "toc": 4447,
      "जमाने": 4448,
      "भेजना": 4449,
      "क्रमबद्ध": 4450,
      "कालन": 4451,
      "libgnomecan": 4452,
      "हाइलाइ": 4453,
      "Display": 4454,
      "औजारपट्टी": 4455,
      "बचाएँ": 4456,
      "डायलाग": 4457,
      "मतलब": 4458,
      "सेटिंग्स": 4459,
      "ब्राउज": 4460,
      "पीआईडी": 4461,
      "output": 4462,
      "such": 4463,
      "रियल": 4464,
      "हस्ताक्षर": 4465,
      "स्टार्टअप": 4466,
      "PACK": 4467,
      "खुले": 4468,
      "तुल्यकालन": 4469,
      "conds": 4470,
      "मैसेजों": 4471,
      "सन्देश": 4472,
      "विभाजक": 4473,
      "बूथ": 4474,
      "register": 4475,
      "पुनर्भंडारण": 4476,
      "genisoimage": 4477,
      "फाउण्": 4478,
      "पड़ोसी": 4479,
      "Link": 4480,
      "पृथक": 4481,
      "बुकमार्क": 4482,
      "चिन्हित": 4483,
      "ढूँढें": 4484,
      "AGE": 4485,
      "Gdk": 4486,
      "adom": 4487,
      "अधीन": 4488,
      "उम्मीद": 4489,
      "एडाप्टिव": 4490,
      "हॉप": 4491,
      "dialog": 4492,
      "libgnomecanvas": 4493,
      "PACKAGE": 4494,
      "registered": 4495,
      "फाउण्डेशन": 4496,
      "\":%": 4497,
      ".)": 4498,
      "16": 4499,
      "1नकल": 4500,
      "64": 4501,
      "AM": 4502,
      "Cre": 4503,
      "EG": 4504,
      "Fold": 4505,
      "IF": 4506,
      "Log": 4507,
      "MM": 4508,
      "Mac": 4509,
      "PF": 4510,
      "SC": 4511,
      "SEC": 4512,
      "SPF": 4513,
      "TO": 4514,
      "TS": 4515,
      "Wr": 4516,
      "XID": 4517,
      "XSPF": 4518,
      "ase": 4519,
      "cew": 4520,
      "emp": 4521,
      "ia": 4522,
      "ning": 4523,
      "ple": 4524,
      "page": 4525,
      "ंकिंग": 4526,
      "अलि": 4527,
      "अनाम": 4528,
      "अप्रयुक्त": 4529,
      "अदृश्य": 4530,
      "अलगा": 4531,
      "आदि": 4532,
      "आचरण": 4533,
      "आन्त": 4534,
      "इत": 4535,
      "इसी": 4536,
      "इन्हें": 4537,
      "एन्": 4538,
      "ऑन": 4539,
      "औसत": 4540,
      "खड़ी": 4541,
      "खत्म": 4542,
      "घरा": 4543,
      "घंटा": 4544,
      "जहां": 4545,
      "ठोस": 4546,
      "डआउट": 4547,
      "दों": 4548,
      "फु": 4549,
      "बजाए": 4550,
      "बजाने": 4551,
      "बहाल": 4552,
      "भु": 4553,
      "महा": 4554,
      "म्स": 4555,
      "यरा": 4556,
      "लक्षित": 4557,
      "वबत": 4558,
      "समि": 4559,
      "सस्करण": 4560,
      "ीकृत": 4561,
      "ैंकिंग": 4562,
      "ॉउज": 4563,
      "स्पिन": 4564,
      "काँच": 4565,
      "काटे": 4566,
      "काटो": 4567,
      "क्यों": 4568,
      "कों": 4569,
      "कोष्ठ": 4570,
      "हैशिंग": 4571,
      "प्रपत्र": 4572,
      "सेhttp": 4573,
      "ताबि": 4574,
      "करेंSplit": 4575,
      "संरू": 4576,
      "संरक्षित": 4577,
      "संसस्करण": 4578,
      "नहींFree": 4579,
      "मेंInsertInsert": 4580,
      "लाने": 4581,
      "पालन": 4582,
      "किस": 4583,
      "किये": 4584,
      "वीप": 4585,
      "चांग": 4586,
      "जोडे": 4587,
      "जोखि": 4588,
      "बायी": 4589,
      "समग्र": 4590,
      "एकत्र": 4591,
      "वाचाल": 4592,
      "राज्य": 4593,
      "अनलॉ": 4594,
      "जोड़े": 4595,
      "जोड़ते": 4596,
      "लीडआउट": 4597,
      "होनी": 4598,
      "होएं": 4599,
      "बनाता": 4600,
      "रोम": 4601,
      "रूलर": 4602,
      "दायरा": 4603,
      "जोड़ेंse": 4604,
      "ब्रॉउज": 4605,
      "पंहुच": 4606,
      "पंचांग": 4607,
      "कॉम्": 4608,
      "चुनेंDisc": 4609,
      "तीर": 4610,
      "रेको": 4611,
      "गाना": 4612,
      "गानों": 4613,
      "एंबे": 4614,
      "द्वीप": 4615,
      "पीएल": 4616,
      "सहेजने": 4617,
      "पैडिंग": 4618,
      "पैडेड": 4619,
      "टीवी": 4620,
      "टीयर": 4621,
      "टीएमएल": 4622,
      "ब्ला": 4623,
      "मुख": 4624,
      "मुखी": 4625,
      "मुताबि": 4626,
      "पूर्णांक": 4627,
      "वेत": 4628,
      "श्वेत": 4629,
      "ator": 4630,
      "फोन्ट": 4631,
      "तररू": 4632,
      "हरSplit": 4633,
      "धारक": 4634,
      "धारण": 4635,
      "ढूंढो": 4636,
      "छोड़ा": 4637,
      "छोटी": 4638,
      "पेड़": 4639,
      "बनाएँः": 4640,
      "आँकड़े": 4641,
      "पहलू": 4642,
      "जीस्ट्रीम": 4643,
      "अनुप्रयोगः": 4644,
      "मिलाना": 4645,
      "ication": 4646,
      "लंबे": 4647,
      "लंवबत": 4648,
      "(%%": 4649,
      "आरंभः": 4650,
      "iting": 4651,
      "हटाना": 4652,
      "हटानी": 4653,
      "जबसे": 4654,
      "फान्ट": 4655,
      "start": 4656,
      "सामान्यीकृत": 4657,
      "शुरु": 4658,
      "tore": 4659,
      "कड़ीबद्ध": 4660,
      "lead": 4661,
      "मूवी": 4662,
      "रहेगी": 4663,
      "Comm": 4664,
      "पुनःप्राप्ति": 4665,
      "बदलने": 4666,
      "रीयल": 4667,
      "arch": 4668,
      "स्तरित": 4669,
      "जिसको": 4670,
      "स्केल्ड": 4671,
      "proof": 4672,
      "गेम": 4673,
      "घुसाया": 4674,
      "विश्लेषक": 4675,
      "बांटते": 4676,
      "प्रतीकDisc": 4677,
      "चेतावनि": 4678,
      "बनाएगी": 4679,
      "रोधी": 4680,
      "पूर्वालोकन": 4681,
      "प्रविष्टInsertInsert": 4682,
      "low": 4683,
      "every": 4684,
      "सामग्रियों": 4685,
      "मैक्रो": 4686,
      "अल्गो": 4687,
      "चेकसमि": 4688,
      "adcd": 4689,
      "यूआरएल": 4690,
      "दबाव": 4691,
      "निकाली": 4692,
      "आवरणDisc": 4693,
      "पारदर्शिता": 4694,
      "पारकोडिंग": 4695,
      "कुंजीपटल": 4696,
      "फ्रें": 4697,
      "ass": 4698,
      "उनके": 4699,
      "सम्बद्ध": 4700,
      "Imagepicture": 4701,
      "बचाओ": 4702,
      "पथःDisc": 4703,
      "प्रेष": 4704,
      "लिखेगी": 4705,
      "विशेषताओं": 4706,
      "मोड़ें": 4707,
      "संबंधन": 4708,
      "बांटा": 4709,
      "बांयें": 4710,
      "autodet": 4711,
      "Repla": 4712,
      "Readom": 4713,
      "Readcd": 4714,
      "रहना": 4715,
      "ected": 4716,
      "बदलेगा": 4717,
      "begin": 4718,
      "टाइल्ड": 4719,
      "graft": 4720,
      "Restore": 4721,
      "ॉल्यू": 4722,
      "सलाहकारी": 4723,
      "रैम": 4724,
      "full": 4725,
      "एमडी5": 4726,
      "निरस्त": 4727,
      "बढ़ाना": 4728,
      "बढ़ाने": 4729,
      "grind": 4730,
      "थ्रेडिंग": 4731,
      "रिकॉर्डिंग": 4732,
      "पठन": 4733,
      "कलाकारः": 4734,
      "बजने": 4735,
      "अनुपातः": 4736,
      "अनुकूलित": 4737,
      "फिल्टरों": 4738,
      "आरडब्ल्यू": 4739,
      "भरनेवाला": 4740,
      "Libburn": 4741,
      "एचटीएमएल": 4742,
      "ग्रैब": 4743,
      "सेकण्डpar": 4744,
      "डाउनलोडकर्ता": 4745,
      "NTSC": 4746,
      "सावधान": 4747,
      "आलेखी": 4748,
      "ब्लैंकिंग": 4749,
      "ट्रांसकोड": 4750,
      "ट्रांसकोडिंग": 4751,
      "पुनर्भंडारित": 4752,
      "ढालDisc": 4753,
      "ओवरबर्न": 4754,
      "प्रभावित": 4755,
      "रिथमः": 4756,
      "वृद्धि": 4757,
      "व्यूपोर्ट": 4758,
      "होमपेज": 4759,
      "सम्पादक": 4760,
      "सूचियाँ": 4761,
      "लायब्रेरीज़": 4762,
      "अमेरिकी": 4763,
      "घटाने": 4764,
      "सुनने": 4765,
      "अपठनीय": 4766,
      "Windows": 4767,
      "ट्रेश": 4768,
      "DAO": 4769,
      "उल्लेखित": 4770,
      "Remove": 4771,
      "MPEG": 4772,
      "अंकः": 4773,
      "स्टीरियो": 4774,
      "Creator": 4775,
      "Folder": 4776,
      "SECAM": 4777,
      "Writing": 4778,
      "cewith": 4779,
      "empty": 4780,
      "अलिलेखन": 4781,
      "अलगाव": 4782,
      "आन्तरिक": 4783,
      "इतना": 4784,
      "एन्कोडिंग": 4785,
      "ऑनलाइन": 4786,
      "घराना": 4787,
      "फुटर": 4788,
      "महाद्वीप": 4789,
      "क्योंकि": 4790,
      "संरूपित": 4791,
      "जोखिम": 4792,
      "एकत्रण": 4793,
      "अनलॉक": 4794,
      "जोड़ेंseconds": 4795,
      "पंहुचयोग्य": 4796,
      "कॉम्बो": 4797,
      "एंबेडेड": 4798,
      "पीएलएस": 4799,
      "मुताबिक": 4800,
      "जीस्ट्रीमर": 4801,
      "leadin": 4802,
      "अल्गोरिथमः": 4803,
      "चेकसमिंग": 4804,
      "autodetected": 4805,
      "Replacewith": 4806,
      "beginning": 4807,
      "grafted": 4808,
      "सेकण्डparts": 4809,
      "MPEG2": 4810,
      "\"(": 4811,
      "Aut": 4812,
      "Fun": 4813,
      "H323": 4814,
      "PHO": 4815,
      "Ser": 4816,
      "date": 4817,
      "gister": 4818,
      "id": 4819,
      "ies": 4820,
      "ton": 4821,
      "tal": 4822,
      "vd": 4823,
      "whi": 4824,
      "ys": 4825,
      "ंज": 4826,
      "एली": 4827,
      "कह": 4828,
      "कक्ष": 4829,
      "घो": 4830,
      "झट": 4831,
      "डू": 4832,
      "तथा": 4833,
      "फार": 4834,
      "रक्षा": 4835,
      "वरिय": 4836,
      "शक": 4837,
      "शृंखला": 4838,
      "षणा": 4839,
      "िया": 4840,
      "ोम": 4841,
      "लिं": 4842,
      "लिटी": 4843,
      "सेन्स": 4844,
      "ताएँ": 4845,
      "विट्र": 4846,
      "पाथ": 4847,
      "बाएँ": 4848,
      "मिस": 4849,
      "समु": 4850,
      "टिटी": 4851,
      "ब्रि": 4852,
      "मेन्ट": 4853,
      "रेफ": 4854,
      "गाढ़ा": 4855,
      "स्टाइल": 4856,
      "स्थानः": 4857,
      "बिलिटी": 4858,
      "मुझ": 4859,
      "मुद्र": 4860,
      "डेमो": 4861,
      "वेटर": 4862,
      "तस्वीरों": 4863,
      "तरफ": 4864,
      "जिए": 4865,
      "क्रियाएं": 4866,
      "क्रियाशील": 4867,
      "पहुंचा": 4868,
      "मेलः": 4869,
      "संख्याएँ": 4870,
      "दर्शक": 4871,
      "चलायें": 4872,
      "पूर्वनिर्धारित": 4873,
      "जाएग": 4874,
      "सुरक्षा": 4875,
      "न्यासslot": 4876,
      "dev": 4877,
      "els": 4878,
      "मिटाओ": 4879,
      "भारी": 4880,
      "भरकम": 4881,
      "स्ट्रार": 4882,
      "button": 4883,
      "जांचे": 4884,
      "days": 4885,
      "बढ़िया": 4886,
      "मॉनी": 4887,
      "पंजीकरण": 4888,
      "टाइमआउट": 4889,
      "विशेषताएँ": 4890,
      "Register": 4891,
      "इंटरनेट": 4892,
      "pixels": 4893,
      "छिपा": 4894,
      "रजिस्ट्रार": 4895,
      "SASL": 4896,
      "Vob": 4897,
      "video0": 4898,
      "ग्नोम": 4899,
      "played": 4900,
      "महत्व": 4901,
      "formation": 4902,
      "Vala": 4903,
      "व्यक्तिगत": 4904,
      "प्रेषण": 4905,
      "Function": 4906,
      "PHOTO": 4907,
      "Series": 4908,
      "white": 4909,
      "एलीवेटर": 4910,
      "घोषणा": 4911,
      "वरियताएँ": 4912,
      "विट्रेट": 4913,
      "घोषणाओं": 4914,
      "\".": 4915,
      "*:": 4916,
      ".--": 4917,
      "/%.": 4918,
      "17": 4919,
      "32": 4920,
      "931": 4921,
      "AL": 4922,
      "AQ": 4923,
      "Bl": 4924,
      "CIF": 4925,
      "DP": 4926,
      "Er": 4927,
      "Ex": 4928,
      "Find": 4929,
      "FAQ": 4930,
      "GI": 4931,
      "Gra": 4932,
      "Get": 4933,
      "Gir": 4934,
      "He": 4935,
      "IB": 4936,
      "Im": 4937,
      "Iss": 4938,
      "Les": 4939,
      "LGPL": 4940,
      "Lua": 4941,
      "LIB": 4942,
      "ML": 4943,
      "OPAL": 4944,
      "PC": 4945,
      "PM": 4946,
      "PW": 4947,
      "Pp": 4948,
      "Py": 4949,
      "PID": 4950,
      "Patch": 4951,
      "PPM": 4952,
      "ROM": 4953,
      "RTL": 4954,
      "RPC": 4955,
      "Sim": 4956,
      "Squa": 4957,
      "Tag": 4958,
      "Up": 4959,
      "UDP": 4960,
      "VAL": 4961,
      "Wor": 4962,
      "XML": 4963,
      "anjuta": 4964,
      "bor": 4965,
      "bal": 4966,
      "ble": 4967,
      "bind": 4968,
      "cc": 4969,
      "cs": 4970,
      "cra": 4971,
      "clu": 4972,
      "dx": 4973,
      "ema": 4974,
      "editor": 4975,
      "from": 4976,
      "iam": 4977,
      "king": 4978,
      "mSpec": 4979,
      "nt": 4980,
      "pic": 4981,
      "pare": 4982,
      "part": 4983,
      "pipe": 4984,
      "qui": 4985,
      "rb": 4986,
      "rsh": 4987,
      "sp": 4988,
      "ssh": 4989,
      "source": 4990,
      "srecent": 4991,
      "tut": 4992,
      "ur": 4993,
      "uer": 4994,
      "vp": 4995,
      "vit": 4996,
      "vanc": 4997,
      "word": 4998,
      "अर्": 4999,
      "अपर": 5000,
      "अने": 5001,
      "अंड": 5002,
      "अक्रिय": 5003,
      "असफलतापूर्वक": 5004,
      "आट": 5005,
      "आल्ट": 5006,
      "इन्": 5007,
      "इम्": 5008,
      "ईटै": 5009,
      "उसकी": 5010,
      "एफ़": 5011,
      "एकी": 5012,
      "ऑफल": 5013,
      "ऑपरेशन": 5014,
      "ओफ": 5015,
      "कहें": 5016,
      "खड़ा": 5017,
      "गरहा": 5018,
      "गतम": 5019,
      "गंभी": 5020,
      "जनाम": 5021,
      "जनिक": 5022,
      "टूट": 5023,
      "डबल": 5024,
      "ण्य": 5025,
      "तल": 5026,
      "तौर": 5027,
      "थड": 5028,
      "दित": 5029,
      "नं": 5030,
      "नये": 5031,
      "पन्": 5032,
      "पदा": 5033,
      "फटा": 5034,
      "बधा": 5035,
      "मण्य": 5036,
      "राइ": 5037,
      "रार": 5038,
      "रकें": 5039,
      "रहें": 5040,
      "रैप": 5041,
      "रस्को": 5042,
      "रसाइसर": 5043,
      "रप्रिंट": 5044,
      "लाइल": 5045,
      "व्": 5046,
      "वॉल्यू": 5047,
      "शर्": 5048,
      "शलर": 5049,
      "सता": 5050,
      "ान": 5051,
      "ांत": 5052,
      "ूल": 5053,
      "ोरिथम": 5054,
      "स्ड": 5055,
      "स्टि": 5056,
      "करा": 5057,
      "याम": 5058,
      "क्लाइ": 5059,
      "क्शन्स": 5060,
      "र्से": 5061,
      "र्टिंग": 5062,
      "केण्ड": 5063,
      "कोहरा": 5064,
      "हैbutton": 5065,
      "ाइन": 5066,
      "नांक": 5067,
      "नांतर": 5068,
      "लिपी": 5069,
      "लिफो": 5070,
      "लियास": 5071,
      "लिप्स": 5072,
      "प्रवा": 5073,
      "प्रवे": 5074,
      "प्रलेख": 5075,
      "प्रशिक्षण": 5076,
      "सेमेल": 5077,
      "सेकेण्ड": 5078,
      "योन्य": 5079,
      "विचर": 5080,
      "विचरण": 5081,
      "विड्": 5082,
      "विसंतृ": 5083,
      "करेंRegister": 5084,
      "संपु": 5085,
      "संपीड": 5086,
      "जाएं": 5087,
      "फ़िंग": 5088,
      "नहींः": 5089,
      "मेंटे": 5090,
      "ड़ने": 5091,
      "तिर्य": 5092,
      "निदेश": 5093,
      "निवे": 5094,
      "निचला": 5095,
      "निगम": 5096,
      "लाभ": 5097,
      "पाश": 5098,
      "पास्क": 5099,
      "पादि": 5100,
      "स्थल": 5101,
      "खाती": 5102,
      "प्ली": 5103,
      "वीजन": 5104,
      "डीबी": 5105,
      "डीपीआई": 5106,
      "देरी": 5107,
      "देती": 5108,
      "दिनांक": 5109,
      "टाता": 5110,
      "रिपॉ": 5111,
      "रिबेस": 5112,
      "रिलीज": 5113,
      "रिवीजन": 5114,
      "बान": 5115,
      "बादी": 5116,
      "बार्डर": 5117,
      "सीपी": 5118,
      "सीरियल": 5119,
      "समतुल्यका": 5120,
      "वार्": 5121,
      "वाधि": 5122,
      "राजा": 5123,
      "रांक": 5124,
      "रात्मक": 5125,
      "देश्य": 5126,
      "त्रिक": 5127,
      "वर्क": 5128,
      "ंडविड्": 5129,
      "अनलोड": 5130,
      "आपसे": 5131,
      "परियोजनाएँ": 5132,
      "छविः": 5133,
      "अनुत्": 5134,
      "अनुमापक": 5135,
      "धिकरण": 5136,
      "यहः": 5137,
      "कुहरा": 5138,
      "ट्रस्ट": 5139,
      "ट्रान": 5140,
      "कृतिक": 5141,
      "erer": 5142,
      "erry": 5143,
      "बदलो": 5144,
      "रोको": 5145,
      "रोजनाम": 5146,
      "इनलाइल": 5147,
      "दाएं": 5148,
      "ब्रमण्य": 5149,
      "साथः": 5150,
      "मेरी": 5151,
      "मेथड": 5152,
      "करनेयोग्य": 5153,
      "चाहता": 5154,
      "remen": 5155,
      "requi": 5156,
      "सेटर": 5157,
      "बगजि": 5158,
      "निर्देशिकाएँ": 5159,
      "init": 5160,
      "inclu": 5161,
      "द्ध": 5162,
      "त्रुटियां": 5163,
      "त्रुटियाँः": 5164,
      "प्लगइनः": 5165,
      "orial": 5166,
      "्यूल्स": 5167,
      "लाइसेन्स": 5168,
      "अंतरण": 5169,
      "पीएच": 5170,
      "पाठActionGroupEditorInsert": 5171,
      "उपयोगः": 5172,
      "बिल्ट": 5173,
      "पैक": 5174,
      "बदलेंto": 5175,
      "टीसीपी": 5176,
      "मौड्यूल": 5177,
      "्रोल": 5178,
      "प्रारंभी": 5179,
      "सूचीः": 5180,
      "lity": 5181,
      "लोडर": 5182,
      "हटाएँः": 5183,
      "सहेजेंः": 5184,
      "वस्तुः": 5185,
      "वस्तुएँ": 5186,
      "रंगा": 5187,
      "मदrecent": 5188,
      "ata": 5189,
      "जियां": 5190,
      "पुनरार": 5191,
      "प्रारंभिकी": 5192,
      "प्रकारों": 5193,
      "ोटूल": 5194,
      "आईपी": 5195,
      "आईबी": 5196,
      "आईपाइथन": 5197,
      "ड्रा": 5198,
      "दोगुना": 5199,
      "जीयू": 5200,
      "जीडीबी": 5201,
      "न्यून": 5202,
      "raman": 5203,
      "rary": 5204,
      "ramSpec": 5205,
      "विधियों": 5206,
      "विधियां": 5207,
      "स्रोतों": 5208,
      "समापन": 5209,
      "समानांतर": 5210,
      "मिलाया": 5211,
      "आउटबाउंड": 5212,
      "मददः": 5213,
      "मीटर्स": 5214,
      "max": 5215,
      "प्रबंधित": 5216,
      "प्राधिकरण": 5217,
      "प्राकृतिक": 5218,
      "rope": 5219,
      "itter": 5220,
      "टेलिफो": 5221,
      "समर्थनः": 5222,
      "प्रतिरोध": 5223,
      "प्रतिलिपी": 5224,
      "SIGI": 5225,
      "सुस्वा": 5226,
      "सुब्रमण्य": 5227,
      "ध्वज": 5228,
      "column": 5229,
      "सत्रें": 5230,
      "सत्रांत": 5231,
      "टनलिंग": 5232,
      "सर्वाधि": 5233,
      "पासः": 5234,
      "Column": 5235,
      "न्यूनतमः": 5236,
      "पढ़े": 5237,
      "डिबगरः": 5238,
      "अधिकतमः": 5239,
      "tern": 5240,
      "लाइब्रेरीः": 5241,
      "लाइब्रेरीज़ः": 5242,
      "ब्रेकप्वाइ": 5243,
      "छुपे": 5244,
      "Generate": 5245,
      "शोल्ड": 5246,
      "हाशियाः": 5247,
      "टैग्स": 5248,
      "फंक्शन्स": 5249,
      "कमिटः": 5250,
      "मिटाए": 5251,
      "project": 5252,
      "nable": 5253,
      "usable": 5254,
      "आउटपुटः": 5255,
      "च्चय": 5256,
      "license": 5257,
      "अवधिः": 5258,
      "विस्तारः": 5259,
      "खंडः": 5260,
      "bugzilla": 5261,
      "filtering": 5262,
      "अन्यों": 5263,
      "अन्योन्य": 5264,
      "स्थिरांक": 5265,
      "ubraman": 5266,
      "Ins": 5267,
      "फ़ाइलेंः": 5268,
      "फ़ाइलेंdisc": 5269,
      "उत्पाद": 5270,
      "जुटाता": 5271,
      "सोर्से": 5272,
      "advanc": 5273,
      "एक्सेरसाइसर": 5274,
      "घटनाएं": 5275,
      "forge": 5276,
      "कुंजियां": 5277,
      "medata": 5278,
      "express": 5279,
      "exec": 5280,
      "समायोजन": 5281,
      "arest": 5282,
      "num1": 5283,
      "num2": 5284,
      "तंत्रः": 5285,
      "भिन्नता": 5286,
      "फ़ोल्डरः": 5287,
      "पुनर्वितरित": 5288,
      "पुनर्निदेश": 5289,
      "Stack": 5290,
      "पुस्तचिह्न": 5291,
      "कुंजीः": 5292,
      "GType": 5293,
      "asubraman": 5294,
      "उलटेंः": 5295,
      "फीफो": 5296,
      "प्राथमिक": 5297,
      "पश्च": 5298,
      "होस्टनामः": 5299,
      "रेपोसिटरीः": 5300,
      "गिनतीः": 5301,
      "बोर्डर": 5302,
      "बैकऑफ": 5303,
      "टाइमलाइन": 5304,
      "शाखाः": 5305,
      "टैब्स": 5306,
      "विभाग": 5307,
      "अतरफलकः": 5308,
      "अलगोरिथम": 5309,
      "रद्दीकरण": 5310,
      "छोटाः": 5311,
      "मार्शलर": 5312,
      "मॉड्यूल्स": 5313,
      "डिवाइसः": 5314,
      "सिग्नलः": 5315,
      "ClutterGra": 5316,
      "बांया": 5317,
      "वितरणः": 5318,
      "डॉट": 5319,
      "डॉस": 5320,
      "pythonhttp": 5321,
      "autogen": 5322,
      "used": 5323,
      "रियल्म": 5324,
      "दोषमुक्त": 5325,
      "सत्यापक": 5326,
      "तुलना": 5327,
      "कम्पाइलर": 5328,
      "इंटरप्ट": 5329,
      "been": 5330,
      "खिसकाया": 5331,
      "परेशा": 5332,
      "डायरेक्ट्री": 5333,
      "बालसुब्रमण्य": 5334,
      "पहचानकर्ता": 5335,
      "क्रेश": 5336,
      "हलः": 5337,
      "क्लब": 5338,
      "Blurb": 5339,
      "उद्देश्य": 5340,
      "कूदें": 5341,
      "तीसरा": 5342,
      "निरपेक्ष": 5343,
      "हुईः": 5344,
      "predef": 5345,
      "बैंडविड्": 5346,
      "आईडीई": 5347,
      "programs": 5348,
      "डिफोल्टों": 5349,
      "थ्रेशोल्ड": 5350,
      "वैकल्पिकः": 5351,
      "बाइसन": 5352,
      "रजिस्ट्री": 5353,
      "textentry": 5354,
      "कंट्रोल": 5355,
      "रूकेंः": 5356,
      "शिशुओं": 5357,
      "रुप": 5358,
      "neigh": 5359,
      "nearest": 5360,
      "अभिगम": 5361,
      "मेजबान": 5362,
      "लेबलः": 5363,
      "आरंभीकरण": 5364,
      "timedata": 5365,
      "2006": 5366,
      "2007": 5367,
      "डिपेंड्स": 5368,
      "रिपोजिटरी": 5369,
      "रिपोर्टिंग": 5370,
      "एक्सेसेबलों": 5371,
      "एक्सेसेबेलों": 5372,
      "आसंधियों": 5373,
      "परीक्षण": 5374,
      "गेटवे": 5375,
      "स्कोपः": 5376,
      "विशिष्टः": 5377,
      "kbits": 5378,
      "बीजशब्दः": 5379,
      "CPU": 5380,
      "OpenH323": 5381,
      "खातेpare": 5382,
      "एंटीएलियास": 5383,
      "indexrow": 5384,
      "तालाबंद": 5385,
      "मुद्दा": 5386,
      "ओवरराइ": 5387,
      "प्रभावी": 5388,
      "दर्शाता": 5389,
      "ParamSpec": 5390,
      "ize": 5391,
      "quality": 5392,
      "व्यायाम": 5393,
      "सार्वजनिक": 5394,
      "सार्वत्रिक": 5395,
      "उपसर्गः": 5396,
      "dirs": 5397,
      "फोर्ट्रान": 5398,
      "जिटरीः": 5399,
      "लोगों": 5400,
      "लोगआउट": 5401,
      "भाषाएँः": 5402,
      "sudossh": 5403,
      "focusable": 5404,
      "focused": 5405,
      "डिपेंडेंसीज़": 5406,
      "डिपेंडेंसीज़ः": 5407,
      "हाइपरपाठ": 5408,
      "हाइपरकड़ी": 5409,
      "INFO": 5410,
      "कलम": 5411,
      "लपेटना": 5412,
      "कैरेक्टर": 5413,
      "Cherry": 5414,
      "आएंगे": 5415,
      "बांधने": 5416,
      "कान्फिगर": 5417,
      "स्टेटमेन्ट": 5418,
      "ddy": 5419,
      "आयामी": 5420,
      "कोशिका": 5421,
      "जरिए": 5422,
      "हाइलाइटन": 5423,
      "रेकोर्डिंग": 5424,
      "ब्लाक": 5425,
      "Commit": 5426,
      "चेतावनियाँः": 5427,
      "यूआरएलः": 5428,
      "assword": 5429,
      "झटकें": 5430,
      "लिंकर": 5431,
      "समुच्चय": 5432,
      "मुझे": 5433,
      "मुद्रक": 5434,
      "Error": 5435,
      "Extern": 5436,
      "Getter": 5437,
      "Head": 5438,
      "Import": 5439,
      "Issuer": 5440,
      "Lesser": 5441,
      "PWLIB": 5442,
      "PyGTK": 5443,
      "RTLpredef": 5444,
      "Simple": 5445,
      "Squash": 5446,
      "Tags": 5447,
      "Update": 5448,
      "Working": 5449,
      "balasubraman": 5450,
      "emacs": 5451,
      "pick": 5452,
      "sourceforge": 5453,
      "tutorial": 5454,
      "vity": 5455,
      "अर्द्ध": 5456,
      "अपरकेस": 5457,
      "अनेक": 5458,
      "अंडरस्को": 5459,
      "आटोटूल": 5460,
      "इम्प्ली": 5461,
      "ईटैलिक": 5462,
      "एकीकृत": 5463,
      "ऑफलाइन": 5464,
      "ओफसेट": 5465,
      "गरहाई": 5466,
      "गंभीर": 5467,
      "पन्ने": 5468,
      "पदार्थ": 5469,
      "फटाफट": 5470,
      "बधाई": 5471,
      "रप्रिंटः": 5472,
      "वॉल्यूम": 5473,
      "स्टिकी": 5474,
      "क्लाइंट": 5475,
      "प्रवाहित": 5476,
      "प्रवेश": 5477,
      "विचरक": 5478,
      "विसंतृप्त": 5479,
      "संपुष्ट": 5480,
      "संपीडन": 5481,
      "फ़िंगरप्रिंटः": 5482,
      "मेंटेशन": 5483,
      "तिर्यक": 5484,
      "निवेदित": 5485,
      "पास्कल": 5486,
      "पादिका": 5487,
      "रिपॉजिटरीः": 5488,
      "समतुल्यकालिक": 5489,
      "अनुत्तरित": 5490,
      "रोजनामचा": 5491,
      "rements": 5492,
      "requirements": 5493,
      "बगजिला": 5494,
      "inito": 5495,
      "include": 5496,
      "पीएचपी": 5497,
      "प्रारंभीकरण": 5498,
      "पुनरारंभ": 5499,
      "प्रारंभिकीकरण": 5500,
      "आईबीएम": 5501,
      "जीयूआई": 5502,
      "टेलिफोनी": 5503,
      "प्रतिलिपीकरण": 5504,
      "SIGINT": 5505,
      "सुस्वागतम": 5506,
      "सर्वाधिकार": 5507,
      "ब्रेकप्वाइंट": 5508,
      "सोर्सेज़": 5509,
      "advanced": 5510,
      "expression": 5511,
      "execvp": 5512,
      "मॉड्यूल्सः": 5513,
      "ClutterGravity": 5514,
      "बालसुब्रमण्यम": 5515,
      "बैंडविड्थ": 5516,
      "neighbor": 5517,
      "खातेparent": 5518,
      "ओवरराइड": 5519,
      "RTLpredefinito": 5520,
      "balasubramaniam": 5521,
      "अंडरस्कोर": 5522,
      "इम्प्लीमेंटेशन": 5523,
      "002": 5524,
      "1number": 5525,
      "2number": 5526,
      "3number": 5527,
      "300": 5528,
      "4number": 5529,
      "5number": 5530,
      "6number": 5531,
      "7number": 5532,
      "8number": 5533,
      "Ais": 5534,
      "Acard": 5535,
      "CE": 5536,
      "DE": 5537,
      "Done": 5538,
      "ENT": 5539,
      "IM": 5540,
      "ICE": 5541,
      "Jcard": 5542,
      "Kl": 5543,
      "Kcard": 5544,
      "LAN": 5545,
      "Name": 5546,
      "NOT": 5547,
      "PERC": 5548,
      "PIN": 5549,
      "Qcard": 5550,
      "UI": 5551,
      "VICE": 5552,
      "aus": 5553,
      "best": 5554,
      "dvd": 5555,
      "foundation": 5556,
      "game": 5557,
      "io": 5558,
      "mit": 5559,
      "ock": 5560,
      "ph": 5561,
      "table": 5562,
      "veslot": 5563,
      "wor": 5564,
      "×%": 5565,
      "अके": 5566,
      "अल्ड": 5567,
      "अत्य": 5568,
      "अलब": 5569,
      "अस्वीकृत": 5570,
      "आठ": 5571,
      "आपा": 5572,
      "आंट": 5573,
      "आगो": 5574,
      "इसा": 5575,
      "एल्": 5576,
      "एकार्": 5577,
      "एस्के": 5578,
      "एग्": 5579,
      "एथे": 5580,
      "ऑस्": 5581,
      "ऑडि": 5582,
      "कब": 5583,
      "खिक": 5584,
      "गलिया": 5585,
      "गैप": 5586,
      "गैप्स": 5587,
      "घड़ी": 5588,
      "घीय": 5589,
      "छली": 5590,
      "जंग": 5591,
      "टरों": 5592,
      "डें": 5593,
      "डहेड": 5594,
      "दरी": 5595,
      "ध्या": 5596,
      "नः": 5597,
      "नफील्ड": 5598,
      "नवुड": 5599,
      "पत": 5600,
      "पस्": 5601,
      "पड़े": 5602,
      "बची": 5603,
      "बहि": 5604,
      "मती": 5605,
      "मकब": 5606,
      "मछली": 5607,
      "यः": 5608,
      "यही": 5609,
      "रॉ": 5610,
      "रक्त": 5611,
      "रडो": 5612,
      "लसिं": 5613,
      "व्रे": 5614,
      "शतर": 5615,
      "शेंस": 5616,
      "सड़": 5617,
      "सरे": 5618,
      "हाइट": 5619,
      "ाटो": 5620,
      "िश": 5621,
      "ूठा": 5622,
      "ेय": 5623,
      "ेअन": 5624,
      "ेगा": 5625,
      "ॉच": 5626,
      "ोर": 5627,
      "स्पाइ": 5628,
      "स्पॉ": 5629,
      "करिए": 5630,
      "कां": 5631,
      "काच": 5632,
      "काslot": 5633,
      "कापियर": 5634,
      "क्वा": 5635,
      "र्जे": 5636,
      "केमेल": 5637,
      "केनफील्ड": 5638,
      "लिकाslot": 5639,
      "योर": 5640,
      "तारे": 5641,
      "तांत": 5642,
      "तालिकाslot": 5643,
      "विल": 5644,
      "विव": 5645,
      "विटा": 5646,
      "विचार": 5647,
      "विस्प": 5648,
      "डियन": 5649,
      "हीरा": 5650,
      "संघीय": 5651,
      "नेस": 5652,
      "नेपो": 5653,
      "कीजिए": 5654,
      "तिहरी": 5655,
      "मादा": 5656,
      "लापी": 5657,
      "पाप": 5658,
      "पाँच": 5659,
      "स्कॉच": 5660,
      "हाट": 5661,
      "हाथा": 5662,
      "हापस्": 5663,
      "लेटर": 5664,
      "किरण": 5665,
      "सास": 5666,
      "प्सी": 5667,
      "चाली": 5668,
      "टाउन": 5669,
      "रिवर": 5670,
      "रिपोसिटरी": 5671,
      "रिडील": 5672,
      "बाज": 5673,
      "बायें": 5674,
      "सीटी": 5675,
      "सीधा": 5676,
      "सीहैवन": 5677,
      "रीढ़": 5678,
      "लेंग": 5679,
      "लेंटाइ": 5680,
      "समतल": 5681,
      "न्ते": 5682,
      "न्योर": 5683,
      "राहा": 5684,
      "राउंड": 5685,
      "क्रा": 5686,
      "उपज": 5687,
      "धिक": 5688,
      "कुत्": 5689,
      "....": 5690,
      "ट्रेज": 5691,
      "सूर्य": 5692,
      "इनबाक्स": 5693,
      "दांत": 5694,
      "जेब्रा": 5695,
      "जेम्स": 5696,
      "तेरह": 5697,
      "पंख": 5698,
      "युकान": 5699,
      "reser": 5700,
      "तीब": 5701,
      "रेस": 5702,
      "रेडहेड": 5703,
      "स्टल": 5704,
      "सिर": 5705,
      "सिस": 5706,
      "सिफार": 5707,
      "सिन्योर": 5708,
      "गुने": 5709,
      "गुपत": 5710,
      "सहित": 5711,
      "पीठ": 5712,
      "ग्राफ़ि": 5713,
      "dike": 5714,
      "फ्लापी": 5715,
      "कार्लो": 5716,
      "स्वीकृति": 5717,
      "ondike": 5718,
      "शासक": 5719,
      "आरपार": 5720,
      "भाग्य": 5721,
      "हेलसिं": 5722,
      "साराटो": 5723,
      "बर्नेट": 5724,
      "वेलेंटाइ": 5725,
      "श्चिक": 5726,
      "चौबार": 5727,
      "चौदह": 5728,
      "चौराहा": 5729,
      "तमः": 5730,
      "तरतीब": 5731,
      "esca": 5732,
      "जिप्सी": 5733,
      "बेतरतीब": 5734,
      "alyz": 5735,
      "analyz": 5736,
      "ढूंढा": 5737,
      "पेशेंस": 5738,
      "सबफोल्डर": 5739,
      "बीसी": 5740,
      "बीयर": 5741,
      "जीत": 5742,
      "दर्जन": 5743,
      "दुसरे": 5744,
      "चलाते": 5745,
      "ical": 5746,
      "आउटबाक्स": 5747,
      "प्रायः": 5748,
      "टेरेस": 5749,
      "library": 5750,
      "हटाया": 5751,
      "search": 5752,
      "string": 5753,
      "steslot": 5754,
      "stock": 5755,
      "प्रतिस्थापन": 5756,
      "SIGN": 5757,
      "करेगी": 5758,
      "पट्ट": 5759,
      "total": 5760,
      "दौर": 5761,
      "दृश्यमान": 5762,
      "जमाएँ": 5763,
      "पुनःप्रारंभ": 5764,
      "पुनःआरंभ": 5765,
      "कार्ड्स": 5766,
      "ध्येय": 5767,
      "कुलः": 5768,
      "बटनsu": 5769,
      "टॉमी": 5770,
      "जिसने": 5771,
      "पायाः": 5772,
      "लॉगिन": 5773,
      "तोर्जे": 5774,
      "श्रीमा": 5775,
      "श्रृंखला": 5776,
      "ताशः": 5777,
      "ताशों": 5778,
      "उलटे": 5779,
      "उत्तमः": 5780,
      "आयडें": 5781,
      "सोना": 5782,
      "फरें": 5783,
      "पॉकेट": 5784,
      "पाइलेअन": 5785,
      "पारपथ": 5786,
      "गोपित": 5787,
      "गोल्फ": 5788,
      "गोरडो": 5789,
      "स्टाल": 5790,
      "मिलनी": 5791,
      "बढ़ने": 5792,
      "प्रगतिशील": 5793,
      "%%%": 5794,
      "%%%%%": 5795,
      "ISDN": 5796,
      "जोकरcard": 5797,
      "पकड़ने": 5798,
      "मोन्ते": 5799,
      "मोसिस": 5800,
      "कम्प्यू": 5801,
      "ग्लेनवुड": 5802,
      "चिपकाओ": 5803,
      "cdrtools": 5804,
      "cdrkit": 5805,
      "रेखांकन": 5806,
      "lerio": 5807,
      "Reset": 5808,
      "खुजानी": 5809,
      "स्याने": 5810,
      "डीलः": 5811,
      "इंस्टाल": 5812,
      "सन्ग्रहित": 5813,
      "स्कोरिंग": 5814,
      "बढ़ाएँ": 5815,
      "भंडारः": 5816,
      "भंडारित": 5817,
      "चारों": 5818,
      "छिपे": 5819,
      "कैनसास": 5820,
      "यंस": 5821,
      "एस्लेरिया": 5822,
      "need": 5823,
      "फेंट": 5824,
      "दाहिना": 5825,
      "व्यवस्थित": 5826,
      "Cdrkit": 5827,
      "अन्वेषण": 5828,
      "श्रीमती": 5829,
      "चोटी": 5830,
      "libburnia": 5831,
      "प्रतिशतः": 5832,
      "बुराः": 5833,
      "wasteslot": 5834,
      "कठोर": 5835,
      "ब्लॉड": 5836,
      "थीमः": 5837,
      "wins": 5838,
      "वृश्चिक": 5839,
      "कुँजीपट": 5840,
      "सम्पादन": 5841,
      "बरबादी": 5842,
      "सौभाग्य": 5843,
      "सफेदसिर": 5844,
      "मेक्रोज़": 5845,
      "कैरेक्टर्स": 5846,
      "ईस्टहैवन": 5847,
      "हूँ": 5848,
      "हूं": 5849,
      "जीताः": 5850,
      "भूलभुलैया": 5851,
      "स्टाकslot": 5852,
      "ApplicableNot": 5853,
      "जायंट": 5854,
      "another": 5855,
      "ज़ेन": 5856,
      "व्यवसायी": 5857,
      "अंगूठा": 5858,
      "झांकें": 5859,
      "आरक्षितslot": 5860,
      "हॉपस्कॉच": 5861,
      "बायीँ": 5862,
      "ब्रिस्टल": 5863,
      "मॉनीटर्स": 5864,
      "इन्टर": 5865,
      "टूटते": 5866,
      "व्हाइट": 5867,
      "सताने": 5868,
      "कराने": 5869,
      "0025": 5870,
      "Aislerio": 5871,
      "DEVICE": 5872,
      "Klondike": 5873,
      "PERCENT": 5874,
      "auslot": 5875,
      "foundationslot": 5876,
      "games": 5877,
      "tableauslot": 5878,
      "worst": 5879,
      "अकेले": 5880,
      "अत्यधिक": 5881,
      "अलबर्ट": 5882,
      "आपात्": 5883,
      "आगोश": 5884,
      "इसाबेल": 5885,
      "एकार्डियन": 5886,
      "एस्केलेटर": 5887,
      "एग्नेस": 5888,
      "एथेना": 5889,
      "ऑस्मोसिस": 5890,
      "ऑडियंस": 5891,
      "गलियां": 5892,
      "जंगल": 5893,
      "ध्यान": 5894,
      "पड़ेगी": 5895,
      "मकबरा": 5896,
      "रॉयल": 5897,
      "व्रेप": 5898,
      "शतरंज": 5899,
      "सड़क": 5900,
      "स्पाइडर": 5901,
      "स्पॉट": 5902,
      "क्वातोर्जे": 5903,
      "केमेलॉट": 5904,
      "विटामिन": 5905,
      "नेपोलियन": 5906,
      "हाथापाई": 5907,
      "हापस्काच": 5908,
      "किरणें": 5909,
      "चालीस": 5910,
      "रिपोसिटरीज़": 5911,
      "कुत्ते": 5912,
      "जेम्सटाउन": 5913,
      "reserveslot": 5914,
      "सिफारिश": 5915,
      "ग्राफ़िक्स": 5916,
      "हेलसिंकी": 5917,
      "साराटोगा": 5918,
      "वेलेंटाइन": 5919,
      "चौबारा": 5920,
      "escape": 5921,
      "analyzer": 5922,
      "stockslot": 5923,
      "श्रीमान्": 5924,
      "गोरडोन्स": 5925,
      "कम्प्यूटरों": 5926,
      "एस्लेरियाट": 5927,
      "बरबादीfoundationslot": 5928,
      "व्हाइटहेड": 5929,
      "Aisleriot": 5930,
      ",-": 5931,
      "12": 5932,
      "1p": 5933,
      "1ले": 5934,
      "102": 5935,
      "175": 5936,
      "150": 5937,
      "47": 5938,
      "400": 5939,
      ";/": 5940,
      "An": 5941,
      "Ba": 5942,
      "Back": 5943,
      "Cable": 5944,
      "Enum": 5945,
      "F2": 5946,
      "Help": 5947,
      "Lo": 5948,
      "List": 5949,
      "NP": 5950,
      "Pur": 5951,
      "Rend": 5952,
      "Sho": 5953,
      "SVCD": 5954,
      "User": 5955,
      "XIn": 5956,
      "[%": 5957,
      "af": 5958,
      "bab": 5959,
      "brasero": 5960,
      "css": 5961,
      "dge": 5962,
      "fra": 5963,
      "ide": 5964,
      "kable": 5965,
      "kumar": 5966,
      "obab": 5967,
      "ps": 5968,
      "pma": 5969,
      "ru": 5970,
      "sl": 5971,
      "sli": 5972,
      "sent": 5973,
      "vrgb": 5974,
      "vbgr": 5975,
      "ward": 5976,
      "yy": 5977,
      "}/": 5978,
      "ंडि": 5979,
      "ंक्शन": 5980,
      "ंदन": 5981,
      "अण्डर": 5982,
      "आत": 5983,
      "आवर्": 5984,
      "आखि": 5985,
      "आकृति": 5986,
      "ईट": 5987,
      "उन्": 5988,
      "उंडिंग": 5989,
      "ऊर्ध्वाधर": 5990,
      "एफ": 5991,
      "एक्": 5992,
      "एनि": 5993,
      "एलिप्साइ": 5994,
      "ऐट": 5995,
      "कल्प": 5996,
      "खंडि": 5997,
      "घू": 5998,
      "घटाएँ": 5999,
      "चह": 6000,
      "चाइल": 6001,
      "चतुर्": 6002,
      "चंदन": 6003,
      "टल": 6004,
      "डशीट": 6005,
      "ढने": 6006,
      "णन": 6007,
      "तला": 6008,
      "नाइज़": 6009,
      "पण": 6010,
      "पलाइन": 6011,
      "पढने": 6012,
      "फजी": 6013,
      "बचें": 6014,
      "यलपे": 6015,
      "लडि": 6016,
      "ल्यू": 6017,
      "लैप्स": 6018,
      "वहु": 6019,
      "वली": 6020,
      "ससे": 6021,
      "सक्र": 6022,
      "सजी": 6023,
      "सजाती": 6024,
      "हमा": 6025,
      "ोखी": 6026,
      "्शा": 6027,
      "्रि": 6028,
      "स्प्रे": 6029,
      "यानी": 6030,
      "क्स्ड": 6031,
      "र्टी": 6032,
      "र्णन": 6033,
      "कोने": 6034,
      "कोटेड": 6035,
      "कोलैप्स": 6036,
      "हैDisc": 6037,
      "हैdefault": 6038,
      "लिफ़": 6039,
      "लिपट": 6040,
      "प्रयास": 6041,
      "प्रक्षे": 6042,
      "प्रत्या": 6043,
      "प्रणा": 6044,
      "प्रमुख": 6045,
      "सेस": 6046,
      "सेप्": 6047,
      "विस": 6048,
      "विज़": 6049,
      "करेंगे": 6050,
      "डिकोड": 6051,
      "संदूक": 6052,
      "संक्षि": 6053,
      "संचरित": 6054,
      "जांचा": 6055,
      "फ़ंक्शन": 6056,
      "लिएDevhelp": 6057,
      "निच": 6058,
      "निवास": 6059,
      "मावली": 6060,
      "साईट": 6061,
      "प्चर": 6062,
      "जोल्यू": 6063,
      "परिक्रमण": 6064,
      "रिफर": 6065,
      "रिसेप्": 6066,
      "रिजोल्यू": 6067,
      "बाडी": 6068,
      "बाउंडिंग": 6069,
      "मिलें": 6070,
      "न्डेशन": 6071,
      "नामस्थान": 6072,
      "क्रनाइज़": 6073,
      "अनसेट": 6074,
      "अनोखी": 6075,
      "उपपिक्सेल": 6076,
      "ष्कृत": 6077,
      "पूल": 6078,
      "..%": 6079,
      "त्त्व": 6080,
      "मानः": 6081,
      "मेट्रि": 6082,
      "मेटेड": 6083,
      "कॉर्ड": 6084,
      "rep": 6085,
      "render": 6086,
      "rease": 6087,
      "refra": 6088,
      "तीकरण": 6089,
      "रेकॉर्ड": 6090,
      "क्टर": 6091,
      "सिरे": 6092,
      "सिक्यू": 6093,
      "सिबिलिटी": 6094,
      "inch": 6095,
      "input": 6096,
      "गुजर": 6097,
      "अक्षों": 6098,
      "none": 6099,
      "फिक्स": 6100,
      "फिक्स्ड": 6101,
      "बिट्स": 6102,
      "enge": 6103,
      "भाग": 6104,
      "दिखाएँpicture": 6105,
      "पादन": 6106,
      "चेतन": 6107,
      "वर्तनीय": 6108,
      "श्यों": 6109,
      "कॉलस": 6110,
      "मदों": 6111,
      "चौडा": 6112,
      "बेजोड़": 6113,
      "ans": 6114,
      "animatable": 6115,
      "ankumar": 6116,
      "अवत्वरण": 6117,
      "नक़्शा": 6118,
      "दर्शी": 6119,
      "मिलाgrafted": 6120,
      "समूहबद्धता": 6121,
      "दुरी": 6122,
      "कैप्चर": 6123,
      "पर्स": 6124,
      "ट्रीमैप": 6125,
      "पहुँचने": 6126,
      "नियमावली": 6127,
      "फ़ॉन्ट्स": 6128,
      "दृश्यों": 6129,
      "प्रतिपादन": 6130,
      "करेगे": 6131,
      "कार्यकारी": 6132,
      "ड्राइंग": 6133,
      "cogl": 6134,
      "सर्जन": 6135,
      "सर्विस": 6136,
      "भेजी": 6137,
      "भेजे": 6138,
      "स्थानीयकरण": 6139,
      "कैमरे": 6140,
      "शेल्फ": 6141,
      "पाइपलाइन": 6142,
      "glsl": 6143,
      "जिसें": 6144,
      "शब्दकूट": 6145,
      "ump": 6146,
      "compress": 6147,
      "फ्रेम्स": 6148,
      "CoglWin": 6149,
      "CoglBl": 6150,
      "dots": 6151,
      "मोड्यूलः": 6152,
      "ग्लिफ़": 6153,
      "लॉग्स": 6154,
      "pping": 6155,
      "खींचा": 6156,
      "खीचना": 6157,
      "loc": 6158,
      "उत्सर्ज": 6159,
      "उत्सर्जन": 6160,
      "प्लेबैक": 6161,
      "लगाएं": 6162,
      "एक्सेस": 6163,
      "एक्सेसिबिलिटी": 6164,
      "चरणों": 6165,
      "टाइपिंग": 6166,
      "about": 6167,
      "पारसिंग": 6168,
      "Stru": 6169,
      "andankumar": 6170,
      "कुंजीपट": 6171,
      "विशेषज्ञ": 6172,
      "सम्पर्क": 6173,
      "IDE": 6174,
      "फीचर": 6175,
      "चुनाब": 6176,
      "ification": 6177,
      "chandankumar": 6178,
      "DevHelp": 6179,
      "पहुंचने": 6180,
      "अपारदर्शी": 6181,
      "sys": 6182,
      "हिट": 6183,
      "हिससे": 6184,
      "वापसी": 6185,
      "hintmedi": 6186,
      "hintfull": 6187,
      "hintsli": 6188,
      "hintnone": 6189,
      "minification": 6190,
      "ClutterPa": 6191,
      "ClutterBack": 6192,
      "डॉयलपे": 6193,
      "कम्पाइलेशन": 6194,
      "किताबः": 6195,
      "किताबpage": 6196,
      "Resiz": 6197,
      "endString": 6198,
      "ड्रैगिंग": 6199,
      "खोजेंः": 6200,
      "डेवलपर्स": 6201,
      "items": 6202,
      "सन्दर्भ": 6203,
      "उद्गम": 6204,
      "GPU": 6205,
      "सोर्सफोर्": 6206,
      "uplink": 6207,
      "पुरातन": 6208,
      "अपरिभाषित": 6209,
      "Both": 6210,
      "लपेटन": 6211,
      "ट्रैस": 6212,
      "3047": 6213,
      "uncompress": 6214,
      "फैक्ट्री": 6215,
      "फैक्टर": 6216,
      "093047": 6217,
      "पिक्सल": 6218,
      "mipma": 6219,
      "अंतःक्रिया": 6220,
      "कालमों": 6221,
      "प्रतिनिधि": 6222,
      "codecs": 6223,
      "pixbufआकार": 6224,
      "HTTP": 6225,
      "बनता": 6226,
      "तालाप": 6227,
      "मुद्दों": 6228,
      "कुमार": 6229,
      "मानोंः": 6230,
      "window": 6231,
      "दर्शाते": 6232,
      "फाउन्डेशन": 6233,
      "pluginviews": 6234,
      "widge": 6235,
      "wirefra": 6236,
      "महत्त्व": 6237,
      "फिलहाल": 6238,
      "format": 6239,
      "Chall": 6240,
      "आएगा": 6241,
      "वाक्य": 6242,
      "बांधना": 6243,
      "व्यवहारिक": 6244,
      "कितना": 6245,
      "कितनी": 6246,
      "स्पष्ट": 6247,
      "क्लोन": 6248,
      "प्रस्तुतीकरण": 6249,
      "जायज़": 6250,
      "सिंक्रनाइज़": 6251,
      "YUV2": 6252,
      "चरित्र": 6253,
      "CoglObjects": 6254,
      "ARBfp": 6255,
      "लिप्साइज": 6256,
      "मिश्रण": 6257,
      "seekable": 6258,
      "GdkDisplay": 6259,
      "इसीलिए": 6260,
      "भुज": 6261,
      "मुखीकरण": 6262,
      "शुरुआत": 6263,
      "anjuta2": 6264,
      "वार्तालाप": 6265,
      "परेशानी": 6266,
      "IMAP": 6267,
      "एल्लिप्साइज": 6268,
      "बहिष्कृत": 6269,
      "विवश": 6270,
      "जेब्राcard": 6271,
      "125": 6272,
      "1px": 6273,
      "1024": 6274,
      "Animatable": 6275,
      "Baobab": 6276,
      "NPOT": 6277,
      "Purge": 6278,
      "Renderer": 6279,
      "Show": 6280,
      "XInput": 6281,
      "after": 6282,
      "अण्डरलाइन": 6283,
      "आवर्धन": 6284,
      "आखिरी": 6285,
      "उन्मुखीकरण": 6286,
      "एक्सिक्यू": 6287,
      "एनिमेटेड": 6288,
      "एलिप्साइड": 6289,
      "ऐटलस": 6290,
      "कल्पना": 6291,
      "खंडित": 6292,
      "घूर्णन": 6293,
      "चहिए": 6294,
      "चाइल्ड": 6295,
      "चतुर्भुज": 6296,
      "तलाश": 6297,
      "लडियाँ": 6298,
      "वहुल": 6299,
      "सक्रीय": 6300,
      "सजीव": 6301,
      "सजातीय": 6302,
      "स्प्रेडशीट": 6303,
      "लिपटे": 6304,
      "प्रक्षेपण": 6305,
      "प्रत्यावर्तनीय": 6306,
      "प्रणाली": 6307,
      "विज़ेट": 6308,
      "रिफरेंस": 6309,
      "रिसेप्शन": 6310,
      "रिजोल्यूशन": 6311,
      "मेट्रिसेस": 6312,
      "renderer": 6313,
      "गुजरते": 6314,
      "चौडाई": 6315,
      "CoglWinsys": 6316,
      "CoglBlendString": 6317,
      "उत्सर्जित": 6318,
      "Struct": 6319,
      "hintmedium": 6320,
      "hintslight": 6321,
      "ClutterPath": 6322,
      "ClutterBackend": 6323,
      "डॉयलपेड": 6324,
      "Resizable": 6325,
      "सोर्सफोर्ज": 6326,
      "mipmapping": 6327,
      "widget": 6328,
      "wireframes": 6329,
      "Challenge": 6330,
      "सिंक्रनाइज़ेशन": 6331,
      "एक्सिक्यूट": 6332,
      "05": 6333,
      "128": 6334,
      "Anjut": 6335,
      "CL": 6336,
      "CSS": 6337,
      "Cano": 6338,
      "ET": 6339,
      "For": 6340,
      "If": 6341,
      "Lt": 6342,
      "MET": 6343,
      "Pipe": 6344,
      "To": 6345,
      "TOS": 6346,
      "Uri": 6347,
      "dcon": 6348,
      "dtime": 6349,
      "ghi": 6350,
      "ges": 6351,
      "iriver": 6352,
      "jk": 6353,
      "ki": 6354,
      "mat": 6355,
      "mis": 6356,
      "nical": 6357,
      "ratch": 6358,
      "tit": 6359,
      "ting": 6360,
      "ँकि": 6361,
      "ंया": 6362,
      "ंजि": 6363,
      "अपूर्ण": 6364,
      "अत्या": 6365,
      "अप्रत्यक्ष": 6366,
      "उदा": 6367,
      "एगा": 6368,
      "एरिया": 6369,
      "कलि": 6370,
      "छह": 6371,
      "जल्": 6372,
      "नु": 6373,
      "बडे": 6374,
      "बड़े": 6375,
      "मरेशन": 6376,
      "मंजि": 6377,
      "यर्स": 6378,
      "रत": 6379,
      "वश्यक": 6380,
      "शरी": 6381,
      "शूट": 6382,
      "ुमरेशन": 6383,
      "ुरत": 6384,
      "ोँ": 6385,
      "स्ला": 6386,
      "काIcon": 6387,
      "केशन": 6388,
      "हैंग": 6389,
      "हैडर": 6390,
      "ाइक": 6391,
      "विघटित": 6392,
      "करेंmenu": 6393,
      "डिजि": 6394,
      "परwasteslot": 6395,
      "परtableauslot": 6396,
      "परreserveslot": 6397,
      "निशा": 6398,
      "निनक्स": 6399,
      "माॅ": 6400,
      "लान": 6401,
      "लेक्शन": 6402,
      "प्लान": 6403,
      "वीं": 6404,
      "टाई": 6405,
      "बात": 6406,
      "सीएस": 6407,
      "टिफि": 6408,
      "फाइलो": 6409,
      "लिखते": 6410,
      "प्रोफाई": 6411,
      "खोलो": 6412,
      "हों": 6413,
      "बनाओ": 6414,
      "बनाये": 6415,
      "रोहित": 6416,
      "दांया": 6417,
      "जेस": 6418,
      "दिखाता": 6419,
      "स्टन": 6420,
      "सिलेक्शन": 6421,
      "सहमत": 6422,
      "बिन्यास": 6423,
      "टीके": 6424,
      "अधिरोहित": 6425,
      "फ्त": 6426,
      "मुफ्त": 6427,
      "जिसका": 6428,
      "बेनाम": 6429,
      "बनाएँregionset": 6430,
      "सबकुछ": 6431,
      "बीगल": 6432,
      "जीनोम": 6433,
      "जीटीके": 6434,
      "मिला09": 6435,
      "यूजर": 6436,
      "लोगो": 6437,
      "खोजने": 6438,
      "कैरि": 6439,
      "आउटः": 6440,
      "लिखेंः": 6441,
      "टेंड": 6442,
      "वर्गों": 6443,
      "प्रतियां": 6444,
      "सामान्यकरण": 6445,
      "सामान्यीकरण": 6446,
      "गीतोँ": 6447,
      "DVDCSS": 6448,
      "col": 6449,
      "छाँ": 6450,
      "dead": 6451,
      "मुख्यतः": 6452,
      "प्रयोक्ताः": 6453,
      "चलते": 6454,
      "वितर्क": 6455,
      "बाक्सों": 6456,
      "िकता": 6457,
      "एमए": 6458,
      "संशोधित": 6459,
      "अन्डर": 6460,
      "ग्रहण": 6461,
      "Information": 6462,
      "प्लेयर्स": 6463,
      "जुड़": 6464,
      "दबाये": 6465,
      "नोटिफि": 6466,
      "निकाला": 6467,
      "exist": 6468,
      "बोस्टन": 6469,
      "टूल्स": 6470,
      "टूडू": 6471,
      "पारिकता": 6472,
      "सम्पूर्ण": 6473,
      "उपयुक्तता": 6474,
      "sages": 6475,
      "प्राथमिकताः": 6476,
      "जरुरी": 6477,
      "जरुरत": 6478,
      "सुधारें": 6479,
      "आइकान": 6480,
      "कूटलेखन": 6481,
      "स्ट्रीट": 6482,
      "प्रिन्ट": 6483,
      "तयशुदाः": 6484,
      "वैल": 6485,
      "एनुमरेशन": 6486,
      "खुली": 6487,
      "मैसेजेस": 6488,
      "कूटशब्दः": 6489,
      "HOD": 6490,
      "छिपाएँ": 6491,
      "त्यागना": 6492,
      "512": 6493,
      "viewport": 6494,
      "Scratch": 6495,
      "हालाँकि": 6496,
      "तरीकों": 6497,
      "कानफिगर": 6498,
      "वेबसाइटDevhelp": 6499,
      "56K": 6500,
      "सकेगे": 6501,
      "कौमा": 6502,
      "मुद्दे": 6503,
      "readcd": 6504,
      "कुँजीपटल": 6505,
      "व्यापारिकता": 6506,
      "अमेरिका": 6507,
      "permis": 6508,
      "प्रस्तुत": 6509,
      "पांचवीं": 6510,
      "गेटकीपरः": 6511,
      "ज़ेनेरिक": 6512,
      "व्यवसाय": 6513,
      "प्रीटेंड": 6514,
      "messages": 6515,
      "DisplayName": 6516,
      "MacOS": 6517,
      "फ्रेंकलि": 6518,
      "रजिस्ट्रारः": 6519,
      "महत्वपूर्ण": 6520,
      "शर्तों": 6521,
      "त्रुटियांviewport": 6522,
      "आयडेंटिटी": 6523,
      "इन्टरवैल": 6524,
      "SVCDs": 6525,
      "CLang": 6526,
      "Canonical": 6527,
      "Ltd": 6528,
      "METHOD": 6529,
      "dconf": 6530,
      "title": 6531,
      "अत्यावश्यक": 6532,
      "जल्दी": 6533,
      "मंजिल": 6534,
      "शरीर": 6535,
      "स्लाट": 6536,
      "डिजिटल": 6537,
      "सीएसएस": 6538,
      "प्रोफाईलिंग": 6539,
      "बिन्यासः": 6540,
      "अन्डरलाइन": 6541,
      "नोटिफिकेशन": 6542,
      "existing": 6543,
      "Scratchbox": 6544,
      "permission": 6545,
      "फ्रेंकलिन": 6546,
      "\"=": 6547,
      "\").": 6548,
      "':%": 6549,
      "))": 6550,
      ")--": 6551,
      ",--": 6552,
      "14": 6553,
      "20": 6554,
      "2x": 6555,
      "35": 6556,
      "6x": 6557,
      ":/": 6558,
      ">,": 6559,
      "Cel": 6560,
      "D5": 6561,
      "DB": 6562,
      "De": 6563,
      "Di": 6564,
      "Enable": 6565,
      "FP": 6566,
      "Growisofs": 6567,
      "GUI": 6568,
      "GDB": 6569,
      "Hel": 6570,
      "High": 6571,
      "Hide": 6572,
      "Jitter": 6573,
      "Late": 6574,
      "MD5": 6575,
      "On": 6576,
      "Out": 6577,
      "Ple": 6578,
      "PIP": 6579,
      "QCIF": 6580,
      "RTP": 6581,
      "SB": 6582,
      "Th": 6583,
      "Ti": 6584,
      "TST": 6585,
      "Tone": 6586,
      "Unable": 6587,
      "USB": 6588,
      "Write": 6589,
      "XVi": 6590,
      "`%": 6591,
      "ap": 6592,
      "ade": 6593,
      "act": 6594,
      "ace": 6595,
      "bil": 6596,
      "bou": 6597,
      "big": 6598,
      "bas": 6599,
      "cle": 6600,
      "ccess": 6601,
      "cmd": 6602,
      "dent": 6603,
      "ear": 6604,
      "efo": 6605,
      "fli": 6606,
      "fol": 6607,
      "glib": 6608,
      "hy": 6609,
      "hent": 6610,
      "ip": 6611,
      "jitter": 6612,
      "kno": 6613,
      "long": 6614,
      "mno": 6615,
      "mory": 6616,
      "other": 6617,
      "pc": 6618,
      "pq": 6619,
      "pri": 6620,
      "pho": 6621,
      "pack": 6622,
      "pid": 6623,
      "rs": 6624,
      "rpc": 6625,
      "sil": 6626,
      "save": 6627,
      "spec": 6628,
      "size": 6629,
      "sip": 6630,
      "tv": 6631,
      "tx": 6632,
      "tim": 6633,
      "tig": 6634,
      "ux": 6635,
      "uve": 6636,
      "wn": 6637,
      "ww": 6638,
      "wis": 6639,
      "webcam": 6640,
      "xml": 6641,
      "xyz": 6642,
      "yle": 6643,
      "अम": 6644,
      "अल": 6645,
      "असी": 6646,
      "अटे": 6647,
      "असामान्य": 6648,
      "अविश्लेष": 6649,
      "अपंजीकृत": 6650,
      "अप्रेषित": 6651,
      "आफ": 6652,
      "आप्": 6653,
      "आडियो": 6654,
      "आती": 6655,
      "आफि": 6656,
      "आथा": 6657,
      "आनं": 6658,
      "इड": 6659,
      "ईज": 6660,
      "उंग": 6661,
      "एंट": 6662,
      "एकान्": 6663,
      "एबीसी": 6664,
      "ऑउट": 6665,
      "कव": 6666,
      "कही": 6667,
      "कस्ट": 6668,
      "गता": 6669,
      "चत": 6670,
      "छ्य": 6671,
      "जल": 6672,
      "झने": 6673,
      "टlevel": 6674,
      "तमान": 6675,
      "दल": 6676,
      "धै": 6677,
      "नका": 6678,
      "नपु": 6679,
      "नशील": 6680,
      "नयों": 6681,
      "बाइट": 6682,
      "भो": 6683,
      "भफाइल": 6684,
      "भविष": 6685,
      "यथा": 6686,
      "रवर्": 6687,
      "लछ्य": 6688,
      "वहाँ": 6689,
      "वहां": 6690,
      "शक्ति": 6691,
      "साइल": 6692,
      "हम": 6693,
      "हतर": 6694,
      "ाचार": 6695,
      "िता": 6696,
      "िये": 6697,
      "ीज": 6698,
      "ुरा": 6699,
      "ुअल": 6700,
      "ुइड": 6701,
      "ेड": 6702,
      "ेक्स": 6703,
      "ेयर": 6704,
      "ोसि": 6705,
      "ौद्": 6706,
      "्रेज": 6707,
      "्रlevel": 6708,
      "स्पा": 6709,
      "स्पीड": 6710,
      "कास्ट": 6711,
      "र्याप्त": 6712,
      "कोतेजी": 6713,
      "नापन": 6714,
      "लियों": 6715,
      "प्रक्रम": 6716,
      "प्रौद्": 6717,
      "सेव": 6718,
      "ताकि": 6719,
      "डिटे": 6720,
      "डिफा": 6721,
      "संकु": 6722,
      "संप्रेषित": 6723,
      "जात": 6724,
      "्यवा": 6725,
      "्यवाद": 6726,
      "ड़की": 6727,
      "तिगुना": 6728,
      "निश": 6729,
      "निया": 6730,
      "निवेदन": 6731,
      "माईज": 6732,
      "लांच": 6733,
      "पाओ": 6734,
      "पाल": 6735,
      "पायी": 6736,
      "पाएगा": 6737,
      "स्कुरा": 6738,
      "योगिकी": 6739,
      "योगदान": 6740,
      "किक": 6741,
      "किल": 6742,
      "साउंड": 6743,
      "प्क": 6744,
      "क्षक": 6745,
      "देनी": 6746,
      "परिवह": 6747,
      "ंगी": 6748,
      "बाए": 6749,
      "बाएं": 6750,
      "सीसी": 6751,
      "सीकैम": 6752,
      "रीका": 6753,
      "रीटें": 6754,
      "समरू": 6755,
      "समझने": 6756,
      "वाना": 6757,
      "वानपु": 6758,
      "रास्ते": 6759,
      "लग्रि": 6760,
      "टिकता": 6761,
      "औऱ": 6762,
      "ंडाइक": 6763,
      "ंडबाए": 6764,
      "अनधि": 6765,
      "अनडू": 6766,
      "स्थाई": 6767,
      "उपसमूह": 6768,
      "योजनाः": 6769,
      "लिखकर": 6770,
      "लीक": 6771,
      "ग्रीक": 6772,
      "होः": 6773,
      "बनाते": 6774,
      "रोक": 6775,
      "रूका": 6776,
      "mest": 6777,
      "means": 6778,
      "memory": 6779,
      "मेटिक": 6780,
      "कॉमन": 6781,
      "कॉपियर": 6782,
      "चाहेगा": 6783,
      "चाहिये": 6784,
      "rest": 6785,
      "सिन्ट": 6786,
      "सियल": 6787,
      "information": 6788,
      "inear": 6789,
      "शनल": 6790,
      "एंटिटी": 6791,
      "द्वैध": 6792,
      "त्रुटिsil": 6793,
      "सहभा": 6794,
      "सहनशील": 6795,
      "सहेयर": 6796,
      "orts": 6797,
      "orage": 6798,
      "nobou": 6799,
      "thus": 6800,
      "फिकल": 6801,
      "अंतबिंदु": 6802,
      "पीयर": 6803,
      "उपयोगिता": 6804,
      "ग्राफिकल": 6805,
      "सहेजता": 6806,
      "ence": 6807,
      "पैकेट": 6808,
      "अपशिष्ट": 6809,
      "अपर्याप्त": 6810,
      "कर्ताः": 6811,
      "dis": 6812,
      "स्वीकार्य": 6813,
      "ons": 6814,
      "शाली": 6815,
      "सूचीकरण": 6816,
      "हेरीटें": 6817,
      "मुस्कुरा": 6818,
      "सारी": 6819,
      "रखेंः": 6820,
      "pose": 6821,
      "णीय": 6822,
      "बर्तमान": 6823,
      "वेभफाइल": 6824,
      "रंगपट्टिका": 6825,
      "श्वानपु": 6826,
      "atial": 6827,
      "फोल्ड": 6828,
      "फोर्स": 6829,
      "युक्तियों": 6830,
      "बेहतर": 6831,
      "सकाgrafted": 6832,
      "सकारात्मक": 6833,
      "पोरल": 6834,
      "फ़ॉरवर्": 6835,
      "alloc": 6836,
      "anup": 6837,
      "डाला": 6838,
      "खेली": 6839,
      "समयसमाप्ति": 6840,
      "ढूंढने": 6841,
      "छोटि": 6842,
      "येटlevel": 6843,
      "एसोसि": 6844,
      "अवस्थिति": 6845,
      "पेकेज": 6846,
      "ड्रयू": 6847,
      "ड्रुइड": 6848,
      "दोनो": 6849,
      "दीवाना": 6850,
      "दर्शन": 6851,
      "मिलाने": 6852,
      "ional": 6853,
      "icons": 6854,
      "आउटलाइन": 6855,
      "आउटगो": 6856,
      "जाँचSc": 6857,
      "मीनु": 6858,
      "mail": 6859,
      "role": 6860,
      "टेस्ट": 6861,
      "टेंपोरल": 6862,
      "libbo": 6863,
      "जाएः": 6864,
      "हटाए": 6865,
      "स्क्रीनकास्ट": 6866,
      "वर्णित": 6867,
      "ster": 6868,
      "style": 6869,
      "storage": 6870,
      "जानेवाले": 6871,
      "सुसंगत": 6872,
      "सुनिश्": 6873,
      "ध्वजों": 6874,
      "too": 6875,
      "सरपास": 6876,
      "सरवर": 6877,
      "ditional": 6878,
      "सर्किल": 6879,
      "lect": 6880,
      "मूक": 6881,
      "भेजते": 6882,
      "पढ़कर": 6883,
      "पढ़ना": 6884,
      "कारीः": 6885,
      "depipe": 6886,
      "समर्थिति": 6887,
      "सहायकlevel": 6888,
      "छुपाओ": 6889,
      "उपकरणपट्टी": 6890,
      "स्केन": 6891,
      "शब्दकोश": 6892,
      "lay": 6893,
      "propri": 6894,
      "compose": 6895,
      "धन्यवाद": 6896,
      "संकेतित": 6897,
      "खिड़की": 6898,
      "bugma": 6899,
      "buddy": 6900,
      "filter": 6901,
      "असमर्थः": 6902,
      "rectX": 6903,
      "pports": 6904,
      "उलटा": 6905,
      "Indent": 6906,
      "सामना": 6907,
      "जुड़ी": 6908,
      "बहुमुखी": 6909,
      "आयट": 6910,
      "बजाएं": 6911,
      "सोच": 6912,
      "सोलिटेयर": 6913,
      "सोचें": 6914,
      "मित्रlevel": 6915,
      "घटनाएँ": 6916,
      "forward": 6917,
      "apply": 6918,
      "appname": 6919,
      "appstyle": 6920,
      "साइन": 6921,
      "पत्राचार": 6922,
      "exce": 6923,
      "उपयोक्ताः": 6924,
      "जाँचेंpicture": 6925,
      "State": 6926,
      "पुस्तकों": 6927,
      "फ्रांस": 6928,
      "सम्पन्न": 6929,
      "बचाने": 6930,
      "स्वागत": 6931,
      "अग्रसारण": 6932,
      "स्टार्टी": 6933,
      "रिंगटोन": 6934,
      "कंपास": 6935,
      "order": 6936,
      "amp": 6937,
      "निरीक्षक": 6938,
      "क्षमताओं": 6939,
      "खराबी": 6940,
      "मोटाई": 6941,
      "modepipe": 6942,
      "ulk": 6943,
      "minid": 6944,
      "भूमिकाओं": 6945,
      "success": 6946,
      "supports": 6947,
      "कॉन्फरें": 6948,
      "चित्रों": 6949,
      "सत्यापित": 6950,
      "आनेवाली": 6951,
      "हस्तांतरण": 6952,
      "स्टार्टफास्ट": 6953,
      "manually": 6954,
      "फॉल्ट": 6955,
      "FreeCel": 6956,
      "पेजर": 6957,
      "एनटीएस": 6958,
      "खुद": 6959,
      "खुलने": 6960,
      "श्रेय": 6961,
      "इंहेरीटें": 6962,
      "बुलाने": 6963,
      "रैखिक": 6964,
      "सेवाएं": 6965,
      "fully": 6966,
      "गारंटी": 6967,
      "निरसक": 6968,
      "buffer": 6969,
      "बढ़ाए": 6970,
      "बढ़ायें": 6971,
      "Bug": 6972,
      "Buddy": 6973,
      "tuv": 6974,
      "कलाकारीः": 6975,
      "225": 6976,
      "line": 6977,
      "पुनरावत्": 6978,
      "stdoutpreferences": 6979,
      "stdoutpipe": 6980,
      "pixbut": 6981,
      "संग्रहण": 6982,
      "cannot": 6983,
      "temp": 6984,
      "पठारी": 6985,
      "चैनलः": 6986,
      "अभिमुख": 6987,
      "टूलबार": 6988,
      "टूलबाक्सों": 6989,
      "traditional": 6990,
      "आसानी": 6991,
      "ट्रैड": 6992,
      "unlink": 6993,
      "unregistered": 6994,
      "कचरा": 6995,
      "हस्तगत": 6996,
      "त्वरित": 6997,
      "foo": 6998,
      "लौटाने": 6999,
      "व्यवधान": 7000,
      "receive": 7001,
      "reenca": 7002,
      "tracker": 7003,
      "पिक्सल्स": 7004,
      "अंशों": 7005,
      "288": 7006,
      "bolic": 7007,
      "सकेगी": 7008,
      "onlytextentry": 7009,
      "bugreport": 7010,
      "स्टैंडबाए": 7011,
      "कॉन्फ़िगरेशन": 7012,
      "wxyz": 7013,
      "win32": 7014,
      "आटोमेटिक": 7015,
      "खरीदें": 7016,
      "भ्वायस": 7017,
      "कोरियन": 7018,
      "सॉफ्टफोन": 7019,
      "उच्चतर": 7020,
      "wiki": 7021,
      "पड़ने": 7022,
      "setting": 7023,
      "वर्णमालाः": 7024,
      "Linux": 7025,
      "सौंप": 7026,
      "सौदों": 7027,
      "विकासकर्ता": 7028,
      "therefo": 7029,
      "उजलापन": 7030,
      "घटाना": 7031,
      "सुनें": 7032,
      "अपठित": 7033,
      "WindowState": 7034,
      "Valgrind": 7035,
      "perbolic": 7036,
      "क्लोंडाइक": 7037,
      "ढ़ांचा": 7038,
      "मैनुअल": 7039,
      "ज्यादातर": 7040,
      "TLS": 7041,
      "सापेक्षिक": 7042,
      "combine": 7043,
      "combined": 7044,
      "combination": 7045,
      "अंग्रेज": 7046,
      "झांकी": 7047,
      "चिकनापन": 7048,
      "आरक्षितstockslot": 7049,
      "GdkWindowState": 7050,
      "भुगता": 7051,
      "lowest": 7052,
      "फ्रेंसिंग": 7053,
      "fullscreen": 7054,
      "Authent": 7055,
      "कहते": 7056,
      "स्टाइलस": 7057,
      "1720": 7058,
      "176x": 7059,
      "VALVAL": 7060,
      "ccc": 7061,
      "crash": 7062,
      "crashed": 7063,
      "space": 7064,
      "spatial": 7065,
      "नंबर": 7066,
      "ड्राप": 7067,
      "ड्राफ्ट": 7068,
      "licensed": 7069,
      "dvdcss": 7070,
      "php": 7071,
      "कांफ्रेंसिंग": 7072,
      "क्रासहेयर": 7073,
      "Lost": 7074,
      "UserAuthent": 7075,
      "हमारे": 7076,
      "संक्षिप्क": 7077,
      "निचले": 7078,
      "jkl": 7079,
      "निशानः": 7080,
      "माॅड्यूल": 7081,
      "collect": 7082,
      "छाँटे": 7083,
      "\"=\".": 7084,
      "144": 7085,
      "2x288": 7086,
      "352x288": 7087,
      "DirectX": 7088,
      "FPS": 7089,
      "Helgrind": 7090,
      "Highest": 7091,
      "Onscreen": 7092,
      "Please": 7093,
      "The": 7094,
      "Timest": 7095,
      "TSTO": 7096,
      "XVideo": 7097,
      "appropri": 7098,
      "adelic": 7099,
      "bilinear": 7100,
      "basic": 7101,
      "cleanup": 7102,
      "flip": 7103,
      "follow": 7104,
      "hyperbolic": 7105,
      "known": 7106,
      "otherwis": 7107,
      "pqrs": 7108,
      "photo": 7109,
      "package": 7110,
      "special": 7111,
      "txt": 7112,
      "timing": 7113,
      "tigo": 7114,
      "अमरीका": 7115,
      "असीमित": 7116,
      "अविश्लेषणीय": 7117,
      "आफको": 7118,
      "आप्ने": 7119,
      "आफिस": 7120,
      "आनंद": 7121,
      "उंगलियों": 7122,
      "एंटलर": 7123,
      "एकान्तरित": 7124,
      "ऑउटबाउंड": 7125,
      "कवरिंग": 7126,
      "कहीं": 7127,
      "कस्टमाईज": 7128,
      "जलते": 7129,
      "धैर्य": 7130,
      "नकारात्मक": 7131,
      "भोजन": 7132,
      "भविष्यवा": 7133,
      "शक्तिशाली": 7134,
      "साइलेंस": 7135,
      "स्पासियल": 7136,
      "प्रक्रमित": 7137,
      "प्रौद्योगिकी": 7138,
      "डिटेक्शन": 7139,
      "डिफाल्ट": 7140,
      "संकुचित": 7141,
      "योगदानकर्ताः": 7142,
      "साउंडकार्ड": 7143,
      "परिवहन": 7144,
      "समरूपता": 7145,
      "लग्रिंड": 7146,
      "अनधिकृत": 7147,
      "सिन्टेक्स": 7148,
      "त्रुटिsilence": 7149,
      "सहभागी": 7150,
      "सहनशीलता": 7151,
      "noboui": 7152,
      "मुस्कुराएँ": 7153,
      "श्वानपुच्छ": 7154,
      "फ़ॉरवर्डिंग": 7155,
      "allocate": 7156,
      "एसोसियेटlevel": 7157,
      "ड्रयूड": 7158,
      "जाँचScreenca": 7159,
      "मीनुओं": 7160,
      "libbonoboui": 7161,
      "सुनिश्चत": 7162,
      "bugmaster": 7163,
      "forwarding": 7164,
      "applying": 7165,
      "exception": 7166,
      "स्टार्टीका": 7167,
      "minidump": 7168,
      "successfully": 7169,
      "कॉन्फरेंसिंग": 7170,
      "FreeCell": 7171,
      "एनटीएससी": 7172,
      "इंहेरीटेंस": 7173,
      "पुनरावत्ति": 7174,
      "tempfile": 7175,
      "अभिमुखन": 7176,
      "therefore": 7177,
      "अंग्रेजी": 7178,
      "भुगतान": 7179,
      "176x144": 7180,
      "UserAuthentication": 7181,
      "collected": 7182,
      "Timestamp": 7183,
      "appropriate": 7184,
      "otherwise": 7185,
      "भविष्यवाणी": 7186,
      "जाँचScreencast": 7187,
      "+-": 7188,
      ".\"": 7189,
      ".-": 7190,
      "./": 7191,
      "2या": 7192,
      "Al": 7193,
      "Add": 7194,
      "Ca": 7195,
      "Choo": 7196,
      "DO": 7197,
      "Do": 7198,
      "Dec": 7199,
      "EF": 7200,
      "End": 7201,
      "Gnome": 7202,
      "Grep": 7203,
      "Ite": 7204,
      "Send": 7205,
      "UP": 7206,
      "WN": 7207,
      "]...": 7208,
      "au": 7209,
      "bar": 7210,
      "cev": 7211,
      "fault": 7212,
      "giv": 7213,
      "grep": 7214,
      "iew": 7215,
      "match": 7216,
      "oic": 7217,
      "tt": 7218,
      "ue": 7219,
      "voic": 7220,
      "who": 7221,
      "अछ": 7222,
      "अर्थ": 7223,
      "अच्": 7224,
      "अच्छ": 7225,
      "अछर": 7226,
      "आन": 7227,
      "आशा": 7228,
      "इटा": 7229,
      "इधर": 7230,
      "उन्ट": 7231,
      "उठा": 7232,
      "एडि": 7233,
      "एडी": 7234,
      "कद": 7235,
      "कया": 7236,
      "कमेल": 7237,
      "खतर": 7238,
      "चबाक्स": 7239,
      "चमेंट": 7240,
      "जिन": 7241,
      "जर्म": 7242,
      "ट्यू": 7243,
      "डब्ल्यू": 7244,
      "तें": 7245,
      "तभी": 7246,
      "थ्र": 7247,
      "दश्य": 7248,
      "पते": 7249,
      "मर्": 7250,
      "मना": 7251,
      "लों": 7252,
      "वही": 7253,
      "सप्ले": 7254,
      "सब्स": 7255,
      "सकोर": 7256,
      "ह्य": 7257,
      "ुसार": 7258,
      "ेण्ड": 7259,
      "ैस": 7260,
      "ैशन": 7261,
      "ैचबाक्स": 7262,
      "्डियो": 7263,
      "्रन": 7264,
      "करनी": 7265,
      "काट": 7266,
      "काउन्ट": 7267,
      "याइसे": 7268,
      "यांत्र": 7269,
      "क्कारक": 7270,
      "र्क्स": 7271,
      "नाक": 7272,
      "लिब्र": 7273,
      "लिक्यू": 7274,
      "प्रधान": 7275,
      "डिशनल": 7276,
      "डिसप्ले": 7277,
      "संबद्ध": 7278,
      "जाकर": 7279,
      "कीश": 7280,
      "मांक": 7281,
      "मालिक्यू": 7282,
      "ारत": 7283,
      "लेवल": 7284,
      "क्षारत": 7285,
      "देना": 7286,
      "परिमाण": 7287,
      "रियन": 7288,
      "बाह्य": 7289,
      "मिट": 7290,
      "एकबार": 7291,
      "एकवर्ण": 7292,
      "न्ड": 7293,
      "वाक्स": 7294,
      "वालों": 7295,
      "क्रैस": 7296,
      "क्रमांक": 7297,
      "अनजानी": 7298,
      "उपतरू": 7299,
      "फाइलसिस्टम": 7300,
      "योजनाph": 7301,
      "हुओं": 7302,
      "प्रोकमेल": 7303,
      "हैंजैसा": 7304,
      "पूरे": 7305,
      ".....": 7306,
      "होंगी": 7307,
      "मानुसार": 7308,
      "दिखाए": 7309,
      "स्ट्डियो": 7310,
      "रखे": 7311,
      "रखेगा": 7312,
      "कर्नल": 7313,
      "स्थितियाँ": 7314,
      "चिल्ड": 7315,
      "योग्यः": 7316,
      "फिग": 7317,
      "फिटने": 7318,
      "केंटे": 7319,
      "अपेण्ड": 7320,
      "मौखिक": 7321,
      "dio": 7322,
      "शार्टक": 7323,
      "सारः": 7324,
      "डेम": 7325,
      "श्व": 7326,
      "कॉलआउट": 7327,
      "्यात": 7328,
      "स्क्रैचबाक्स": 7329,
      "स्वर": 7330,
      "डालो": 7331,
      "अग्यात": 7332,
      "पतापुस्तिका": 7333,
      "प्रारंभEnd": 7334,
      "सूचनाlt": 7335,
      "चाहिएः": 7336,
      "मिटाएँः": 7337,
      "आईट्रै": 7338,
      "दुनिया": 7339,
      "कैलिब्र": 7340,
      "पहुँचयोग्य": 7341,
      "नियमानुसार": 7342,
      "टर्कीश": 7343,
      "प्रतीक्षारत": 7344,
      "लाइनों": 7345,
      "टोरियल": 7346,
      "commit": 7347,
      "सिस्टमः": 7348,
      "cdrom": 7349,
      "कालआउट": 7350,
      "जावाब": 7351,
      "इनपुटtimedata": 7352,
      "शेषशेष": 7353,
      "शैल": 7354,
      "अग्रभूमि": 7355,
      "बोलें": 7356,
      "Start": 7357,
      "\",\"": 7358,
      "ify": 7359,
      "छेत्र": 7360,
      "मॉडेम": 7361,
      "रूपांतर": 7362,
      "मार्जिन": 7363,
      "पश्चातवर्ती": 7364,
      "डॉयल": 7365,
      "कनेक्टेड": 7366,
      "खिसकाना": 7367,
      "चीजें": 7368,
      "स्पेसर": 7369,
      "ourcev": 7370,
      "बाइंड": 7371,
      "पूछकर": 7372,
      "अबतक": 7373,
      "Search": 7374,
      "जायनीज": 7375,
      "परिणामों": 7376,
      "GtkSourcev": 7377,
      "फोनः": 7378,
      "Increase": 7379,
      "Cdrtools": 7380,
      "cument": 7381,
      "उच्चतम": 7382,
      "व्यापक": 7383,
      "रोमानियन": 7384,
      "ActionFor": 7385,
      "बरतें": 7386,
      "पृथक्कारक": 7387,
      "बुकमार्क्स": 7388,
      "क्लोज": 7389,
      "ट्रेडिशनल": 7390,
      "स्टेटस": 7391,
      "Specify": 7392,
      "जरिये": 7393,
      "प्रीव्यू": 7394,
      "हाइलाइटिंग": 7395,
      "बायीं": 7396,
      "Libburnia": 7397,
      "Author": 7398,
      "कहता": 7399,
      "पाथनाम": 7400,
      "रेफकाउन्ट": 7401,
      "शर्त": 7402,
      "मिटाएंगे": 7403,
      "कोशिकाlt": 7404,
      "कांफरें": 7405,
      "क्राई": 7406,
      "अंतःक्रियाChallenge": 7407,
      "Todo": 7408,
      "हैंगअप": 7409,
      "कैरिबू": 7410,
      "Default": 7411,
      "अटेचमेंट": 7412,
      "यथास्थान": 7413,
      "आयटम्स": 7414,
      "पुनरावत्तियों": 7415,
      "All": 7416,
      "Chooser": 7417,
      "DOWN": 7418,
      "Document": 7419,
      "Decrease": 7420,
      "Items": 7421,
      "audio": 7422,
      "given": 7423,
      "matches": 7424,
      "voice": 7425,
      "whose": 7426,
      "अछम": 7427,
      "अच्छे": 7428,
      "अच्छी": 7429,
      "एडीटर": 7430,
      "कदम": 7431,
      "खतरनाक": 7432,
      "जर्मन": 7433,
      "ट्यूटोरियल": 7434,
      "मर्केंटे": 7435,
      "सब्सक्राई": 7436,
      "यांत्रिकी": 7437,
      "डिसप्लेनाम": 7438,
      "मालिक्यूल": 7439,
      "योजनाphone": 7440,
      "होंगीः": 7441,
      "चिल्ड्रन": 7442,
      "फिटनेस": 7443,
      "शार्टकट": 7444,
      "आईट्रैकर": 7445,
      "कैलिब्रैशन": 7446,
      "commits": 7447,
      "डॉयलपैड": 7448,
      "GtkSourceview": 7449,
      "ActionFormat": 7450,
      "कांफरेंशिंग": 7451,
      "मर्केंटेबिलिटी": 7452,
      "()": 7453,
      "):%": 7454,
      ".,\"": 7455,
      "0x": 7456,
      "18": 7457,
      "324": 7458,
      "6d": 7459,
      "@%": 7460,
      "Ac": 7461,
      "Ad": 7462,
      "Alt": 7463,
      "B8": 7464,
      "BAR": 7465,
      "Con": 7466,
      "Car": 7467,
      "Call": 7468,
      "Db": 7469,
      "Dial": 7470,
      "Dvd": 7471,
      "Dump": 7472,
      "El": 7473,
      "FTP": 7474,
      "Gr": 7475,
      "HB": 7476,
      "Hulk": 7477,
      "IR": 7478,
      "I6d": 7479,
      "MH": 7480,
      "Me": 7481,
      "Mess": 7482,
      "Mail": 7483,
      "MTP": 7484,
      "Num": 7485,
      "Plugin": 7486,
      "Play": 7487,
      "PHB": 7488,
      "Qo": 7489,
      "Sam": 7490,
      "Sha": 7491,
      "Size": 7492,
      "SMTP": 7493,
      "Tab": 7494,
      "Ver": 7495,
      "Web": 7496,
      "bl": 7497,
      "bes": 7498,
      "bps": 7499,
      "cal": 7500,
      "ey": 7501,
      "gn": 7502,
      "gui": 7503,
      "gadelic": 7504,
      "hulk": 7505,
      "iDump": 7506,
      "jim": 7507,
      "mcheck": 7508,
      "nerer": 7509,
      "oc": 7510,
      "ow": 7511,
      "pad": 7512,
      "sk": 7513,
      "sat": 7514,
      "ses": 7515,
      "smit": 7516,
      "tent": 7517,
      "tical": 7518,
      "tact": 7519,
      "ंव": 7520,
      "आज": 7521,
      "आना": 7522,
      "आक्ट": 7523,
      "इने": 7524,
      "ईन": 7525,
      "एव": 7526,
      "एटा": 7527,
      "ओप्": 7528,
      "ओआई": 7529,
      "कड़": 7530,
      "कपया": 7531,
      "गप": 7532,
      "चक्": 7533,
      "चक्र": 7534,
      "छ्": 7535,
      "छद्": 7536,
      "जः": 7537,
      "जटि": 7538,
      "टच": 7539,
      "ठक": 7540,
      "ठी": 7541,
      "डाइ": 7542,
      "डों": 7543,
      "डर्ड": 7544,
      "तदन": 7545,
      "दारी": 7546,
      "धक": 7547,
      "नू": 7548,
      "पतों": 7549,
      "बेज": 7550,
      "भे": 7551,
      "भ्र": 7552,
      "मृ": 7553,
      "मनाम": 7554,
      "मशी": 7555,
      "यमान": 7556,
      "र्र": 7557,
      "रेज": 7558,
      "रसि": 7559,
      "रवर्ड": 7560,
      "रॉट": 7561,
      "लता": 7562,
      "लंच": 7563,
      "वधि": 7564,
      "शप": 7565,
      "षश्": 7566,
      "सकें": 7567,
      "ुरूप": 7568,
      "ेल": 7569,
      "ैट": 7570,
      "ैडों": 7571,
      "स्मृ": 7572,
      "काली": 7573,
      "क्वे": 7574,
      "र्ख": 7575,
      "र्श्व": 7576,
      "केरियन": 7577,
      "केओआई": 7578,
      "कोड़ें": 7579,
      "हैल्प": 7580,
      "नाश्": 7581,
      "विन्": 7582,
      "करेंDocument": 7583,
      "डिरे": 7584,
      "निकाल": 7585,
      "मास्क": 7586,
      "मागी": 7587,
      "लाॅ": 7588,
      "लान्": 7589,
      "लागा": 7590,
      "पाता": 7591,
      "पासा": 7592,
      "पार्टी": 7593,
      "पार्श्व": 7594,
      "सार्ट": 7595,
      "डीटी": 7596,
      "डीडेट": 7597,
      "देखा": 7598,
      "डिस्क्रि": 7599,
      "दिमागी": 7600,
      "रिफ्रे": 7601,
      "रिसाव": 7602,
      "बान्": 7603,
      "बायां": 7604,
      "बाल्स": 7605,
      "मिक्स": 7606,
      "मिस्ड": 7607,
      "न्तम": 7608,
      "वार्डिंग": 7609,
      "वालग्रिंड": 7610,
      "रात्र": 7611,
      "वर्किंग": 7612,
      "ंट्स": 7613,
      "जोड़ो": 7614,
      "लिखता": 7615,
      "खोजी": 7616,
      "सूछ्": 7617,
      "सूर्ख": 7618,
      "ered": 7619,
      "रोल": 7620,
      "दायें": 7621,
      "ution": 7622,
      "जेबिल्ड": 7623,
      "#-#-#-#-##-#-#-#-#": 7624,
      "सूचित": 7625,
      "कियाः": 7626,
      "मेलिंग": 7627,
      "दिखाओ": 7628,
      "चुनेंdisc": 7629,
      "युकेरियन": 7630,
      "रेन्ट": 7631,
      "स्टपो": 7632,
      "स्टेप": 7633,
      "सिकोड़ें": 7634,
      "info": 7635,
      "innerer": 7636,
      "जाएँslot": 7637,
      "जाएँtableauslot": 7638,
      "ormat": 7639,
      "स्थितियों": 7640,
      "noir": 7641,
      "चिपा": 7642,
      "चिट्": 7643,
      "्यूड": 7644,
      "फिनिश": 7645,
      "लाइव": 7646,
      "enses": 7647,
      "टीटी": 7648,
      "dice": 7649,
      "पिता": 7650,
      "ontal": 7651,
      "onName": 7652,
      "list": 7653,
      "live": 7654,
      "lips": 7655,
      "hist": 7656,
      "चेनः": 7657,
      "हटाएँdisc": 7658,
      "वेलग्रिंड": 7659,
      "फ्लैट": 7660,
      "फ्लैग्ड": 7661,
      "कॉलबैक": 7662,
      "तस्वीरwasteslot": 7663,
      "atk": 7664,
      "फोन्ड": 7665,
      "फोरवर्ड": 7666,
      "युक्तिः": 7667,
      "पोस्टपो": 7668,
      "allow": 7669,
      "एसलिये": 7670,
      "अवकाश": 7671,
      "सूचनाओं": 7672,
      "पेन": 7673,
      "पेडीडेट": 7674,
      "पेरेन्ट": 7675,
      "बंधन": 7676,
      "सबार": 7677,
      "आईएम": 7678,
      "आईकन": 7679,
      "ड्र्यूड": 7680,
      "दीजिए": 7681,
      "oformat": 7682,
      "चलायमान": 7683,
      "दस्ताबेज": 7684,
      "mauve": 7685,
      "mask": 7686,
      "पूर्वज": 7687,
      "चुके": 7688,
      "टेब्स": 7689,
      "libdvdcss": 7690,
      "हटायी": 7691,
      "sele": 7692,
      "separ": 7693,
      "व्यंज": 7694,
      "वर्णन्तम": 7695,
      "कोडः": 7696,
      "stran": 7697,
      "गीतby": 7698,
      "core": 7699,
      "coun": 7700,
      "tkey": 7701,
      "प्रविषश्": 7702,
      "edge": 7703,
      "enerinnerer": 7704,
      "Codec": 7705,
      "बदलता": 7706,
      "बदलते": 7707,
      "देंगे": 7708,
      "लिखाः": 7709,
      "पाइंट्स": 7710,
      "चलने": 7711,
      "फ्रेस": 7712,
      "एक्सपेडीडेट": 7713,
      "olution": 7714,
      "user": 7715,
      "usenerinnerer": 7716,
      "ग्गी": 7717,
      "कालः": 7718,
      "licenses": 7719,
      "संकेतों": 7720,
      "ंचाव": 7721,
      "खाँचाreserveslot": 7722,
      "खाँचाstockslot": 7723,
      "खिंचाव": 7724,
      "---": 7725,
      "-----": 7726,
      "गुलाबी": 7727,
      "एकिगाtr": 7728,
      "lock": 7729,
      "खोलना": 7730,
      "shag": 7731,
      "जुड़े": 7732,
      "जुड़ें": 7733,
      "मैच": 7734,
      "चेकः": 7735,
      "hotkey": 7736,
      "नोस्पेस": 7737,
      "जांचो": 7738,
      "मतिभ्र": 7739,
      "पुनर्लेखित": 7740,
      "अनुमतियां": 7741,
      "उनसे": 7742,
      "सम्बन्ध": 7743,
      "गोआ": 7744,
      "मौज़ूद": 7745,
      "ज़ूमgui": 7746,
      "वतनी": 7747,
      "change": 7748,
      "vertigo": 7749,
      "vertical": 7750,
      "बढ़ें": 7751,
      "extend": 7752,
      "एलडीटी": 7753,
      "मोनोस्पेस": 7754,
      "सुधारना": 7755,
      "चिपचिपा": 7756,
      "शॉट": 7757,
      "भूमिकाः": 7758,
      "फॉर्र": 7759,
      "Resolution": 7760,
      "content": 7761,
      "entation": 7762,
      "लिपियां": 7763,
      "नेटवर्किंग": 7764,
      "GameText": 7765,
      "स्पेसिंग": 7766,
      "present": 7767,
      "बैठक": 7768,
      "toolbar": 7769,
      "+/-": 7770,
      "कंटेंट": 7771,
      "ive": 7772,
      "पठित": 7773,
      "विभेदनः": 7774,
      "LDIF": 7775,
      "ibou": 7776,
      "कारणों": 7777,
      "Noir": 7778,
      "indentation": 7779,
      "Libdvdcss": 7780,
      "warp": 7781,
      "chegrind": 7782,
      "drcheck": 7783,
      "व्यवस्था": 7784,
      "MyAc": 7785,
      "below": 7786,
      "kbps": 7787,
      "फुलस्केल": 7788,
      "कालावधि": 7789,
      "स्वतःपूर्णPurge": 7790,
      "56kbps": 7791,
      "mkdir": 7792,
      "संसाधक": 7793,
      "horiz": 7794,
      "तालाबन्द": 7795,
      "जापानीज": 7796,
      "मेमोरीजांच": 7797,
      "कन्फिग": 7798,
      "विडगेट": 7799,
      "खरीदारी": 7800,
      "Mauve": 7801,
      "Pausenerinnerer": 7802,
      "फोर्मेट": 7803,
      "MiniDump": 7804,
      "रेंडर्ड": 7805,
      "प्रस्तुति": 7806,
      "स्टेटसबार": 7807,
      "DAV": 7808,
      "DSL128": 7809,
      "DSL512": 7810,
      "उल्टा": 7811,
      "निकलें": 7812,
      "Remote": 7813,
      "प्रीफिक्स": 7814,
      "मात्राएँ": 7815,
      "MMM": 7816,
      "MMMM": 7817,
      "plePlugin": 7818,
      "रेकोर्डर": 7819,
      "ब्लाँक": 7820,
      "CommonName": 7821,
      "चेतावनियां": 7822,
      "assoc": 7823,
      "ॉल्यूशन": 7824,
      "Autoformat": 7825,
      "फारमेट": 7826,
      "ब्रिजः": 7827,
      "मॉनीटर": 7828,
      "playedCommonName": 7829,
      "Blanc": 7830,
      "uration": 7831,
      "वार्निंग": 7832,
      "परेशान": 7833,
      "पाप3": 7834,
      "बीसीसी": 7835,
      "आयडेंटीटी": 7836,
      "इन्टरनेट": 7837,
      "Local": 7838,
      "yyyy": 7839,
      "एफसीसी": 7840,
      "हमारा": 7841,
      "संक्षिप्त": 7842,
      "निचली": 7843,
      "ansmit": 7844,
      "local": 7845,
      "Forward": 7846,
      "कैरिबो": 7847,
      "प्रयोक्ताःUserAuthentication": 7848,
      "56Kbps": 7849,
      "www": 7850,
      "अपंजीकृतregistered": 7851,
      "disable": 7852,
      "displayedCommonName": 7853,
      "आउटगोइंड": 7854,
      "आउटगोइंग": 7855,
      "layered": 7856,
      "Indentation": 7857,
      "settings": 7858,
      "ड्राफ्टबाक्स": 7859,
      "Cachegrind": 7860,
      "इटालिक": 7861,
      "उठाएँ": 7862,
      "एडिटर": 7863,
      "थ्रैडों": 7864,
      "मनाही": 7865,
      "सकोरः": 7866,
      "छेत्रों": 7867,
      "सब्सक्राईव": 7868,
      "ActionFormatIndentation": 7869,
      "0xB8": 7870,
      "184": 7871,
      "3246": 7872,
      "Addrcheck": 7873,
      "Contact": 7874,
      "Caribou": 7875,
      "Dbus": 7876,
      "Dialpad": 7877,
      "Ellips": 7878,
      "Memcheck": 7879,
      "Mailbox": 7880,
      "Playlist": 7881,
      "QoS": 7882,
      "SamplePlugin": 7883,
      "Shagadelic": 7884,
      "Tabs": 7885,
      "Vertigo": 7886,
      "WebDAV": 7887,
      "blanc": 7888,
      "beside": 7889,
      "gnu": 7890,
      "jimUserAuthentication": 7891,
      "saturation": 7892,
      "आक्टेल": 7893,
      "इनेबल": 7894,
      "एवं": 7895,
      "एटामिक्स": 7896,
      "ओप्शन्स": 7897,
      "कड़ियों": 7898,
      "गपशप": 7899,
      "चक्कर": 7900,
      "छद्मनाम": 7901,
      "जटिलता": 7902,
      "डाइस": 7903,
      "तदनुरूप": 7904,
      "भेजो": 7905,
      "मशीन": 7906,
      "रेजॉल्यूशन": 7907,
      "रसियन": 7908,
      "स्मृति": 7909,
      "क्वेरी": 7910,
      "नाश्ता": 7911,
      "विन्डो": 7912,
      "डिरेक्ट्री": 7913,
      "लान्चर": 7914,
      "लागाउट": 7915,
      "डिस्क्रिप्टिव": 7916,
      "रिफ्रेश": 7917,
      "बान्द": 7918,
      "रात्रि": 7919,
      "सूछ्म": 7920,
      "जेबिल्डर": 7921,
      "चिट्ठी": 7922,
      "history": 7923,
      "पोस्टपोन": 7924,
      "एसलियेरॉट": 7925,
      "selection": 7926,
      "separate": 7927,
      "व्यंजक": 7928,
      "stransmit": 7929,
      "count": 7930,
      "प्रविषश्ट": 7931,
      "Codecs": 7932,
      "एकिगाtransmit": 7933,
      "shagadelic": 7934,
      "मतिभ्रम": 7935,
      "ज़ूमguides": 7936,
      "changeLog": 7937,
      "extended": 7938,
      "एलडीटीपी": 7939,
      "फॉर्रवार्डिंग": 7940,
      "GameTextFile": 7941,
      "presentation": 7942,
      "MyAccount": 7943,
      "कालावधिः": 7944,
      "horizontal": 7945,
      "Contacts": 7946,
      "Ellipsize": 7947
    },
    "merges": [
      [
        "े",
        "ं"
      ],
      [
        "्",
        "र"
      ],
      [
        "स",
        "्"
      ],
      [
        "क",
        "र"
      ],
      [
        "क",
        "ा"
      ],
      [
        "य",
        "ा"
      ],
      [
        "क",
        "्"
      ],
      [
        "र",
        "्"
      ],
      [
        "क",
        "े"
      ],
      [
        "क",
        "ो"
      ],
      [
        "ह",
        "ै"
      ],
      [
        "ा",
        "इ"
      ],
      [
        "न",
        "ा"
      ],
      [
        "ल",
        "ि"
      ],
      [
        "प",
        "्र"
      ],
      [
        "स",
        "े"
      ],
      [
        "य",
        "ो"
      ],
      [
        "त",
        "ा"
      ],
      [
        "व",
        "ि"
      ],
      [
        "कर",
        "ें"
      ],
      [
        "ाइ",
        "ल"
      ],
      [
        "ड",
        "ि"
      ],
      [
        "प",
        "र"
      ],
      [
        "ह",
        "ी"
      ],
      [
        "स",
        "ं"
      ],
      [
        "ि",
        "त"
      ],
      [
        "ज",
        "ा"
      ],
      [
        "फ",
        "़"
      ],
      [
        "न",
        "ही"
      ],
      [
        "नही",
        "ं"
      ],
      [
        "म",
        "ें"
      ],
      [
        "न",
        "े"
      ],
      [
        "#",
        "-"
      ],
      [
        "्",
        "य"
      ],
      [
        "क",
        "ी"
      ],
      [
        "ए",
        "ँ"
      ],
      [
        "फ़",
        "ाइल"
      ],
      [
        "लि",
        "ए"
      ],
      [
        "ड",
        "़"
      ],
      [
        "त",
        "ि"
      ],
      [
        "न",
        "ि"
      ],
      [
        "म",
        "ा"
      ],
      [
        "ल",
        "ा"
      ],
      [
        "#-",
        "#-"
      ],
      [
        "ा",
        "र"
      ],
      [
        "प",
        "ा"
      ],
      [
        "स्",
        "क"
      ],
      [
        "ह",
        "ा"
      ],
      [
        "स्",
        "थ"
      ],
      [
        "यो",
        "ग"
      ],
      [
        "ल",
        "े"
      ],
      [
        "ख",
        "ा"
      ],
      [
        "क",
        "ि"
      ],
      [
        "स",
        "ा"
      ],
      [
        "प",
        "्"
      ],
      [
        "व",
        "ी"
      ],
      [
        "ड",
        "ी"
      ],
      [
        "क्",
        "ष"
      ],
      [
        "च",
        "ा"
      ],
      [
        "द",
        "े"
      ],
      [
        "ल",
        "्"
      ],
      [
        "ज",
        "ो"
      ],
      [
        "डि",
        "स्क"
      ],
      [
        "द",
        "ि"
      ],
      [
        "ट",
        "ा"
      ],
      [
        "पर",
        "ि"
      ],
      [
        "ं",
        "ग"
      ],
      [
        "र",
        "ि"
      ],
      [
        "ब",
        "ा"
      ],
      [
        "स",
        "ी"
      ],
      [
        "र",
        "ी"
      ],
      [
        "म",
        "ि"
      ],
      [
        "ल",
        "ें"
      ],
      [
        "स",
        "म"
      ],
      [
        "ए",
        "क"
      ],
      [
        "र",
        "हा"
      ],
      [
        "न",
        "्"
      ],
      [
        "ना",
        "म"
      ],
      [
        "व",
        "ा"
      ],
      [
        "र",
        "ा"
      ],
      [
        "ल",
        "ग"
      ],
      [
        "दे",
        "श"
      ],
      [
        "ु",
        "न"
      ],
      [
        "त",
        "्र"
      ],
      [
        "क",
        "्र"
      ],
      [
        "व",
        "र्"
      ],
      [
        "ट",
        "ि"
      ],
      [
        "स्",
        "त"
      ],
      [
        "डि",
        "यो"
      ],
      [
        "यो",
        "ज"
      ],
      [
        "औ",
        "र"
      ],
      [
        "ं",
        "ड"
      ],
      [
        "अ",
        "न"
      ],
      [
        "स्थ",
        "ा"
      ],
      [
        "े",
        "ज"
      ],
      [
        "उ",
        "प"
      ],
      [
        "फ",
        "ाइल"
      ],
      [
        "ं",
        "ट"
      ],
      [
        "आ",
        "प"
      ],
      [
        "जो",
        "ड़"
      ],
      [
        "योज",
        "ना"
      ],
      [
        "नि",
        "र्"
      ],
      [
        "परि",
        "योजना"
      ],
      [
        "ह",
        "ु"
      ],
      [
        "य",
        "न"
      ],
      [
        "लि",
        "ख"
      ],
      [
        "प्",
        "लग"
      ],
      [
        "प्र",
        "ो"
      ],
      [
        "का",
        "र"
      ],
      [
        "ष",
        "्"
      ],
      [
        "छ",
        "वि"
      ],
      [
        "ल",
        "ी"
      ],
      [
        "ं",
        "च"
      ],
      [
        "ख",
        "ो"
      ],
      [
        "अन",
        "ु"
      ],
      [
        "ध",
        "ि"
      ],
      [
        "है",
        "ं"
      ],
      [
        "अ",
        "ं"
      ],
      [
        "य",
        "ह"
      ],
      [
        "प्र",
        "योग"
      ],
      [
        "प",
        "ू"
      ],
      [
        "भ",
        "ी"
      ],
      [
        "क्",
        "ति"
      ],
      [
        "च",
        "यन"
      ],
      [
        "क",
        "ु"
      ],
      [
        ".",
        "."
      ],
      [
        "ट",
        "्र"
      ],
      [
        "क",
        "ृ"
      ],
      [
        "ग",
        "्र"
      ],
      [
        "ह",
        "ो"
      ],
      [
        "ब",
        "ना"
      ],
      [
        "न",
        "ी"
      ],
      [
        "च",
        "ुन"
      ],
      [
        "क्र",
        "ि"
      ],
      [
        "स",
        "ू"
      ],
      [
        "ो",
        "ड"
      ],
      [
        "e",
        "r"
      ],
      [
        "त",
        "्"
      ],
      [
        "ब",
        "द"
      ],
      [
        "क्",
        "या"
      ],
      [
        "र",
        "ो"
      ],
      [
        "इ",
        "न"
      ],
      [
        "र",
        "ू"
      ],
      [
        "मा",
        "न"
      ],
      [
        "द",
        "ा"
      ],
      [
        "क्",
        "त"
      ],
      [
        "ि",
        "का"
      ],
      [
        "जोड़",
        "ें"
      ],
      [
        "ब",
        "्र"
      ],
      [
        "u",
        "t"
      ],
      [
        "ज",
        "े"
      ],
      [
        "m",
        "e"
      ],
      [
        "#-#-",
        "#"
      ],
      [
        "#-#-",
        "#-#-#"
      ],
      [
        "सू",
        "च"
      ],
      [
        "प",
        "या"
      ],
      [
        "कृ",
        "पया"
      ],
      [
        "त",
        "े"
      ],
      [
        "इ",
        "स"
      ],
      [
        "सा",
        "थ"
      ],
      [
        "कि",
        "या"
      ],
      [
        "पू",
        "र्"
      ],
      [
        "को",
        "ई"
      ],
      [
        "इ",
        "ंच"
      ],
      [
        "निर्",
        "देश"
      ],
      [
        "म",
        "े"
      ],
      [
        "कर",
        "ने"
      ],
      [
        "टा",
        "एँ"
      ],
      [
        "र",
        "ण"
      ],
      [
        "ड़",
        "ा"
      ],
      [
        "प",
        "ं"
      ],
      [
        "ं",
        "भ"
      ],
      [
        "क",
        "ॉ"
      ],
      [
        "दि",
        "खा"
      ],
      [
        "चुन",
        "ें"
      ],
      [
        "चा",
        "ह"
      ],
      [
        "स्थ",
        "ित"
      ],
      [
        "फ",
        "ल"
      ],
      [
        "य",
        "ु"
      ],
      [
        "r",
        "e"
      ],
      [
        "त",
        "ी"
      ],
      [
        "र",
        "े"
      ],
      [
        "ग",
        "ा"
      ],
      [
        "स्",
        "ट"
      ],
      [
        "स",
        "भी"
      ],
      [
        "से",
        "ट"
      ],
      [
        "ब",
        "ग"
      ],
      [
        "र",
        "ख"
      ],
      [
        "ो",
        "ं"
      ],
      [
        "वि",
        "क"
      ],
      [
        "कर",
        "ण"
      ],
      [
        "क्",
        "ट"
      ],
      [
        "ड़",
        "ी"
      ],
      [
        "निर्देश",
        "िका"
      ],
      [
        "न",
        "या"
      ],
      [
        "कर",
        "्"
      ],
      [
        "श",
        "ी"
      ],
      [
        "स",
        "ि"
      ],
      [
        "वी",
        "डियो"
      ],
      [
        "i",
        "n"
      ],
      [
        "ल्",
        "प"
      ],
      [
        "चयन",
        "ित"
      ],
      [
        "जा",
        "एँ"
      ],
      [
        "श",
        "न"
      ],
      [
        "ए",
        "ं"
      ],
      [
        "द",
        "्"
      ],
      [
        "ु",
        "टि"
      ],
      [
        "त्र",
        "ुटि"
      ],
      [
        "ग",
        "ु"
      ],
      [
        "ै",
        "ग"
      ],
      [
        "ग",
        "या"
      ],
      [
        "क्रि",
        "य"
      ],
      [
        "प्लग",
        "इन"
      ],
      [
        "स",
        "ह"
      ],
      [
        "o",
        "r"
      ],
      [
        "स्था",
        "न"
      ],
      [
        "स्थित",
        "ि"
      ],
      [
        "अ",
        "क्ष"
      ],
      [
        "n",
        "o"
      ],
      [
        "t",
        "h"
      ],
      [
        "ै",
        "से"
      ],
      [
        "च",
        "ि"
      ],
      [
        "खा",
        "ली"
      ],
      [
        "योग",
        "्य"
      ],
      [
        "्य",
        "ू"
      ],
      [
        "फ",
        "ि"
      ],
      [
        "ल",
        "ाइ"
      ],
      [
        "अं",
        "त"
      ],
      [
        "प",
        "ी"
      ],
      [
        "क",
        "ें"
      ],
      [
        "ब",
        "ं"
      ],
      [
        "पा",
        "ठ"
      ],
      [
        "\"",
        "%"
      ],
      [
        "उप",
        "योग"
      ],
      [
        "विक",
        "ल्प"
      ],
      [
        "ग्र",
        "ा"
      ],
      [
        "सी",
        "डी"
      ],
      [
        "खो",
        "लें"
      ],
      [
        "पं",
        "क्ति"
      ],
      [
        "सह",
        "ेज"
      ],
      [
        "र्",
        "थ"
      ],
      [
        "ँ",
        "च"
      ],
      [
        "सम",
        "र्थ"
      ],
      [
        "ब",
        "ि"
      ],
      [
        "e",
        "n"
      ],
      [
        "प",
        "ै"
      ],
      [
        "अ",
        "प"
      ],
      [
        "बद",
        "लें"
      ],
      [
        "वी",
        "डी"
      ],
      [
        "डी",
        "वीडी"
      ],
      [
        "ट",
        "ी"
      ],
      [
        "म",
        "ौ"
      ],
      [
        "ल्",
        "ड"
      ],
      [
        "कर्",
        "ता"
      ],
      [
        "d",
        "i"
      ],
      [
        "no",
        "me"
      ],
      [
        "्र",
        "ो"
      ],
      [
        "स",
        "क"
      ],
      [
        "g",
        "nome"
      ],
      [
        "ंड",
        "ो"
      ],
      [
        "वि",
        "ंडो"
      ],
      [
        "क्ष",
        "्य"
      ],
      [
        "ग्रा",
        "म"
      ],
      [
        "प्रो",
        "ग्राम"
      ],
      [
        "जे",
        "क्ट"
      ],
      [
        "्रो",
        "त"
      ],
      [
        "अ",
        "धि"
      ],
      [
        "ै",
        "क"
      ],
      [
        "फ",
        "्"
      ],
      [
        "का",
        "र्"
      ],
      [
        "ल",
        "क्ष्य"
      ],
      [
        "प्र",
        "ार"
      ],
      [
        "प",
        "ि"
      ],
      [
        "स्",
        "वी"
      ],
      [
        "सं",
        "देश"
      ],
      [
        "रि",
        "क्त"
      ],
      [
        "o",
        "n"
      ],
      [
        "य",
        "दि"
      ],
      [
        "श",
        "ा"
      ],
      [
        "ब",
        "्"
      ],
      [
        "प",
        "ु"
      ],
      [
        "आ",
        "र"
      ],
      [
        "न",
        "क"
      ],
      [
        "भ",
        "ा"
      ],
      [
        "दिखा",
        "एँ"
      ],
      [
        "सूच",
        "ी"
      ],
      [
        "ह",
        "े"
      ],
      [
        "ज",
        "ू"
      ],
      [
        "म",
        "ु"
      ],
      [
        "ि",
        "न"
      ],
      [
        "प्रो",
        "जेक्ट"
      ],
      [
        "l",
        "i"
      ],
      [
        "स",
        "ार"
      ],
      [
        "पा",
        "द"
      ],
      [
        "h",
        "i"
      ],
      [
        "र्",
        "ष"
      ],
      [
        "आ",
        "कार"
      ],
      [
        "ड",
        "े"
      ],
      [
        "रख",
        "ें"
      ],
      [
        "शी",
        "र्ष"
      ],
      [
        "च",
        "े"
      ],
      [
        "ज",
        "़"
      ],
      [
        "्",
        "स"
      ],
      [
        "ल",
        "ोड"
      ],
      [
        "i",
        "l"
      ],
      [
        "स्",
        "ता"
      ],
      [
        "ह",
        "टाएँ"
      ],
      [
        "कर",
        "ना"
      ],
      [
        "र्",
        "ट"
      ],
      [
        "p",
        "o"
      ],
      [
        "ण",
        "ी"
      ],
      [
        "सं",
        "पाद"
      ],
      [
        "क्",
        "स"
      ],
      [
        "पूर्",
        "ण"
      ],
      [
        "..",
        "."
      ],
      [
        "श",
        "ि"
      ],
      [
        "ब",
        "र्"
      ],
      [
        "स्त",
        "ु"
      ],
      [
        "वर्",
        "त"
      ],
      [
        "ला",
        "ल"
      ],
      [
        "सहेज",
        "ें"
      ],
      [
        "क",
        "मा"
      ],
      [
        "व",
        "े"
      ],
      [
        "व",
        "स्तु"
      ],
      [
        "स",
        "क्रिय"
      ],
      [
        "ग",
        "ी"
      ],
      [
        "र",
        "ंग"
      ],
      [
        "ऑ",
        "डियो"
      ],
      [
        "लिख",
        "ने"
      ],
      [
        "श",
        "्"
      ],
      [
        "ट्र",
        "ैक"
      ],
      [
        "फ्",
        "ल"
      ],
      [
        "कमा",
        "ंड"
      ],
      [
        "ट",
        "र"
      ],
      [
        "कि",
        "सी"
      ],
      [
        "फ्ल",
        "ैग"
      ],
      [
        "ब्र",
        "ैसे"
      ],
      [
        "ब्रैसे",
        "रो"
      ],
      [
        "ई",
        "ंट"
      ],
      [
        "पा",
        "न"
      ],
      [
        "हु",
        "कु"
      ],
      [
        "हुकु",
        "म"
      ],
      [
        "त",
        "स्वी"
      ],
      [
        "कॉ",
        "ल"
      ],
      [
        "चि",
        "ड़ी"
      ],
      [
        "अ",
        "ति"
      ],
      [
        "्",
        "या"
      ],
      [
        "ह",
        "ला"
      ],
      [
        "चाह",
        "ते"
      ],
      [
        "तस्वी",
        "र"
      ],
      [
        "म",
        "द"
      ],
      [
        "स",
        "फल"
      ],
      [
        "a",
        "t"
      ],
      [
        "ष्",
        "ट"
      ],
      [
        "च",
        "ौ"
      ],
      [
        "त",
        "म"
      ],
      [
        "i",
        "s"
      ],
      [
        "फ",
        "ो"
      ],
      [
        "प्लग",
        "िन"
      ],
      [
        "n",
        "j"
      ],
      [
        "व",
        "ार"
      ],
      [
        "यु",
        "क्ति"
      ],
      [
        "त",
        "र"
      ],
      [
        "मौ",
        "जू"
      ],
      [
        "ह",
        "र"
      ],
      [
        "e",
        "s"
      ],
      [
        "प",
        "थ"
      ],
      [
        "ज",
        "ि"
      ],
      [
        "ब",
        "े"
      ],
      [
        "स",
        "का"
      ],
      [
        "प",
        "ो"
      ],
      [
        "स्क",
        "्र"
      ],
      [
        "स्",
        "व"
      ],
      [
        "फ़",
        "ॉ"
      ],
      [
        "यु",
        "क्त"
      ],
      [
        "अधि",
        "क"
      ],
      [
        "अति",
        "रिक्त"
      ],
      [
        "प",
        "ित"
      ],
      [
        "ि",
        "ए"
      ],
      [
        "म",
        "ोड"
      ],
      [
        "nj",
        "ut"
      ],
      [
        "ब्र",
        "े"
      ],
      [
        "गु",
        "ण"
      ],
      [
        "njut",
        "a"
      ],
      [
        "a",
        "l"
      ],
      [
        "द्",
        "वार"
      ],
      [
        "द्वार",
        "ा"
      ],
      [
        "ढ",
        "ू"
      ],
      [
        "प",
        "ट"
      ],
      [
        "A",
        "njuta"
      ],
      [
        "a",
        "n"
      ],
      [
        "ड",
        "ा"
      ],
      [
        "न्",
        "ट"
      ],
      [
        "ध",
        "ार"
      ],
      [
        "ष्",
        "ठ"
      ],
      [
        "ं",
        "क"
      ],
      [
        "अ",
        "ग"
      ],
      [
        "ख",
        "े"
      ],
      [
        "डि",
        "बग"
      ],
      [
        "सम",
        "य"
      ],
      [
        "क्रि",
        "या"
      ],
      [
        "ं",
        "ढ"
      ],
      [
        "घ",
        "ु"
      ],
      [
        "ढू",
        "ंढ"
      ],
      [
        "छ",
        "ो"
      ],
      [
        "प",
        "ता"
      ],
      [
        "प",
        "हु"
      ],
      [
        "य",
        "े"
      ],
      [
        "क्",
        "का"
      ],
      [
        "नी",
        "य"
      ],
      [
        "प",
        "ुन"
      ],
      [
        "प्रार",
        "ंभ"
      ],
      [
        "चौ",
        "ड़ा"
      ],
      [
        "ए",
        "स"
      ],
      [
        "फि",
        "र"
      ],
      [
        "मे",
        "ल"
      ],
      [
        "ँ",
        "चा"
      ],
      [
        "अ",
        "व"
      ],
      [
        "सूच",
        "ना"
      ],
      [
        "त्",
        "ता"
      ],
      [
        "रू",
        "प"
      ],
      [
        "चौड़ा",
        "ई"
      ],
      [
        "चाह",
        "िए"
      ],
      [
        "प्र",
        "कार"
      ],
      [
        "ख",
        "्या"
      ],
      [
        "सं",
        "ख्या"
      ],
      [
        "प",
        "े"
      ],
      [
        "स्",
        "करण"
      ],
      [
        "th",
        "e"
      ],
      [
        "बं",
        "ध"
      ],
      [
        "\\",
        "\\"
      ],
      [
        "त",
        "ु"
      ],
      [
        "बना",
        "एँ"
      ],
      [
        "द",
        "ू"
      ],
      [
        "मि",
        "टाएँ"
      ],
      [
        "स",
        "ब"
      ],
      [
        "ले",
        "ख"
      ],
      [
        "ो",
        "ट"
      ],
      [
        "सं",
        "स्करण"
      ],
      [
        "ँ",
        "क"
      ],
      [
        "बा",
        "हर"
      ],
      [
        "आ",
        "ई"
      ],
      [
        "आ",
        "ँक"
      ],
      [
        "नक",
        "़"
      ],
      [
        "ड",
        "्र"
      ],
      [
        "द",
        "ो"
      ],
      [
        "प",
        "ह"
      ],
      [
        "g",
        "e"
      ],
      [
        "ब",
        "ी"
      ],
      [
        "ज",
        "ी"
      ],
      [
        "द",
        "ी"
      ],
      [
        "नक़",
        "ल"
      ],
      [
        "o",
        "f"
      ],
      [
        "व",
        "रण"
      ],
      [
        "क्",
        "लि"
      ],
      [
        "न",
        "्यू"
      ],
      [
        "r",
        "a"
      ],
      [
        "आँक",
        "ड़ा"
      ],
      [
        "वि",
        "धि"
      ],
      [
        "स",
        "्रोत"
      ],
      [
        "स",
        "मा"
      ],
      [
        "द",
        "र्"
      ],
      [
        "अनु",
        "प्रयोग"
      ],
      [
        "मि",
        "ला"
      ],
      [
        "य",
        "ू"
      ],
      [
        "ू",
        "ह"
      ],
      [
        "सम",
        "ूह"
      ],
      [
        "C",
        "D"
      ],
      [
        "i",
        "on"
      ],
      [
        "द",
        "ु"
      ],
      [
        "मौजू",
        "दा"
      ],
      [
        ":",
        "%"
      ],
      [
        "H",
        "E"
      ],
      [
        "च",
        "ला"
      ],
      [
        "ल",
        "ो"
      ],
      [
        "उ",
        "ट"
      ],
      [
        "य",
        "ी"
      ],
      [
        "परि",
        "वर्त"
      ],
      [
        "खो",
        "ज"
      ],
      [
        "क",
        "ै"
      ],
      [
        "कर",
        "ता"
      ],
      [
        "कु",
        "छ"
      ],
      [
        "द",
        "स्ता"
      ],
      [
        "ब",
        "ार"
      ],
      [
        "श",
        "्य"
      ],
      [
        "i",
        "c"
      ],
      [
        "आ",
        "उट"
      ],
      [
        "व",
        "ेज"
      ],
      [
        "ै",
        "ध"
      ],
      [
        "प्",
        "त"
      ],
      [
        "बा",
        "द"
      ],
      [
        "दस्ता",
        "वेज"
      ],
      [
        "ढ",
        "़"
      ],
      [
        "ल",
        "ं"
      ],
      [
        "हा",
        "य"
      ],
      [
        "जा",
        "ँच"
      ],
      [
        "मद",
        "द"
      ],
      [
        "म",
        "ी"
      ],
      [
        "लिख",
        "ें"
      ],
      [
        "A",
        "D"
      ],
      [
        "क",
        "म"
      ],
      [
        "HE",
        "AD"
      ],
      [
        "कॉ",
        "पी"
      ],
      [
        "फल",
        "क"
      ],
      [
        "य",
        "र"
      ],
      [
        "m",
        "a"
      ],
      [
        "प",
        "र्"
      ],
      [
        "दे",
        "ख"
      ],
      [
        "प्र",
        "बंध"
      ],
      [
        "पूर्",
        "व"
      ],
      [
        "बं",
        "द"
      ],
      [
        "क्ष",
        "म"
      ],
      [
        "ट्र",
        "ी"
      ],
      [
        "खे",
        "ल"
      ],
      [
        "(",
        "%"
      ],
      [
        "च",
        "ु"
      ],
      [
        "न",
        "ल"
      ],
      [
        "आर",
        "ंभ"
      ],
      [
        "ह",
        "रा"
      ],
      [
        "प्र",
        "ा"
      ],
      [
        "ंट",
        "र"
      ],
      [
        "सक",
        "ता"
      ],
      [
        "फ्लैग",
        "्स"
      ],
      [
        "r",
        "o"
      ],
      [
        "पहु",
        "ँच"
      ],
      [
        "नाम",
        "ः"
      ],
      [
        "या",
        "त"
      ],
      [
        "क्",
        "ता"
      ],
      [
        "यो",
        "क्ता"
      ],
      [
        "प्र",
        "युक्त"
      ],
      [
        "i",
        "t"
      ],
      [
        "इ",
        "से"
      ],
      [
        "ट",
        "े"
      ],
      [
        "ी",
        "न"
      ],
      [
        "पु",
        "ट"
      ],
      [
        "म",
        "ोट"
      ],
      [
        "ला",
        "ग"
      ],
      [
        "रि",
        "मोट"
      ],
      [
        "ट",
        "ें"
      ],
      [
        "नि",
        "ंग"
      ],
      [
        "स्था",
        "पित"
      ],
      [
        "li",
        "b"
      ],
      [
        "U",
        "R"
      ],
      [
        "नि",
        "य"
      ],
      [
        "ढूंढ",
        "ें"
      ],
      [
        "द",
        "हला"
      ],
      [
        "जा",
        "ए"
      ],
      [
        "वर्",
        "ग"
      ],
      [
        "स",
        "न"
      ],
      [
        "ह",
        "टा"
      ],
      [
        "क्",
        "से"
      ],
      [
        "सार",
        "णी"
      ],
      [
        "ध",
        "्"
      ],
      [
        "s",
        "e"
      ],
      [
        "ज",
        "ब"
      ],
      [
        "बि",
        "ल्ड"
      ],
      [
        "स्क्र",
        "ीन"
      ],
      [
        "दस्तावेज",
        "़"
      ],
      [
        "फ",
        "ा"
      ],
      [
        "पो",
        "र्ट"
      ],
      [
        "व",
        "्य"
      ],
      [
        "फ़ॉ",
        "न्ट"
      ],
      [
        "छो",
        "ड़"
      ],
      [
        "ल",
        "ॉ"
      ],
      [
        "द",
        "ृ"
      ],
      [
        "्र",
        "े"
      ],
      [
        "वर्",
        "ण"
      ],
      [
        "वर्",
        "सन"
      ],
      [
        "सब",
        "वर्सन"
      ],
      [
        "re",
        "c"
      ],
      [
        "समर्थ",
        "न"
      ],
      [
        "श",
        "्रोत"
      ],
      [
        "ि",
        "स्"
      ],
      [
        "को",
        "ड"
      ],
      [
        "ल्ड",
        "र"
      ],
      [
        "चा",
        "ल"
      ],
      [
        "पह",
        "ले"
      ],
      [
        "लाग",
        "ू"
      ],
      [
        "s",
        "t"
      ],
      [
        "प्र",
        "ति"
      ],
      [
        "हे",
        "तु"
      ],
      [
        "S",
        "I"
      ],
      [
        "सा",
        "मान"
      ],
      [
        "सामान",
        "्य"
      ],
      [
        "आ",
        "यात"
      ],
      [
        "कर",
        "े"
      ],
      [
        "लि",
        "त"
      ],
      [
        "बर्",
        "निंग"
      ],
      [
        "प",
        "ृ"
      ],
      [
        "जा",
        "ने"
      ],
      [
        "कार्",
        "य"
      ],
      [
        "गी",
        "त"
      ],
      [
        "ड्र",
        "ाइ"
      ],
      [
        "पट",
        "्"
      ],
      [
        "स",
        "ु"
      ],
      [
        "ध्",
        "व"
      ],
      [
        "ग",
        "ल"
      ],
      [
        "श",
        "ु"
      ],
      [
        "D",
        "V"
      ],
      [
        "t",
        "o"
      ],
      [
        "ं",
        "त्र"
      ],
      [
        "ज",
        "रू"
      ],
      [
        "त",
        "ः"
      ],
      [
        "भ",
        "ू"
      ],
      [
        "शीर्ष",
        "क"
      ],
      [
        "DV",
        "D"
      ],
      [
        "ड्राइ",
        "व"
      ],
      [
        "प",
        "न"
      ],
      [
        "ग",
        "ति"
      ],
      [
        "त",
        "क"
      ],
      [
        "प्रबंध",
        "क"
      ],
      [
        "ं",
        "त"
      ],
      [
        "ै",
        "श"
      ],
      [
        "क्",
        "शन"
      ],
      [
        "पृ",
        "ष्ठ"
      ],
      [
        "c",
        "o"
      ],
      [
        "t",
        "k"
      ],
      [
        "क",
        "ड़ी"
      ],
      [
        "ल्",
        "टर"
      ],
      [
        "ध्व",
        "नि"
      ],
      [
        "द",
        "ौ"
      ],
      [
        "सफल",
        "ता"
      ],
      [
        "ग",
        "ई"
      ],
      [
        "ट",
        "र्"
      ],
      [
        "स",
        "त्र"
      ],
      [
        ")",
        ":"
      ],
      [
        "स",
        "र"
      ],
      [
        "परिवर्त",
        "न"
      ],
      [
        "स",
        "हाय"
      ],
      [
        "ल्",
        "ट"
      ],
      [
        "घु",
        "मा"
      ],
      [
        "सं",
        "स्थापित"
      ],
      [
        "बग",
        "ल"
      ],
      [
        "पि",
        "छ"
      ],
      [
        "स",
        "क्षम"
      ],
      [
        "di",
        "t"
      ],
      [
        "दौ",
        "रा"
      ],
      [
        "प्र",
        "वि"
      ],
      [
        "नि",
        "ष्"
      ],
      [
        "कें",
        "ड"
      ],
      [
        "निष्",
        "क्रिय"
      ],
      [
        "ज",
        "्"
      ],
      [
        "शा",
        "ह"
      ],
      [
        "देख",
        "ें"
      ],
      [
        "ज्",
        "ञ"
      ],
      [
        "न",
        "तम"
      ],
      [
        "दृ",
        "श्य"
      ],
      [
        "E",
        "R"
      ],
      [
        "O",
        "N"
      ],
      [
        "क",
        "ई"
      ],
      [
        "्",
        "न"
      ],
      [
        "पूर्व",
        "क"
      ],
      [
        "सफलता",
        "पूर्वक"
      ],
      [
        "दौरा",
        "न"
      ],
      [
        "घ",
        "ट"
      ],
      [
        "ट",
        "न"
      ],
      [
        "ह",
        "ित"
      ],
      [
        "सं",
        "के"
      ],
      [
        "e",
        "d"
      ],
      [
        "ए",
        "ंटर"
      ],
      [
        "या",
        "स"
      ],
      [
        "स्त",
        "ंभ"
      ],
      [
        "अ",
        "ज्ञ"
      ],
      [
        "आ",
        "धार"
      ],
      [
        "ा",
        "त"
      ],
      [
        "अज्ञ",
        "ात"
      ],
      [
        "प",
        "सं"
      ],
      [
        "स",
        "र्"
      ],
      [
        "जा",
        "ना"
      ],
      [
        "्यू",
        "ल"
      ],
      [
        "ऊ",
        "ँचा"
      ],
      [
        "ख",
        "्य"
      ],
      [
        "ि",
        "ंग"
      ],
      [
        "ऊँचा",
        "ई"
      ],
      [
        "क",
        "मि"
      ],
      [
        "थ",
        "ा"
      ],
      [
        "स",
        "ॉ"
      ],
      [
        "संपाद",
        "क"
      ],
      [
        "l",
        "e"
      ],
      [
        "ज",
        "मा"
      ],
      [
        "म",
        "ू"
      ],
      [
        "प्र",
        "ती"
      ],
      [
        "ति",
        "म"
      ],
      [
        "पा",
        "स"
      ],
      [
        "टि",
        "प्"
      ],
      [
        "अं",
        "तिम"
      ],
      [
        "र",
        "हे"
      ],
      [
        "en",
        "er"
      ],
      [
        "छोड़",
        "ें"
      ],
      [
        "C",
        "o"
      ],
      [
        "o",
        "u"
      ],
      [
        "दि",
        "ष्ट"
      ],
      [
        "निर्",
        "दिष्ट"
      ],
      [
        "लाइ",
        "स"
      ],
      [
        "पुन",
        "ः"
      ],
      [
        "द",
        "्र"
      ],
      [
        "्",
        "ड"
      ],
      [
        "बाद",
        "शाह"
      ],
      [
        "शी",
        "ल"
      ],
      [
        "न्यू",
        "नतम"
      ],
      [
        "पट्",
        "टी"
      ],
      [
        "भ",
        "ेज"
      ],
      [
        "व",
        "र"
      ],
      [
        "ब्रे",
        "री"
      ],
      [
        "लो",
        "क"
      ],
      [
        "छ",
        "ा"
      ],
      [
        "प",
        "ढ़"
      ],
      [
        "न्",
        "यास"
      ],
      [
        "बद",
        "ल"
      ],
      [
        "स्व",
        "तः"
      ],
      [
        "डिबग",
        "र"
      ],
      [
        "त",
        "न"
      ],
      [
        "कार्",
        "ड"
      ],
      [
        "क्लि",
        "क"
      ],
      [
        "स्था",
        "नीय"
      ],
      [
        "लाइ",
        "न"
      ],
      [
        "द",
        "ें"
      ],
      [
        "ै",
        "ति"
      ],
      [
        "ut",
        "il"
      ],
      [
        "ैति",
        "ज"
      ],
      [
        "का",
        "री"
      ],
      [
        "डि",
        "ंग"
      ],
      [
        "सा",
        "फ"
      ],
      [
        "चा",
        "लित"
      ],
      [
        "सि",
        "मु"
      ],
      [
        "अधिक",
        "तम"
      ],
      [
        "कै",
        "म"
      ],
      [
        "सिमु",
        "ले"
      ],
      [
        "अ",
        "सफल"
      ],
      [
        "ध",
        "्य"
      ],
      [
        "र्",
        "ड"
      ],
      [
        "के",
        "ज"
      ],
      [
        "रि",
        "क"
      ],
      [
        "कु",
        "ल"
      ],
      [
        "in",
        "g"
      ],
      [
        "ख",
        "ण"
      ],
      [
        "श",
        "े"
      ],
      [
        "से",
        "केंड"
      ],
      [
        "री",
        "य"
      ],
      [
        "अक्ष",
        "म"
      ],
      [
        "कें",
        "द्र"
      ],
      [
        "d",
        "e"
      ],
      [
        "लि",
        "खा"
      ],
      [
        "जा",
        "री"
      ],
      [
        "फि",
        "ल्टर"
      ],
      [
        "प",
        "ाइ"
      ],
      [
        "च",
        "ित"
      ],
      [
        "ल",
        "ब्"
      ],
      [
        "पै",
        "केज"
      ],
      [
        "प्रार",
        "ू"
      ],
      [
        "लब्",
        "ध"
      ],
      [
        "e",
        "l"
      ],
      [
        "t",
        "er"
      ],
      [
        "ज",
        "न"
      ],
      [
        "द",
        "र"
      ],
      [
        "न्",
        "न"
      ],
      [
        "समर्थ",
        "ित"
      ],
      [
        "मु",
        "ख्य"
      ],
      [
        "वि",
        "डियो"
      ],
      [
        "सा",
        "ं"
      ],
      [
        "अव",
        "ैध"
      ],
      [
        "बी",
        "च"
      ],
      [
        "V",
        "ER"
      ],
      [
        "a",
        "r"
      ],
      [
        "स्त",
        "र"
      ],
      [
        "ज़",
        "ू"
      ],
      [
        "क्",
        "की"
      ],
      [
        "वि",
        "वरण"
      ],
      [
        "लाइ",
        "ब्रेरी"
      ],
      [
        "ब्रे",
        "क"
      ],
      [
        "SI",
        "ON"
      ],
      [
        "VER",
        "SION"
      ],
      [
        "क",
        "़"
      ],
      [
        "या",
        "ँ"
      ],
      [
        "प्र",
        "योक्ता"
      ],
      [
        "वा",
        "द"
      ],
      [
        "हु",
        "आ"
      ],
      [
        "भा",
        "व"
      ],
      [
        "अग",
        "र"
      ],
      [
        "िस्",
        "म"
      ],
      [
        "क़",
        "िस्म"
      ],
      [
        "0",
        "2"
      ],
      [
        "ब",
        "टन"
      ],
      [
        "र",
        "द्"
      ],
      [
        "प",
        "णी"
      ],
      [
[...]
