{
  "version": "1.0",
  "truncation": null,
  "padding": null,
  "added_tokens": [
    {
      "id": 0,
      "content": "[UNK]",
      "single_word": false,
      "lstrip": false,
      "rstrip": false,
      "normalized": false,
      "special": true
    },
    {
      "id": 1,
      "content": "[PAD]",
      "single_word": false,
      "lstrip": false,
      "rstrip": false,
      "normalized": false,
      "special": true
    },
    {
      "id": 2,
      "content": "[SOS]",
      "single_word": false,
      "lstrip": false,
      "rstrip": false,
      "normalized": false,
      "special": true
    },
    {
      "id": 3,
      "content": "[EOS]",
      "single_word": false,
      "lstrip": false,
      "rstrip": false,
      "normalized": false,
      "special": true
    }
  ],
  "normalizer": null,
  "pre_tokenizer": {
    "type": "Whitespace"
  },
  "post_processor": null,
  "decoder": null,
  "model": {
    "type": "BPE",
    "dropout": null,
    "unk_token": "[UNK]",
    "continuing_subword_prefix": null,
    "end_of_word_suffix": null,
    "fuse_unk": false,
    "byte_fallback": false,
    "ignore_merges": false,
    "vocab": {
      "[UNK]": 0,
      "[PAD]": 1,
      "[SOS]": 2,
      "[EOS]": 3,
      "!": 4,
      "\"": 5,
      "#": 6,
      "$": 7,
      "%": 8,
      "&": 9,
      "'": 10,
      "(": 11,
      ")": 12,
      "*": 13,
      "+": 14,
      ",": 15,
      "-": 16,
      ".": 17,
      "/": 18,
      "0": 19,
      "1": 20,
      "2": 21,
      "3": 22,
      "4": 23,
      "5": 24,
      "6": 25,
      "7": 26,
      "8": 27,
      "9": 28,
      ":": 29,
      ";": 30,
      "<": 31,
      "=": 32,
      ">": 33,
      "?": 34,
      "@": 35,
      "A": 36,
      "B": 37,
      "C": 38,
      "D": 39,
      "E": 40,
      "F": 41,
      "G": 42,
      "H": 43,
      "I": 44,
      "J": 45,
      "K": 46,
      "L": 47,
      "M": 48,
      "N": 49,
      "O": 50,
      "P": 51,
      "Q": 52,
      "R": 53,
      "S": 54,
      "T": 55,
      "U": 56,
      "V": 57,
      "W": 58,
      "X": 59,
      "Y": 60,
      "Z": 61,
      "[": 62,
      "\\": 63,
      "]": 64,
      "^": 65,
      "_": 66,
      "`": 67,
      "a": 68,
      "b": 69,
      "c": 70,
      "d": 71,
      "e": 72,
      "f": 73,
      "g": 74,
      "h": 75,
      "i": 76,
      "j": 77,
      "k": 78,
      "l": 79,
      "m": 80,
      "n": 81,
      "o": 82,
      "p": 83,
      "q": 84,
      "r": 85,
      "s": 86,
      "t": 87,
      "u": 88,
      "v": 89,
      "w": 90,
      "x": 91,
      "y": 92,
      "z": 93,
      "{": 94,
      "}": 95,
      "~": 96,
      "©": 97,
      "×": 98,
      "–": 99,
      "—": 100,
      "‘": 101,
      "’": 102,
      "“": 103,
      "”": 104,
      "…": 105,
      "™": 106,
      "he": 107,
      "in": 108,
      "le": 109,
      "on": 110,
      "re": 111,
      "the": 112,
      "er": 113,
      "to": 114,
      "at": 115,
      "or": 116,
      "an": 117,
      "is": 118,
      "en": 119,
      "ion": 120,
      "ou": 121,
      "se": 122,
      "ct": 123,
      "it": 124,
      "al": 125,
      "ing": 126,
      "es": 127,
      "ar": 128,
      "ed": 129,
      "ro": 130,
      "of": 131,
      "ile": 132,
      "ac": 133,
      "de": 134,
      "ag": 135,
      "ot": 136,
      "as": 137,
      "ve": 138,
      "am": 139,
      "file": 140,
      "ect": 141,
      "ic": 142,
      "ble": 143,
      "ur": 144,
      "il": 145,
      "ation": 146,
      "for": 147,
      "st": 148,
      "ad": 149,
      "ent": 150,
      "th": 151,
      "pl": 152,
      "The": 153,
      "pro": 154,
      "ject": 155,
      "co": 156,
      "be": 157,
      "ch": 158,
      "di": 159,
      "able": 160,
      "tor": 161,
      "not": 162,
      "im": 163,
      "et": 164,
      "ow": 165,
      "em": 166,
      "ig": 167,
      "ol": 168,
      "ex": 169,
      "ug": 170,
      "and": 171,
      "op": 172,
      "you": 173,
      "lect": 174,
      "age": 175,
      "ut": 176,
      "all": 177,
      "dis": 178,
      "nt": 179,
      "um": 180,
      "ame": 181,
      "ont": 182,
      "ess": 183,
      "project": 184,
      "ate": 185,
      "ew": 186,
      "ove": 187,
      "ext": 188,
      "ver": 189,
      "com": 190,
      "ace": 191,
      "oc": 192,
      "ce": 193,
      "ase": 194,
      "disc": 195,
      "tr": 196,
      "vi": 197,
      "nd": 198,
      "ter": 199,
      "Se": 200,
      "pt": 201,
      "au": 202,
      "sp": 203,
      "ay": 204,
      "ack": 205,
      "su": 206,
      "ort": 207,
      "art": 208,
      "wit": 209,
      "ld": 210,
      "Re": 211,
      "urn": 212,
      "om": 213,
      "files": 214,
      "Pro": 215,
      "dd": 216,
      "ugin": 217,
      "with": 218,
      "ll": 219,
      "use": 220,
      "ill": 221,
      "rec": 222,
      "ould": 223,
      "gr": 224,
      "igh": 225,
      "De": 226,
      "Add": 227,
      "pp": 228,
      "if": 229,
      "tory": 230,
      "ind": 231,
      "are": 232,
      "si": 233,
      ":%": 234,
      "us": 235,
      "lease": 236,
      "sion": 237,
      "ang": 238,
      "select": 239,
      "res": 240,
      "our": 241,
      "ther": 242,
      "ard": 243,
      "lo": 244,
      "un": 245,
      "Dis": 246,
      "rent": 247,
      "File": 248,
      "po": 249,
      "Select": 250,
      "id": 251,
      "mo": 252,
      "ist": 253,
      "ib": 254,
      "ant": 255,
      "Please": 256,
      "ub": 257,
      "ine": 258,
      "In": 259,
      "ri": 260,
      "ue": 261,
      "cess": 262,
      "ly": 263,
      "name": 264,
      "cur": 265,
      "this": 266,
      "ight": 267,
      "CD": 268,
      "ke": 269,
      "deo": 270,
      "Rem": 271,
      "ave": 272,
      "int": 273,
      "\"%": 274,
      "ert": 275,
      "St": 276,
      "will": 277,
      "cre": 278,
      "rom": 279,
      "cl": 280,
      "Pl": 281,
      "ound": 282,
      "arg": 283,
      "plugin": 284,
      "An": 285,
      "ma": 286,
      "pe": 287,
      "from": 288,
      "rectory": 289,
      "form": 290,
      "can": 291,
      "DV": 292,
      "DVD": 293,
      "let": 294,
      "con": 295,
      "Sh": 296,
      "burn": 297,
      "ds": 298,
      "cont": 299,
      "ition": 300,
      "..": 301,
      "sh": 302,
      "rit": 303,
      "Project": 304,
      "out": 305,
      "image": 306,
      "bug": 307,
      "ras": 308,
      "av": 309,
      "add": 310,
      "play": 311,
      "ror": 312,
      "comp": 313,
      "act": 314,
      "ment": 315,
      "ord": 316,
      "oo": 317,
      "ff": 318,
      "directory": 319,
      "iz": 320,
      "ree": 321,
      "that": 322,
      "current": 323,
      "ies": 324,
      "ass": 325,
      "Remove": 326,
      "ap": 327,
      "el": 328,
      "Un": 329,
      "set": 330,
      "Whe": 331,
      "want": 332,
      "port": 333,
      "Move": 334,
      "text": 335,
      "ource": 336,
      "Au": 337,
      "val": 338,
      "video": 339,
      "Com": 340,
      "Whether": 341,
      "end": 342,
      "selected": 343,
      "Do": 344,
      "fl": 345,
      "ions": 346,
      "ild": 347,
      "qu": 348,
      "gram": 349,
      "ck": 350,
      "ener": 351,
      "dio": 352,
      "arget": 353,
      "version": 354,
      "No": 355,
      "indow": 356,
      "Vi": 357,
      "red": 358,
      "ive": 359,
      "old": 360,
      "ata": 361,
      "og": 362,
      "ers": 363,
      "writ": 364,
      "ary": 365,
      "arch": 366,
      "actor": 367,
      "man": 368,
      "used": 369,
      "ice": 370,
      "comm": 371,
      "ated": 372,
      "Im": 373,
      "ull": 374,
      "ath": 375,
      "ail": 376,
      "ast": 377,
      "your": 378,
      "ul": 379,
      "lib": 380,
      "Con": 381,
      "ype": 382,
      "tw": 383,
      "ero": 384,
      "wh": 385,
      "ages": 386,
      "Ch": 387,
      "ain": 388,
      "by": 389,
      "ity": 390,
      "che": 391,
      "Cop": 392,
      "rasero": 393,
      "ents": 394,
      "opt": 395,
      "ure": 396,
      "up": 397,
      "read": 398,
      "col": 399,
      "vice": 400,
      "Cre": 401,
      "Op": 402,
      "Show": 403,
      "New": 404,
      "Th": 405,
      "sy": 406,
      "Burn": 407,
      "essage": 408,
      "ix": 409,
      "do": 410,
      "arts": 411,
      "target": 412,
      "onto": 413,
      "jut": 414,
      "juta": 415,
      "card": 416,
      "bo": 417,
      "atch": 418,
      "pty": 419,
      "Open": 420,
      "Anjuta": 421,
      "Tr": 422,
      "amon": 423,
      "sl": 424,
      "ec": 425,
      "chang": 426,
      "loc": 427,
      "load": 428,
      "king": 429,
      "ccess": 430,
      "flag": 431,
      "new": 432,
      "pport": 433,
      "ress": 434,
      "ally": 435,
      "Plugin": 436,
      "est": 437,
      "Cl": 438,
      "could": 439,
      "audio": 440,
      "ubs": 441,
      "hearts": 442,
      "ager": 443,
      "ades": 444,
      "diamon": 445,
      "spades": 446,
      "clubs": 447,
      "Copy": 448,
      "diamonds": 449,
      "Mo": 450,
      "ger": 451,
      "one": 452,
      "open": 453,
      "data": 454,
      "enter": 455,
      "ote": 456,
      "track": 457,
      "window": 458,
      "inst": 459,
      "Save": 460,
      "ible": 461,
      "support": 462,
      "Cont": 463,
      "ign": 464,
      "All": 465,
      "uild": 466,
      "lin": 467,
      "empty": 468,
      "lete": 469,
      "ab": 470,
      "has": 471,
      "revi": 472,
      "pert": 473,
      "line": 474,
      "full": 475,
      "min": 476,
      "own": 477,
      "En": 478,
      "ho": 479,
      "ication": 480,
      "ied": 481,
      "ome": 482,
      "formation": 483,
      "rem": 484,
      "du": 485,
      "Set": 486,
      "list": 487,
      "ser": 488,
      "ong": 489,
      "ax": 490,
      "cri": 491,
      "no": 492,
      "ip": 493,
      "umb": 494,
      "iv": 495,
      "cript": 496,
      "UR": 497,
      "call": 498,
      "inter": 499,
      "Brasero": 500,
      "Comm": 501,
      "...": 502,
      "place": 503,
      "ren": 504,
      "edi": 505,
      "ze": 506,
      "Gener": 507,
      "sing": 508,
      "device": 509,
      "should": 510,
      "program": 511,
      "appl": 512,
      "Er": 513,
      "You": 514,
      "error": 515,
      "ous": 516,
      "Error": 517,
      "whe": 518,
      "point": 519,
      "Auto": 520,
      "wid": 521,
      "ref": 522,
      "Start": 523,
      "top": 524,
      "Use": 525,
      "lt": 526,
      "ction": 527,
      "sition": 528,
      "ations": 529,
      "Disc": 530,
      "This": 531,
      "la": 532,
      "py": 533,
      "command": 534,
      "\\\\": 535,
      "bject": 536,
      "path": 537,
      "ak": 538,
      "type": 539,
      "start": 540,
      "ting": 541,
      "row": 542,
      "size": 543,
      "fig": 544,
      "Create": 545,
      "link": 546,
      "found": 547,
      "sert": 548,
      "older": 549,
      "libr": 550,
      "itional": 551,
      "Sub": 552,
      "ocum": 553,
      "ipp": 554,
      "ning": 555,
      "Enable": 556,
      "source": 557,
      "dit": 558,
      "uration": 559,
      "Che": 560,
      "next": 561,
      "requ": 562,
      "per": 563,
      "If": 564,
      "mb": 565,
      "imum": 566,
      "mode": 567,
      "flags": 568,
      "Debug": 569,
      "vis": 570,
      "ake": 571,
      "space": 572,
      "iled": 573,
      "oper": 574,
      "box": 575,
      "message": 576,
      "does": 577,
      "dule": 578,
      "Col": 579,
      "Ex": 580,
      "lp": 581,
      "oup": 582,
      "ick": 583,
      "Search": 584,
      "Disable": 585,
      "ator": 586,
      "ces": 587,
      "auto": 588,
      "burning": 589,
      "des": 590,
      "View": 591,
      "changes": 592,
      "umber": 593,
      "nipp": 594,
      "debug": 595,
      "ime": 596,
      "nippet": 597,
      "ial": 598,
      "put": 599,
      "mbol": 600,
      "Source": 601,
      "wor": 602,
      "umn": 603,
      "ook": 604,
      "oose": 605,
      "Name": 606,
      "vert": 607,
      "fau": 608,
      "fault": 609,
      "Build": 610,
      "was": 611,
      "ount": 612,
      "ader": 613,
      "(%": 614,
      "low": 615,
      "par": 616,
      "hoto": 617,
      "ca": 618,
      "ark": 619,
      "copy": 620,
      "CV": 621,
      "valid": 622,
      "CVS": 623,
      "Cur": 624,
      "ten": 625,
      "He": 626,
      "face": 627,
      "have": 628,
      "reak": 629,
      "entation": 630,
      "mat": 631,
      "ense": 632,
      "icense": 633,
      "GN": 634,
      "ev": 635,
      "tool": 636,
      "ans": 637,
      "creen": 638,
      "cannot": 639,
      "Val": 640,
      "but": 641,
      "ple": 642,
      "ance": 643,
      "Video": 644,
      "dri": 645,
      "ust": 646,
      "information": 647,
      "Image": 648,
      "Could": 649,
      "Unable": 650,
      "pack": 651,
      "ailed": 652,
      "plugins": 653,
      "table": 654,
      "Lo": 655,
      "library": 656,
      "Di": 657,
      "eed": 658,
      "hed": 659,
      "manager": 660,
      "URI": 661,
      "lan": 662,
      "kn": 663,
      "vel": 664,
      "perties": 665,
      "Edit": 666,
      "ore": 667,
      "width": 668,
      "stem": 669,
      "check": 670,
      "Subversion": 671,
      "success": 672,
      "reakpoint": 673,
      "ra": 674,
      "code": 675,
      "color": 676,
      "other": 677,
      "Place": 678,
      "screen": 679,
      "only": 680,
      "ilter": 681,
      "fully": 682,
      "when": 683,
      "Text": 684,
      "light": 685,
      "pan": 686,
      "revious": 687,
      "License": 688,
      "ical": 689,
      "Program": 690,
      "For": 691,
      "Man": 692,
      "ir": 693,
      "cription": 694,
      "search": 695,
      "ize": 696,
      "known": 697,
      "Opt": 698,
      "access": 699,
      "posi": 700,
      "Burning": 701,
      "vision": 702,
      "some": 703,
      "There": 704,
      "spec": 705,
      "ighlight": 706,
      "Files": 707,
      "options": 708,
      "Check": 709,
      "gener": 710,
      "ating": 711,
      "diff": 712,
      "using": 713,
      "selection": 714,
      "To": 715,
      "ep": 716,
      "mark": 717,
      "nter": 718,
      "axis": 719,
      "Hel": 720,
      "Loc": 721,
      "'%": 722,
      "bu": 723,
      "ge": 724,
      "report": 725,
      "Edi": 726,
      "back": 727,
      "date": 728,
      "get": 729,
      "help": 730,
      "ify": 731,
      "Selected": 732,
      "contain": 733,
      "insert": 734,
      "option": 735,
      "Load": 736,
      "successfully": 737,
      "Editor": 738,
      "ict": 739,
      "ran": 740,
      "plit": 741,
      "sure": 742,
      "group": 743,
      "eren": 744,
      "yout": 745,
      "Class": 746,
      "count": 747,
      "ach": 748,
      "user": 749,
      "mail": 750,
      "ified": 751,
      "position": 752,
      "editor": 753,
      "Font": 754,
      "tem": 755,
      "Sim": 756,
      "bar": 757,
      "tree": 758,
      "Current": 759,
      "pository": 760,
      "gle": 761,
      "led": 762,
      "writable": 763,
      "application": 764,
      "operations": 765,
      "Options": 766,
      "atus": 767,
      "requi": 768,
      "its": 769,
      "lose": 770,
      "while": 771,
      "ecut": 772,
      "write": 773,
      "Help": 774,
      "exist": 775,
      "value": 776,
      "enable": 777,
      "issing": 778,
      "ailable": 779,
      "ash": 780,
      "Inst": 781,
      "system": 782,
      "remote": 783,
      "ME": 784,
      "trib": 785,
      "unction": 786,
      "tribut": 787,
      "ide": 788,
      "ppl": 789,
      "det": 790,
      "created": 791,
      "ava": 792,
      "fol": 793,
      "may": 794,
      "rect": 795,
      "format": 796,
      "slot": 797,
      "Path": 798,
      "pix": 799,
      "process": 800,
      "Can": 801,
      "view": 802,
      "word": 803,
      "nder": 804,
      "symbol": 805,
      "Line": 806,
      "cam": 807,
      "docum": 808,
      "ss": 809,
      "key": 810,
      "Chang": 811,
      "tag": 812,
      "ich": 813,
      "Import": 814,
      "Mode": 815,
      "Cle": 816,
      "kig": 817,
      "over": 818,
      "height": 819,
      "aract": 820,
      "Display": 821,
      "create": 822,
      "make": 823,
      "compile": 824,
      "remove": 825,
      "kiga": 826,
      "Access": 827,
      "two": 828,
      "Debugger": 829,
      "General": 830,
      "eb": 831,
      "column": 832,
      "ft": 833,
      "ru": 834,
      "ry": 835,
      "way": 836,
      "any": 837,
      "which": 838,
      "erences": 839,
      "ses": 840,
      "Ab": 841,
      "last": 842,
      "required": 843,
      "without": 844,
      "leted": 845,
      "Run": 846,
      "snippet": 847,
      "oriz": 848,
      "Install": 849,
      "Make": 850,
      "Type": 851,
      "que": 852,
      "rint": 853,
      "follow": 854,
      "photo": 855,
      "inue": 856,
      "ite": 857,
      "cale": 858,
      "Res": 859,
      "base": 860,
      "free": 861,
      "more": 862,
      "Message": 863,
      "secon": 864,
      "specified": 865,
      "lic": 866,
      "ames": 867,
      "address": 868,
      "matic": 869,
      "drive": 870,
      "On": 871,
      "PI": 872,
      "nect": 873,
      "sto": 874,
      "time": 875,
      "oftw": 876,
      "charact": 877,
      "display": 878,
      "ulation": 879,
      "calls": 880,
      "ookmark": 881,
      "lank": 882,
      "oftware": 883,
      "Sy": 884,
      "Close": 885,
      "ffer": 886,
      "location": 887,
      "Manager": 888,
      "Accessible": 889,
      "Des": 890,
      "It": 891,
      "Qu": 892,
      "Appl": 893,
      "Find": 894,
      "Window": 895,
      "run": 896,
      "ari": 897,
      "default": 898,
      "Comp": 899,
      "ton": 900,
      "replace": 901,
      "commit": 902,
      "layout": 903,
      "number": 904,
      "object": 905,
      "main": 906,
      "config": 907,
      "ready": 908,
      "references": 909,
      "Highlight": 910,
      "orizont": 911,
      "Min": 912,
      "Object": 913,
      "een": 914,
      "me": 915,
      "thon": 916,
      "complete": 917,
      "folder": 918,
      "fore": 919,
      "rag": 920,
      "tom": 921,
      "Cannot": 922,
      "Le": 923,
      "Remote": 924,
      "Choose": 925,
      "contents": 926,
      "Commit": 927,
      "02": 928,
      "Wid": 929,
      "itial": 930,
      "show": 931,
      "review": 932,
      "work": 933,
      "Audio": 934,
      "orizontal": 935,
      "tk": 936,
      "als": 937,
      "dex": 938,
      "module": 939,
      "istant": 940,
      "Up": 941,
      "fin": 942,
      "been": 943,
      "Additional": 944,
      "side": 945,
      "lat": 946,
      "men": 947,
      "reg": 948,
      "ffect": 949,
      "compiler": 950,
      "ire": 951,
      "sor": 952,
      "Delete": 953,
      "supported": 954,
      "buffer": 955,
      "Cog": 956,
      "Ekiga": 957,
      "Java": 958,
      "before": 959,
      "Cogl": 960,
      "End": 961,
      "Ke": 962,
      "eight": 963,
      "nal": 964,
      "right": 965,
      "index": 966,
      "ie": 967,
      "item": 968,
      "generic": 969,
      "Al": 970,
      "Are": 971,
      "app": 972,
      "sound": 973,
      "alled": 974,
      "child": 975,
      "record": 976,
      "available": 977,
      "GNU": 978,
      "cor": 979,
      "four": 980,
      "jack": 981,
      "ven": 982,
      "seven": 983,
      "betw": 984,
      "six": 985,
      "Simulation": 986,
      "queen": 987,
      "between": 988,
      "Breakpoint": 989,
      "revision": 990,
      "ranch": 991,
      "Patch": 992,
      "ward": 993,
      "ler": 994,
      "rash": 995,
      "Module": 996,
      "tings": 997,
      "Color": 998,
      "af": 999,
      "fr": 1000,
      "ging": 1001,
      "need": 1002,
      "Data": 1003,
      "por": 1004,
      "already": 1005,
      "termin": 1006,
      "ches": 1007,
      "\"-": 1008,
      "Go": 1009,
      "cd": 1010,
      "execut": 1011,
      "order": 1012,
      "About": 1013,
      "Gr": 1014,
      "egr": 1015,
      "game": 1016,
      "itle": 1017,
      "occur": 1018,
      "five": 1019,
      "iB": 1020,
      "nine": 1021,
      "left": 1022,
      "three": 1023,
      "properties": 1024,
      "after": 1025,
      "Failed": 1026,
      "sav": 1027,
      "ansl": 1028,
      "Replace": 1029,
      "cards": 1030,
      "Copying": 1031,
      "button": 1032,
      "pane": 1033,
      "Log": 1034,
      "ha": 1035,
      "must": 1036,
      "save": 1037,
      "distribut": 1038,
      "install": 1039,
      "packages": 1040,
      "anim": 1041,
      "aly": 1042,
      "document": 1043,
      "ariable": 1044,
      "ID": 1045,
      "filter": 1046,
      "gh": 1047,
      "enabled": 1048,
      "following": 1049,
      "Bug": 1050,
      "Inter": 1051,
      "Po": 1052,
      "oom": 1053,
      "into": 1054,
      "manu": 1055,
      "accessible": 1056,
      "characters": 1057,
      "Writ": 1058,
      "mov": 1059,
      "burned": 1060,
      "Unknown": 1061,
      "Config": 1062,
      "Docum": 1063,
      "yle": 1064,
      "arning": 1065,
      "ared": 1066,
      "loading": 1067,
      "session": 1068,
      "AR": 1069,
      "Pack": 1070,
      "sum": 1071,
      "ility": 1072,
      "ublic": 1073,
      "installed": 1074,
      "Tool": 1075,
      "Folder": 1076,
      "Public": 1077,
      "gn": 1078,
      "ough": 1079,
      "interface": 1080,
      "Number": 1081,
      "font": 1082,
      "repository": 1083,
      "status": 1084,
      "choose": 1085,
      "ails": 1086,
      "Directory": 1087,
      "Previous": 1088,
      "Su": 1089,
      "them": 1090,
      "thor": 1091,
      "tories": 1092,
      "log": 1093,
      "additional": 1094,
      "symbolic": 1095,
      "Ac": 1096,
      "tach": 1097,
      "Rec": 1098,
      "Description": 1099,
      "angu": 1100,
      "Vert": 1101,
      "try": 1102,
      "output": 1103,
      "Dif": 1104,
      "Py": 1105,
      "brasero": 1106,
      "ron": 1107,
      "really": 1108,
      "Diff": 1109,
      "Max": 1110,
      "Target": 1111,
      "song": 1112,
      "coming": 1113,
      "ause": 1114,
      "letion": 1115,
      "Command": 1116,
      "Call": 1117,
      "Full": 1118,
      "medi": 1119,
      "pres": 1120,
      "see": 1121,
      "essages": 1122,
      "Play": 1123,
      "Preferences": 1124,
      "ear": 1125,
      "failed": 1126,
      "changed": 1127,
      "ignment": 1128,
      "Value": 1129,
      "Lib": 1130,
      "OME": 1131,
      "amet": 1132,
      "GNOME": 1133,
      "Out": 1134,
      "build": 1135,
      "page": 1136,
      "pos": 1137,
      "completion": 1138,
      "Split": 1139,
      "VCD": 1140,
      "function": 1141,
      "sign": 1142,
      "images": 1143,
      "searching": 1144,
      "seconds": 1145,
      "porary": 1146,
      "API": 1147,
      "Print": 1148,
      "Spe": 1149,
      "erent": 1150,
      "different": 1151,
      "Is": 1152,
      "Ren": 1153,
      "Snippet": 1154,
      "fill": 1155,
      "lock": 1156,
      "pixel": 1157,
      "Table": 1158,
      "ole": 1159,
      "Default": 1160,
      "Invalid": 1161,
      "debugger": 1162,
      "Mer": 1163,
      "Size": 1164,
      "Scale": 1165,
      "header": 1166,
      "played": 1167,
      "velop": 1168,
      "find": 1169,
      "02i": 1170,
      "menu": 1171,
      "Maximum": 1172,
      "AN": 1173,
      "Next": 1174,
      "Tag": 1175,
      "here": 1176,
      "provi": 1177,
      "resh": 1178,
      "aste": 1179,
      "description": 1180,
      "Missing": 1181,
      "another": 1182,
      "Properties": 1183,
      "indentation": 1184,
      "ult": 1185,
      "photos": 1186,
      "frame": 1187,
      "Ass": 1188,
      "Pass": 1189,
      "TH": 1190,
      "giv": 1191,
      "input": 1192,
      "andard": 1193,
      "speed": 1194,
      "Address": 1195,
      "most": 1196,
      "ized": 1197,
      "texture": 1198,
      "oggle": 1199,
      "Continue": 1200,
      "perty": 1201,
      "Generic": 1202,
      "Location": 1203,
      "ield": 1204,
      "given": 1205,
      "Center": 1206,
      "Toggle": 1207,
      "gth": 1208,
      "sc": 1209,
      "ister": 1210,
      "dif": 1211,
      "Trace": 1212,
      "local": 1213,
      "mailbox": 1214,
      "ameters": 1215,
      "Co": 1216,
      "Icon": 1217,
      "rot": 1218,
      "aces": 1219,
      "Column": 1220,
      "Header": 1221,
      "plement": 1222,
      "backend": 1223,
      "pare": 1224,
      "ension": 1225,
      "than": 1226,
      "suit": 1227,
      "ibility": 1228,
      "integr": 1229,
      "icture": 1230,
      "Package": 1231,
      "Ind": 1232,
      "nel": 1233,
      "Deal": 1234,
      "action": 1235,
      "targets": 1236,
      "opened": 1237,
      "Changes": 1238,
      "Update": 1239,
      "Python": 1240,
      "rotation": 1241,
      "Photo": 1242,
      "SD": 1243,
      "mis": 1244,
      "match": 1245,
      "previous": 1246,
      "ted": 1247,
      "ished": 1248,
      "rectories": 1249,
      "apply": 1250,
      "Blank": 1251,
      "Filter": 1252,
      "Time": 1253,
      "ently": 1254,
      "Revert": 1255,
      "Discard": 1256,
      "tableau": 1257,
      "detect": 1258,
      "Vertical": 1259,
      "possi": 1260,
      "Bookmark": 1261,
      "Sp": 1262,
      "Variable": 1263,
      "te": 1264,
      "inside": 1265,
      "era": 1266,
      "ixed": 1267,
      "board": 1268,
      "ivate": 1269,
      "debugging": 1270,
      "Symbol": 1271,
      "\".": 1272,
      "10": 1273,
      "GT": 1274,
      "lay": 1275,
      "split": 1276,
      "software": 1277,
      "under": 1278,
      "comment": 1279,
      "true": 1280,
      "Information": 1281,
      "Automatic": 1282,
      "GTK": 1283,
      "Not": 1284,
      "Zoom": 1285,
      "breakpoint": 1286,
      "Reg": 1287,
      "Dev": 1288,
      "clu": 1289,
      "tools": 1290,
      "package": 1291,
      "running": 1292,
      "Width": 1293,
      "Spec": 1294,
      "Ar": 1295,
      "User": 1296,
      "duration": 1297,
      "ktop": 1298,
      "net": 1299,
      "style": 1300,
      "ption": 1301,
      "angle": 1302,
      "arge": 1303,
      "added": 1304,
      "flict": 1305,
      "Clear": 1306,
      "EO": 1307,
      "MiB": 1308,
      "notify": 1309,
      "extension": 1310,
      "contact": 1311,
      "server": 1312,
      "links": 1313,
      "suitable": 1314,
      "Act": 1315,
      "cut": 1316,
      "down": 1317,
      "ele": 1318,
      "off": 1319,
      "Application": 1320,
      "ful": 1321,
      "edit": 1322,
      "ached": 1323,
      "tho": 1324,
      "trans": 1325,
      "Reset": 1326,
      "Insert": 1327,
      "settings": 1328,
      "lade": 1329,
      "Position": 1330,
      "1f": 1331,
      "Row": 1332,
      "Sign": 1333,
      "Stop": 1334,
      "ced": 1335,
      "inate": 1336,
      "erc": 1337,
      "rol": 1338,
      "ordinate": 1339,
      "Creating": 1340,
      "irst": 1341,
      "possible": 1342,
      "Found": 1343,
      "Horizontal": 1344,
      "Take": 1345,
      "sed": 1346,
      "acing": 1347,
      "camera": 1348,
      "Enter": 1349,
      "ese": 1350,
      "just": 1351,
      "retr": 1352,
      "ample": 1353,
      "utter": 1354,
      "DVDs": 1355,
      "foundation": 1356,
      "checksum": 1357,
      "Loading": 1358,
      "Lin": 1359,
      "Mail": 1360,
      "hi": 1361,
      "missing": 1362,
      "ices": 1363,
      "witch": 1364,
      "ground": 1365,
      "map": 1366,
      "where": 1367,
      "rupt": 1368,
      "configuration": 1369,
      "Bu": 1370,
      "Web": 1371,
      "ring": 1372,
      "len": 1373,
      "ret": 1374,
      "aries": 1375,
      "opup": 1376,
      "Minimum": 1377,
      "Hide": 1378,
      "Red": 1379,
      "isof": 1380,
      "dial": 1381,
      "argin": 1382,
      "ular": 1383,
      "Allow": 1384,
      "widget": 1385,
      "Clean": 1386,
      "saved": 1387,
      "Libr": 1388,
      "parent": 1389,
      "isofs": 1390,
      "IP": 1391,
      "too": 1392,
      "acity": 1393,
      "Revision": 1394,
      "cursor": 1395,
      "Convert": 1396,
      "Trans": 1397,
      "raw": 1398,
      "ffects": 1399,
      ").": 1400,
      "MD": 1401,
      "ker": 1402,
      "urface": 1403,
      "plate": 1404,
      "unknown": 1405,
      "click": 1406,
      "currently": 1407,
      "Click": 1408,
      "Common": 1409,
      "doesn": 1410,
      "Configure": 1411,
      "Rename": 1412,
      "At": 1413,
      "Card": 1414,
      "Switch": 1415,
      "bur": 1416,
      "crash": 1417,
      "da": 1418,
      "ell": 1419,
      "mal": 1420,
      "web": 1421,
      "coordinate": 1422,
      "igger": 1423,
      "dden": 1424,
      "Selection": 1425,
      "playlist": 1426,
      "Height": 1427,
      "temporary": 1428,
      "media": 1429,
      "Back": 1430,
      "hint": 1431,
      "messages": 1432,
      "part": 1433,
      "account": 1434,
      "connect": 1435,
      "Base": 1436,
      "Free": 1437,
      "ph": 1438,
      "pth": 1439,
      "initial": 1440,
      "ream": 1441,
      "atches": 1442,
      "ottom": 1443,
      "property": 1444,
      "bel": 1445,
      "cho": 1446,
      "Contents": 1447,
      "URL": 1448,
      "request": 1449,
      "Merge": 1450,
      "Hy": 1451,
      "ume": 1452,
      "ock": 1453,
      "aving": 1454,
      "videos": 1455,
      "Group": 1456,
      "acc": 1457,
      "Device": 1458,
      "Should": 1459,
      "written": 1460,
      "Assistant": 1461,
      "Str": 1462,
      "branch": 1463,
      "nat": 1464,
      "nch": 1465,
      "pass": 1466,
      "rate": 1467,
      "tim": 1468,
      "rece": 1469,
      "transl": 1470,
      "sub": 1471,
      "Requ": 1472,
      "Repository": 1473,
      "valu": 1474,
      "contains": 1475,
      "details": 1476,
      "element": 1477,
      "Gtk": 1478,
      "PA": 1479,
      "mit": 1480,
      "preview": 1481,
      "develop": 1482,
      "entry": 1483,
      "max": 1484,
      "tracks": 1485,
      "desktop": 1486,
      "Keep": 1487,
      "animation": 1488,
      "pixels": 1489,
      "length": 1490,
      "pile": 1491,
      "ures": 1492,
      "least": 1493,
      "along": 1494,
      "root": 1495,
      "acce": 1496,
      "disk": 1497,
      "term": 1498,
      "usy": 1499,
      "resol": 1500,
      "host": 1501,
      "refer": 1502,
      "Quit": 1503,
      "Alp": 1504,
      "Glade": 1505,
      "IS": 1506,
      "Ret": 1507,
      "Ser": 1508,
      "center": 1509,
      "large": 1510,
      "enough": 1511,
      "around": 1512,
      "ask": 1513,
      "ement": 1514,
      "orted": 1515,
      "Clutter": 1516,
      "fullscreen": 1517,
      "tags": 1518,
      "based": 1519,
      "terminal": 1520,
      "Devhelp": 1521,
      "EOL": 1522,
      "dao": 1523,
      "Alpha": 1524,
      "As": 1525,
      "ded": 1526,
      "gen": 1527,
      "ike": 1528,
      "level": 1529,
      "clip": 1530,
      "Change": 1531,
      "Drag": 1532,
      "GL": 1533,
      "popup": 1534,
      "erve": 1535,
      "attach": 1536,
      "alignment": 1537,
      "rop": 1538,
      "again": 1539,
      "ustom": 1540,
      "Initial": 1541,
      "Status": 1542,
      "Angle": 1543,
      "Shared": 1544,
      "assistant": 1545,
      "loaded": 1546,
      "working": 1547,
      "lanking": 1548,
      "panel": 1549,
      "ways": 1550,
      "Writing": 1551,
      "integrity": 1552,
      "Pix": 1553,
      "please": 1554,
      "defin": 1555,
      "directories": 1556,
      "ortcut": 1557,
      "ush": 1558,
      "lost": 1559,
      "Analy": 1560,
      "content": 1561,
      "Currently": 1562,
      "later": 1563,
      "%.": 1564,
      "Ad": 1565,
      "App": 1566,
      "aire": 1567,
      "hand": 1568,
      "pri": 1569,
      "ved": 1570,
      "incoming": 1571,
      "reco": 1572,
      "itaire": 1573,
      "forward": 1574,
      "chor": 1575,
      "olitaire": 1576,
      "disable": 1577,
      "Ref": 1578,
      "modif": 1579,
      "ization": 1580,
      "umbers": 1581,
      "needs": 1582,
      "anguage": 1583,
      "recogn": 1584,
      "Brow": 1585,
      "Cance": 1586,
      "Det": 1587,
      "Par": 1588,
      "Title": 1589,
      "go": 1590,
      "hell": 1591,
      "ith": 1592,
      "iple": 1593,
      "automatic": 1594,
      "eving": 1595,
      "Windows": 1596,
      "Key": 1597,
      "Send": 1598,
      "Software": 1599,
      "Ter": 1600,
      "so": 1601,
      "istory": 1602,
      "ural": 1603,
      "ution": 1604,
      "veral": 1605,
      "libraries": 1606,
      "Cheese": 1607,
      "Apply": 1608,
      "occurred": 1609,
      "dialog": 1610,
      "+)": 1611,
      "RO": 1612,
      "bookmark": 1613,
      "cap": 1614,
      "ding": 1615,
      "highlight": 1616,
      "title": 1617,
      "rection": 1618,
      "standard": 1619,
      "proper": 1620,
      "implement": 1621,
      "credit": 1622,
      "Author": 1623,
      "hidden": 1624,
      "Library": 1625,
      "Retri": 1626,
      "credits": 1627,
      "IT": 1628,
      "blank": 1629,
      "busy": 1630,
      "fo": 1631,
      "hold": 1632,
      "io": 1633,
      "ian": 1634,
      "emb": 1635,
      "allow": 1636,
      "ddy": 1637,
      "CDs": 1638,
      "actions": 1639,
      "ANT": 1640,
      "Foundation": 1641,
      "Bo": 1642,
      "Drop": 1643,
      "IC": 1644,
      "OS": 1645,
      "field": 1646,
      "move": 1647,
      "tab": 1648,
      "inal": 1649,
      "aling": 1650,
      "agement": 1651,
      "ading": 1652,
      "ndo": 1653,
      "reserve": 1654,
      "Stat": 1655,
      "management": 1656,
      "template": 1657,
      "exists": 1658,
      "manual": 1659,
      "manually": 1660,
      "ultiple": 1661,
      "mission": 1662,
      "23": 1663,
      "Branch": 1664,
      "RW": 1665,
      "Warning": 1666,
      "ient": 1667,
      "scan": 1668,
      "ual": 1669,
      "ured": 1670,
      "warning": 1671,
      "asing": 1672,
      "ession": 1673,
      "oci": 1674,
      "discs": 1675,
      "aph": 1676,
      "eline": 1677,
      "Resol": 1678,
      "24": 1679,
      "La": 1680,
      "Session": 1681,
      "Watch": 1682,
      "ither": 1683,
      "ence": 1684,
      "ashe": 1685,
      "viron": 1686,
      "Connect": 1687,
      "update": 1688,
      "instance": 1689,
      "Cursor": 1690,
      "Vala": 1691,
      "register": 1692,
      "translator": 1693,
      "Retrieving": 1694,
      "vironment": 1695,
      "(.": 1696,
      "FO": 1697,
      "Get": 1698,
      "Nor": 1699,
      "Song": 1700,
      "ait": 1701,
      "gress": 1702,
      "horizontal": 1703,
      "like": 1704,
      "mm": 1705,
      "itive": 1706,
      "spaces": 1707,
      "suite": 1708,
      "ango": 1709,
      "peat": 1710,
      "adding": 1711,
      "active": 1712,
      "about": 1713,
      "automake": 1714,
      "vertical": 1715,
      "even": 1716,
      "snippets": 1717,
      "cdrecord": 1718,
      "Indentation": 1719,
      "ISO": 1720,
      "Sing": 1721,
      "Scan": 1722,
      "Script": 1723,
      "med": 1724,
      "waste": 1725,
      "onent": 1726,
      "ernal": 1727,
      "tore": 1728,
      "analy": 1729,
      "still": 1730,
      "string": 1731,
      "immed": 1732,
      "etc": 1733,
      "external": 1734,
      "Execut": 1735,
      "cdr": 1736,
      "Password": 1737,
      "Cancel": 1738,
      "Termin": 1739,
      "Single": 1740,
      "Book": 1741,
      "List": 1742,
      "etho": 1743,
      "first": 1744,
      "lu": 1745,
      "lon": 1746,
      "nam": 1747,
      "patch": 1748,
      "sile": 1749,
      "sim": 1750,
      "separ": 1751,
      "ality": 1752,
      "rope": 1753,
      "deleted": 1754,
      "oth": 1755,
      "state": 1756,
      "thing": 1757,
      "imal": 1758,
      "import": 1759,
      "See": 1760,
      "spect": 1761,
      "associ": 1762,
      "reported": 1763,
      "Snippets": 1764,
      "values": 1765,
      "silen": 1766,
      "IN": 1767,
      "jo": 1768,
      "invalid": 1769,
      "delete": 1770,
      "otation": 1771,
      "uments": 1772,
      "ording": 1773,
      "rows": 1774,
      "toolbar": 1775,
      "driver": 1776,
      "accessibility": 1777,
      "Recent": 1778,
      "Buddy": 1779,
      "properly": 1780,
      "Terminal": 1781,
      "Function": 1782,
      "Final": 1783,
      "Rotation": 1784,
      "Tem": 1785,
      "ered": 1786,
      "games": 1787,
      "iev": 1788,
      "print": 1789,
      "sitive": 1790,
      "ensitive": 1791,
      "stat": 1792,
      "olume": 1793,
      "activate": 1794,
      "writing": 1795,
      "minimum": 1796,
      "rupted": 1797,
      "MA": 1798,
      "bit": 1799,
      "drag": 1800,
      "each": 1801,
      "ority": 1802,
      "exit": 1803,
      "Transl": 1804,
      "ived": 1805,
      "parameters": 1806,
      "rectly": 1807,
      "Widget": 1808,
      "songs": 1809,
      "Refresh": 1810,
      "Off": 1811,
      "Undo": 1812,
      "bound": 1813,
      "numbers": 1814,
      "ocation": 1815,
      "cell": 1816,
      "trigger": 1817,
      "useful": 1818,
      "setup": 1819,
      "Plugins": 1820,
      "interval": 1821,
      "programs": 1822,
      "python": 1823,
      "Local": 1824,
      "Only": 1825,
      "lative": 1826,
      "children": 1827,
      "provide": 1828,
      "Specify": 1829,
      "245": 1830,
      "):": 1831,
      "Fast": 1832,
      "Wor": 1833,
      "stop": 1834,
      "ty": 1835,
      "acro": 1836,
      "example": 1837,
      "Stream": 1838,
      "URIs": 1839,
      "stored": 1840,
      "appear": 1841,
      "distribution": 1842,
      "moved": 1843,
      "SDL": 1844,
      "going": 1845,
      "associated": 1846,
      "(\\\\": 1847,
      ")?": 1848,
      "+\\\\": 1849,
      "Ax": 1850,
      "Ais": 1851,
      "Game": 1852,
      "TS": 1853,
      "Xlib": 1854,
      "[\\\\": 1855,
      "])?": 1856,
      "bin": 1857,
      "ever": 1858,
      "history": 1859,
      "ates": 1860,
      "enc": 1861,
      "stash": 1862,
      "projects": 1863,
      "tran": 1864,
      "tern": 1865,
      "Reload": 1866,
      "permission": 1867,
      "Forward": 1868,
      "existing": 1869,
      "columns": 1870,
      "second": 1871,
      "Adjust": 1872,
      "+\\\\])?": 1873,
      "Aisle": 1874,
      "+\\\\])?:": 1875,
      "Block": 1876,
      "Note": 1877,
      "OT": 1878,
      "Vis": 1879,
      "don": 1880,
      "gin": 1881,
      "lished": 1882,
      "mary": 1883,
      "mpty": 1884,
      "picture": 1885,
      "rang": 1886,
      "ise": 1887,
      "ntil": 1888,
      "ump": 1889,
      "lob": 1890,
      "conflict": 1891,
      "startup": 1892,
      "execute": 1893,
      "pression": 1894,
      "60": 1895,
      "660": 1896,
      "9660": 1897,
      "Atk": 1898,
      "Ca": 1899,
      "Est": 1900,
      "IL": 1901,
      "SVCD": 1902,
      "blanking": 1903,
      "fil": 1904,
      "factor": 1905,
      "fixed": 1906,
      "gor": 1907,
      "ken": 1908,
      "ness": 1909,
      "send": 1910,
      "until": 1911,
      "roken": 1912,
      "profile": 1913,
      "pping": 1914,
      "ification": 1915,
      "crease": 1916,
      "control": 1917,
      "Comment": 1918,
      "Track": 1919,
      "Content": 1920,
      "Account": 1921,
      "anguages": 1922,
      "Mailbox": 1923,
      "MD5": 1924,
      "burst": 1925,
      "String": 1926,
      "Analysing": 1927,
      "holding": 1928,
      "ISO9660": 1929,
      "AtkHy": 1930,
      "%%": 1931,
      "Av": 1932,
      "Git": 1933,
      "PL": 1934,
      "Under": 1935,
      "fold": 1936,
      "ne": 1937,
      "pped": 1938,
      "whole": 1939,
      "perlink": 1940,
      "Direction": 1941,
      "Attach": 1942,
      "received": 1943,
      "defined": 1944,
      "Normal": 1945,
      "Estim": 1946,
      "Available": 1947,
      "Metho": 1948,
      "Preview": 1949,
      "Picture": 1950,
      "Trash": 1951,
      "aking": 1952,
      "press": 1953,
      "prefer": 1954,
      "script": 1955,
      "scale": 1956,
      "und": 1957,
      "reached": 1958,
      "atl": 1959,
      "depth": 1960,
      "uring": 1961,
      "stage": 1962,
      "keep": 1963,
      "Stash": 1964,
      "class": 1965,
      "quality": 1966,
      "Valid": 1967,
      "Forced": 1968,
      "buf": 1969,
      "rectangle": 1970,
      "store": 1971,
      "clude": 1972,
      "Redo": 1973,
      "PATH": 1974,
      "Date": 1975,
      "ER": 1976,
      "Mark": 1977,
      "Margin": 1978,
      "Sto": 1979,
      "Some": 1980,
      "SIP": 1981,
      "Ver": 1982,
      "With": 1983,
      "cause": 1984,
      "step": 1985,
      "below": 1986,
      "Copies": 1987,
      "Settings": 1988,
      "label": 1989,
      "Exp": 1990,
      "something": 1991,
      "Document": 1992,
      "scaling": 1993,
      "Layout": 1994,
      "Fr": 1995,
      "SS": 1996,
      "Sk": 1997,
      "WAR": 1998,
      "ead": 1999,
      "fail": 2000,
      "wait": 2001,
      "relative": 2002,
      "their": 2003,
      "eric": 2004,
      "stra": 2005,
      "sive": 2006,
      "rast": 2007,
      "ended": 2008,
      "Child": 2009,
      "slices": 2010,
      "opening": 2011,
      "instead": 2012,
      "operation": 2013,
      "ranches": 2014,
      "rightness": 2015,
      "corrupted": 2016,
      "Fullscreen": 2017,
      "Variables": 2018,
      "timeline": 2019,
      "maximum": 2020,
      "Parameters": 2021,
      "lobal": 2022,
      "straint": 2023,
      "\",": 2024,
      "OV": 2025,
      "book": 2026,
      "bottom": 2027,
      "either": 2028,
      "pha": 2029,
      "test": 2030,
      "rewritable": 2031,
      "alpha": 2032,
      "roll": 2033,
      "author": 2034,
      "ources": 2035,
      "lying": 2036,
      "Try": 2037,
      "perform": 2038,
      "finished": 2039,
      "Interface": 2040,
      "automatically": 2041,
      "Underline": 2042,
      "Cover": 2043,
      "Nat": 2044,
      "bind": 2045,
      "foc": 2046,
      "same": 2047,
      "surface": 2048,
      "xx": 2049,
      "zill": 2050,
      "atio": 2051,
      "ouse": 2052,
      "icator": 2053,
      "ilt": 2054,
      "bet": 2055,
      "email": 2056,
      "aunch": 2057,
      "usable": 2058,
      "continue": 2059,
      "compat": 2060,
      "izing": 2061,
      "dual": 2062,
      "parse": 2063,
      "codec": 2064,
      "Format": 2065,
      "Loaded": 2066,
      "Completed": 2067,
      "executable": 2068,
      "Documentation": 2069,
      "Spacing": 2070,
      "underlying": 2071,
      "Signal": 2072,
      "return": 2073,
      "Browse": 2074,
      "ember": 2075,
      "joker": 2076,
      "Axis": 2077,
      "range": 2078,
      "zilla": 2079,
      "Int": 2080,
      "Other": 2081,
      "Solitaire": 2082,
      "Tab": 2083,
      "eous": 2084,
      "effect": 2085,
      "hop": 2086,
      "nc": 2087,
      "taking": 2088,
      "war": 2089,
      "ities": 2090,
      "rost": 2091,
      "Adds": 2092,
      "words": 2093,
      "applications": 2094,
      "Makefile": 2095,
      "stock": 2096,
      "Leaving": 2097,
      "Alignment": 2098,
      "saving": 2099,
      "Configuration": 2100,
      "gnome": 2101,
      "clipboard": 2102,
      "Working": 2103,
      "roster": 2104,
      "323": 2105,
      "Dashe": 2106,
      "Home": 2107,
      "Main": 2108,
      "Pause": 2109,
      "Top": 2110,
      "UL": 2111,
      "Wh": 2112,
      "border": 2113,
      "case": 2114,
      "java": 2115,
      "multiple": 2116,
      "names": 2117,
      "urope": 2118,
      "wo": 2119,
      "won": 2120,
      "lex": 2121,
      "removed": 2122,
      "role": 2123,
      "icon": 2124,
      "sult": 2125,
      "shader": 2126,
      "shared": 2127,
      "aborted": 2128,
      "autocompletion": 2129,
      "event": 2130,
      "committed": 2131,
      "Entering": 2132,
      "retriev": 2133,
      "Webcam": 2134,
      "ellip": 2135,
      "Append": 2136,
      "Translation": 2137,
      "Dasher": 2138,
      "retrieved": 2139,
      "Effects": 2140,
      "Empty": 2141,
      "Pre": 2142,
      "Shell": 2143,
      "Task": 2144,
      "hard": 2145,
      "long": 2146,
      "launch": 2147,
      "pre": 2148,
      "ish": 2149,
      "Shortcut": 2150,
      "contin": 2151,
      "many": 2152,
      "Conflict": 2153,
      "Contain": 2154,
      "commands": 2155,
      "copying": 2156,
      "One": 2157,
      "Breakpoints": 2158,
      "THO": 2159,
      "Bookmarks": 2160,
      "acceler": 2161,
      "recognized": 2162,
      "cdrdao": 2163,
      "bitrate": 2164,
      "Cy": 2165,
      "Europe": 2166,
      "GiB": 2167,
      "Language": 2168,
      "ML": 2169,
      "Of": 2170,
      "Per": 2171,
      "Right": 2172,
      "broken": 2173,
      "cle": 2174,
      "db": 2175,
      "pr": 2176,
      "rill": 2177,
      "ination": 2178,
      "aturation": 2179,
      "ouble": 2180,
      "etry": 2181,
      "ometry": 2182,
      "completed": 2183,
      "Impossible": 2184,
      "readable": 2185,
      "estination": 2186,
      "lines": 2187,
      "caption": 2188,
      "geometry": 2189,
      "overburn": 2190,
      "Ongoing": 2191,
      "correctly": 2192,
      "distributed": 2193,
      "Write": 2194,
      "Tools": 2195,
      "layer": 2196,
      "Register": 2197,
      "widgets": 2198,
      "webcam": 2199,
      "developers": 2200,
      "AtkHyperlink": 2201,
      "Cyrill": 2202,
      "Cyrillic": 2203,
      "Double": 2204,
      "Email": 2205,
      "Ig": 2206,
      "Last": 2207,
      "Push": 2208,
      "SL": 2209,
      "cue": 2210,
      "blem": 2211,
      "coding": 2212,
      "avity": 2213,
      "Environment": 2214,
      "internal": 2215,
      "containing": 2216,
      "inserted": 2217,
      "pixmap": 2218,
      "Gravity": 2219,
      "Automatically": 2220,
      "Arg": 2221,
      "Pixmap": 2222,
      "Widgets": 2223,
      "Estimated": 2224,
      "Version": 2225,
      "Igno": 2226,
      "00": 2227,
      "DA": 2228,
      "Duration": 2229,
      "Paste": 2230,
      "Your": 2231,
      "custom": 2232,
      "draw": 2233,
      "race": 2234,
      "rap": 2235,
      "tip": 2236,
      "volume": 2237,
      "wide": 2238,
      "oni": 2239,
      "several": 2240,
      "asic": 2241,
      "aditional": 2242,
      "ets": 2243,
      "olds": 2244,
      "ugg": 2245,
      "allocation": 2246,
      "graph": 2247,
      "component": 2248,
      "cheme": 2249,
      "single": 2250,
      "paths": 2251,
      "Enabled": 2252,
      "execution": 2253,
      "moving": 2254,
      "Allows": 2255,
      "Transform": 2256,
      "capab": 2257,
      "named": 2258,
      "silence": 2259,
      "Skip": 2260,
      "BSD": 2261,
      "Basic": 2262,
      "Ev": 2263,
      "Item": 2264,
      "Surface": 2265,
      "ature": 2266,
      "org": 2267,
      "iser": 2268,
      "ics": 2269,
      "problem": 2270,
      "etch": 2271,
      "suff": 2272,
      "Standard": 2273,
      "reading": 2274,
      "Copyright": 2275,
      "node": 2276,
      "autogen": 2277,
      "answ": 2278,
      "specify": 2279,
      "displayed": 2280,
      "Quick": 2281,
      "Leave": 2282,
      "ieve": 2283,
      "items": 2284,
      "terminated": 2285,
      "transmit": 2286,
      "erciser": 2287,
      "Link": 2288,
      "Background": 2289,
      "resolution": 2290,
      "Details": 2291,
      "Expand": 2292,
      "Arguments": 2293,
      "Bad": 2294,
      "Eject": 2295,
      "during": 2296,
      "fix": 2297,
      "ht": 2298,
      "margin": 2299,
      "parts": 2300,
      "ratio": 2301,
      "render": 2302,
      "dec": 2303,
      "expression": 2304,
      "Read": 2305,
      "Repeat": 2306,
      "recent": 2307,
      "recently": 2308,
      "Remember": 2309,
      "conds": 2310,
      "setting": 2311,
      "textures": 2312,
      "libisofs": 2313,
      "Clip": 2314,
      "Contact": 2315,
      "Control": 2316,
      "pertext": 2317,
      "ivated": 2318,
      "visible": 2319,
      "countdown": 2320,
      "Compile": 2321,
      "Patching": 2322,
      "distribute": 2323,
      "Bugzilla": 2324,
      "Toolbar": 2325,
      "reshold": 2326,
      "Icons": 2327,
      "ercase": 2328,
      "retrieve": 2329,
      "Server": 2330,
      "priority": 2331,
      "Adjusts": 2332,
      "atlas": 2333,
      "ellipse": 2334,
      "onitor": 2335,
      ".)": 2336,
      "BD": 2337,
      "Dj": 2338,
      "GStream": 2339,
      "Messages": 2340,
      "TO": 2341,
      "XML": 2342,
      "ier": 2343,
      "pend": 2344,
      "take": 2345,
      "“%": 2346,
      "begin": 2347,
      "Profile": 2348,
      "indicator": 2349,
      "unable": 2350,
      "Input": 2351,
      "players": 2352,
      "Implement": 2353,
      "Conf": 2354,
      "Django": 2355,
      "GStreamer": 2356,
      "Jump": 2357,
      "Mis": 2358,
      "Ne": 2359,
      "Sco": 2360,
      "Sum": 2361,
      "close": 2362,
      "dock": 2363,
      "eject": 2364,
      "nol": 2365,
      "site": 2366,
      "tance": 2367,
      "zer": 2368,
      "theref": 2369,
      "anchor": 2370,
      "arb": 2371,
      "being": 2372,
      "chnol": 2373,
      "Real": 2374,
      "area": 2375,
      "unnel": 2376,
      "ident": 2377,
      "Include": 2378,
      "Anchor": 2379,
      "cance": 2380,
      "comput": 2381,
      "Uncomment": 2382,
      "ogy": 2383,
      "above": 2384,
      "refix": 2385,
      "pixbuf": 2386,
      "Restore": 2387,
      "character": 2388,
      "JavaScript": 2389,
      "moves": 2390,
      "technol": 2391,
      "100": 2392,
      "initialize": 2393,
      "native": 2394,
      "natural": 2395,
      "Request": 2396,
      "elements": 2397,
      "GtkSource": 2398,
      "development": 2399,
      "forwarded": 2400,
      "disabled": 2401,
      "modify": 2402,
      "implemented": 2403,
      "tabs": 2404,
      "compatible": 2405,
      "Summary": 2406,
      "therefore": 2407,
      "unneling": 2408,
      "technology": 2409,
      "AB": 2410,
      "Bottom": 2411,
      "ESS": 2412,
      "Hint": 2413,
      "Id": 2414,
      "Page": 2415,
      "Ri": 2416,
      "UT": 2417,
      "Would": 2418,
      "ekiga": 2419,
      "fast": 2420,
      "lf": 2421,
      "mart": 2422,
      "ued": 2423,
      "variable": 2424,
      "resp": 2425,
      "they": 2426,
      "seem": 2427,
      "plied": 2428,
      "spend": 2429,
      "Process": 2430,
      "Progress": 2431,
      "clar": 2432,
      "ooser": 2433,
      "collect": 2434,
      "locally": 2435,
      "estions": 2436,
      "Modif": 2437,
      "applied": 2438,
      "capt": 2439,
      "Manual": 2440,
      "documents": 2441,
      "Left": 2442,
      "occurren": 2443,
      "Documents": 2444,
      "edited": 2445,
      "terms": 2446,
      "Ask": 2447,
      "Static": 2448,
      "Integr": 2449,
      "respon": 2450,
      "CH": 2451,
      "CR": 2452,
      "Ctr": 2453,
      "Fill": 2454,
      "FIT": 2455,
      "ITHO": 2456,
      "LF": 2457,
      "NESS": 2458,
      "PUR": 2459,
      "PAR": 2460,
      "POS": 2461,
      "Role": 2462,
      "RANT": 2463,
      "RCH": 2464,
      "Slic": 2465,
      "TIC": 2466,
      "WITHO": 2467,
      "cras": 2468,
      "dy": 2469,
      "languages": 2470,
      "mouse": 2471,
      "pub": 2472,
      "patches": 2473,
      "rant": 2474,
      "tached": 2475,
      "zoom": 2476,
      "hes": 2477,
      "result": 2478,
      "redistribute": 2479,
      "anum": 2480,
      "section": 2481,
      "alph": 2482,
      "iles": 2483,
      "ected": 2484,
      "dir": 2485,
      "implied": 2486,
      "opacity": 2487,
      "such": 2488,
      "Develop": 2489,
      "ider": 2490,
      "Step": 2491,
      "Style": 2492,
      "letter": 2493,
      "series": 2494,
      "Builder": 2495,
      "generator": 2496,
      "MERCH": 2497,
      "tributes": 2498,
      "frames": 2499,
      "Playlist": 2500,
      "ANY": 2501,
      "network": 2502,
      "Require": 2503,
      "accept": 2504,
      "ITY": 2505,
      "ANTAB": 2506,
      "Resolve": 2507,
      "FOR": 2508,
      "Visible": 2509,
      "conflicts": 2510,
      "ILITY": 2511,
      "Method": 2512,
      "WARRANT": 2513,
      "Natural": 2514,
      "hope": 2515,
      "warrant": 2516,
      "ULAR": 2517,
      "continued": 2518,
      "answer": 2519,
      "Ctrl": 2520,
      "FITNESS": 2521,
      "PURPOS": 2522,
      "PARTIC": 2523,
      "WITHOUT": 2524,
      "published": 2525,
      "anumeric": 2526,
      "alphanumeric": 2527,
      "MERCHANTAB": 2528,
      "WARRANTY": 2529,
      "warranty": 2530,
      "PURPOSE": 2531,
      "PARTICULAR": 2532,
      "MERCHANTABILITY": 2533,
      "DE": 2534,
      "Down": 2535,
      "Dock": 2536,
      "Field": 2537,
      "GObject": 2538,
      "IMA": 2539,
      "Sensitive": 2540,
      "Who": 2541,
      "clo": 2542,
      "effects": 2543,
      "pied": 2544,
      "usu": 2545,
      "attached": 2546,
      "copied": 2547,
      "did": 2548,
      "ements": 2549,
      "ategor": 2550,
      "extra": 2551,
      "discard": 2552,
      "Info": 2553,
      "creation": 2554,
      "change": 2555,
      "rowisofs": 2556,
      "metho": 2557,
      "Such": 2558,
      "nchron": 2559,
      "password": 2560,
      "ICE": 2561,
      "Frame": 2562,
      "Contains": 2563,
      "Ignore": 2564,
      "GtkSourceView": 2565,
      "Whole": 2566,
      "closing": 2567,
      "usually": 2568,
      "Be": 2569,
      "Border": 2570,
      "Blu": 2571,
      "Custom": 2572,
      "COV": 2573,
      "Categor": 2574,
      "Don": 2575,
      "From": 2576,
      "Fixed": 2577,
      "First": 2578,
      "Has": 2579,
      "Patches": 2580,
      "SA": 2581,
      "dition": 2582,
      "met": 2583,
      "mport": 2584,
      "pol": 2585,
      "preferences": 2586,
      "pret": 2587,
      "push": 2588,
      "ray": 2589,
      "scheme": 2590,
      "ves": 2591,
      "annel": 2592,
      "sequ": 2593,
      "ilities": 2594,
      "chooser": 2595,
      "Repl": 2596,
      "Depth": 2597,
      "ournal": 2598,
      "istics": 2599,
      "burner": 2600,
      "ood": 2601,
      "versions": 2602,
      "Creator": 2603,
      "Threshold": 2604,
      "database": 2605,
      "drives": 2606,
      "anyway": 2607,
      "workaround": 2608,
      "region": 2609,
      "recording": 2610,
      "Support": 2611,
      "signal": 2612,
      "Tags": 2613,
      "provided": 2614,
      "detected": 2615,
      "breakpoints": 2616,
      "burnt": 2617,
      "chose": 2618,
      "according": 2619,
      "mmc": 2620,
      "Temporary": 2621,
      "statements": 2622,
      "exited": 2623,
      "setups": 2624,
      "performed": 2625,
      "claration": 2626,
      "captured": 2627,
      "COVER": 2628,
      "sequence": 2629,
      "CP": 2630,
      "Fl": 2631,
      "Macro": 2632,
      "Tot": 2633,
      "brightness": 2634,
      "doc": 2635,
      "fe": 2636,
      "fal": 2637,
      "growisofs": 2638,
      "tic": 2639,
      "head": 2640,
      "atable": 2641,
      "icient": 2642,
      "dig": 2643,
      "imized": 2644,
      "recur": 2645,
      "Filename": 2646,
      "contrast": 2647,
      "aven": 2648,
      "Creates": 2649,
      "estion": 2650,
      "Export": 2651,
      "Lock": 2652,
      "configure": 2653,
      "Interrupt": 2654,
      "Indent": 2655,
      "simple": 2656,
      "separated": 2657,
      "folders": 2658,
      "preferred": 2659,
      "Stock": 2660,
      "sufficient": 2661,
      "Total": 2662,
      "false": 2663,
      "\":": 2664,
      "GPL": 2665,
      "HA": 2666,
      "How": 2667,
      "Pick": 2668,
      "ST": 2669,
      "SHA": 2670,
      "Tim": 2671,
      "UN": 2672,
      "gl": 2673,
      "gine": 2674,
      "license": 2675,
      "language": 2676,
      "oot": 2677,
      "sol": 2678,
      "utor": 2679,
      "vas": 2680,
      "xy": 2681,
      "leading": 2682,
      "onfig": 2683,
      "reload": 2684,
      "restart": 2685,
      "remain": 2686,
      "engine": 2687,
      "amount": 2688,
      "thir": 2689,
      "Several": 2690,
      "inese": 2691,
      "Anim": 2692,
      "canvas": 2693,
      "cons": 2694,
      "shortcut": 2695,
      "Chinese": 2696,
      "Opacity": 2697,
      "Burner": 2698,
      "Generator": 2699,
      "paring": 2700,
      "Directories": 2701,
      "Force": 2702,
      "container": 2703,
      "Acc": 2704,
      "Rede": 2705,
      "MDI": 2706,
      "resolved": 2707,
      "Connection": 2708,
      "typ": 2709,
      "filing": 2710,
      "failure": 2711,
      "Preparing": 2712,
      "graphical": 2713,
      "transmitted": 2714,
      "crashed": 2715,
      "results": 2716,
      "recursive": 2717,
      "STUN": 2718,
      "third": 2719,
      "51": 2720,
      "Cent": 2721,
      "DT": 2722,
      "IME": 2723,
      "Len": 2724,
      "MIME": 2725,
      "Pa": 2726,
      "Squ": 2727,
      "block": 2728,
      "ee": 2729,
      "how": 2730,
      "mpile": 2731,
      "now": 2732,
      "rain": 2733,
      "vo": 2734,
      "vari": 2735,
      "—%": 2736,
      "progress": 2737,
      "utes": 2738,
      "Report": 2739,
      "Added": 2740,
      "compiled": 2741,
      "libburn": 2742,
      "minimal": 2743,
      "Head": 2744,
      "also": 2745,
      "regular": 2746,
      "Recording": 2747,
      "present": 2748,
      "scroll": 2749,
      "connection": 2750,
      "transition": 2751,
      "tips": 2752,
      "remaining": 2753,
      "Length": 2754,
      "'(.": 2755,
      "),": 2756,
      ".%": 2757,
      "200": 2758,
      "AT": 2759,
      "Cell": 2760,
      "FF": 2761,
      "Global": 2762,
      "LDA": 2763,
      "Monitor": 2764,
      "Net": 2765,
      "Over": 2766,
      "OFF": 2767,
      "Saving": 2768,
      "Sorted": 2769,
      "Tunneling": 2770,
      "`(.": 2771,
      "bre": 2772,
      "kit": 2773,
      "ms": 2774,
      "might": 2775,
      "ned": 2776,
      "shell": 2777,
      "tp": 2778,
      "thent": 2779,
      "erial": 2780,
      "orig": 2781,
      "eneous": 2782,
      "force": 2783,
      "channel": 2784,
      "spacing": 2785,
      "omog": 2786,
      "illise": 2787,
      "Inspect": 2788,
      "riot": 2789,
      "State": 2790,
      "Stack": 2791,
      "When": 2792,
      "Conver": 2793,
      "Constraint": 2794,
      "service": 2795,
      "Starting": 2796,
      "ipping": 2797,
      "requently": 2798,
      "Hebre": 2799,
      "events": 2800,
      "Simple": 2801,
      "ruct": 2802,
      "ragment": 2803,
      "apped": 2804,
      "animate": 2805,
      "GTKmm": 2806,
      "modified": 2807,
      "+)'": 2808,
      "longer": 2809,
      "every": 2810,
      "AisleRi": 2811,
      "Aisleriot": 2812,
      "binding": 2813,
      "White": 2814,
      "European": 2815,
      "printer": 2816,
      "capabilities": 2817,
      "http": 2818,
      "LDAP": 2819,
      "omogeneous": 2820,
      "illiseconds": 2821,
      "Constraints": 2822,
      "Hebrew": 2823,
      "AisleRiot": 2824,
      "\":%": 2825,
      "Action": 2826,
      "Bur": 2827,
      "But": 2828,
      "EC": 2829,
      "Fetch": 2830,
      "MF": 2831,
      "Na": 2832,
      "Pango": 2833,
      "Sw": 2834,
      "brow": 2835,
      "rough": 2836,
      "solitaire": 2837,
      "sensitive": 2838,
      "watch": 2839,
      "recomm": 2840,
      "deals": 2841,
      "filename": 2842,
      "ily": 2843,
      "thread": 2844,
      "through": 2845,
      "dike": 2846,
      "ute": 2847,
      "trash": 2848,
      "suppl": 2849,
      "Deleted": 2850,
      "Delay": 2851,
      "creating": 2852,
      "Chart": 2853,
      "veloper": 2854,
      "symbols": 2855,
      "installation": 2856,
      "IDE": 2857,
      "Suspend": 2858,
      "Regular": 2859,
      "soon": 2860,
      "blanks": 2861,
      "Resolved": 2862,
      "Executable": 2863,
      "londike": 2864,
      "Caption": 2865,
      "pretty": 2866,
      "DTMF": 2867,
      "Burst": 2868,
      "Button": 2869,
      "recommended": 2870,
      "\"#": 2871,
      "\"?": 2872,
      "$:%": 2873,
      "+,": 2874,
      "11": 2875,
      "25": 2876,
      "28": 2877,
      "AM": 2878,
      "Bis": 2879,
      "DTS": 2880,
      "Flex": 2881,
      "HT": 2882,
      "JS": 2883,
      "Lex": 2884,
      "Men": 2885,
      "Press": 2886,
      "Screen": 2887,
      "Vend": 2888,
      "X11": 2889,
      "Yacc": 2890,
      "`~": 2891,
      "ale": 2892,
      "branches": 2893,
      "dated": 2894,
      "ere": 2895,
      "mer": 2896,
      "num": 2897,
      "sen": 2898,
      "sent": 2899,
      "ux": 2900,
      "wra": 2901,
      "wrap": 2902,
      "ystem": 2903,
      "herit": 2904,
      "inclu": 2905,
      "onal": 2906,
      "reject": 2907,
      "reet": 2908,
      "rebase": 2909,
      "repeat": 2910,
      "edge": 2911,
      "dev": 2912,
      "aged": 2913,
      "ashed": 2914,
      "staged": 2915,
      "chart": 2916,
      "direct": 2917,
      "tra": 2918,
      "traditional": 2919,
      "filesystem": 2920,
      "Property": 2921,
      "within": 2922,
      "Projects": 2923,
      "ched": 2924,
      "OpenGL": 2925,
      "Trigger": 2926,
      "ives": 2927,
      "Generate": 2928,
      "Autosave": 2929,
      "model": 2930,
      "Exten": 2931,
      "Extra": 2932,
      "Searching": 2933,
      "successful": 2934,
      "Fortran": 2935,
      "irm": 2936,
      "background": 2937,
      "systems": 2938,
      "formats": 2939,
      "processor": 2940,
      "keyboard": 2941,
      "Running": 2942,
      "Installation": 2943,
      "Objective": 2944,
      "Level": 2945,
      "Always": 2946,
      "installing": 2947,
      "ronize": 2948,
      "Code": 2949,
      "Space": 2950,
      "transform": 2951,
      "belong": 2952,
      "chosen": 2953,
      "allows": 2954,
      "dragging": 2955,
      "encies": 2956,
      "ncronize": 2957,
      "preprocessor": 2958,
      "pendencies": 2959,
      "Confirm": 2960,
      "letters": 2961,
      "Category": 2962,
      "digits": 2963,
      "utorial": 2964,
      "onfigure": 2965,
      "various": 2966,
      "Bison": 2967,
      "Vendor": 2968,
      "Extension": 2969,
      "\").": 2970,
      "Count": 2971,
      "Destination": 2972,
      "Four": 2973,
      "Fold": 2974,
      "King": 2975,
      "Long": 2976,
      "Mem": 2977,
      "VICE": 2978,
      "bl": 2979,
      "milliseconds": 2980,
      "non": 2981,
      "nthe": 2982,
      "van": 2983,
      "yet": 2984,
      "info": 2985,
      "then": 2986,
      "there": 2987,
      "ically": 2988,
      "propri": 2989,
      "because": 2990,
      "notification": 2991,
      "cept": 2992,
      "Release": 2993,
      "selecting": 2994,
      "appropri": 2995,
      "Condition": 2996,
      "Three": 2997,
      "loader": 2998,
      "positories": 2999,
      "Checking": 3000,
      "Abort": 3001,
      "displaying": 3002,
      "Complete": 3003,
      "means": 3004,
      "mediate": 3005,
      "earance": 3006,
      "Regis": 3007,
      "Signals": 3008,
      "Linux": 3009,
      "Appearance": 3010,
      "Browser": 3011,
      "scanning": 3012,
      "Getting": 3013,
      "permissions": 3014,
      "sending": 3015,
      "accelerator": 3016,
      "occurrence": 3017,
      "Integrated": 3018,
      "Development": 3019,
      "DEVICE": 3020,
      "voice": 3021,
      "Swap": 3022,
      "black": 3023,
      "vanced": 3024,
      "appropriate": 3025,
      "',": 3026,
      "30": 3027,
      "75": 3028,
      "Bals": 3029,
      "Both": 3030,
      "Branches": 3031,
      "Foc": 3032,
      "Factor": 3033,
      "Match": 3034,
      "Pare": 3035,
      "Prefer": 3036,
      "Sc": 3037,
      "Sound": 3038,
      "dout": 3039,
      "gtk": 3040,
      "hide": 3041,
      "nation": 3042,
      "smart": 3043,
      "uff": 3044,
      "ory": 3045,
      "environment": 3046,
      "alization": 3047,
      "aced": 3048,
      "stdout": 3049,
      "dim": 3050,
      "immediate": 3051,
      "eting": 3052,
      "ntax": 3053,
      "pted": 3054,
      "selectable": 3055,
      "unsuccessfully": 3056,
      "istance": 3057,
      "activated": 3058,
      "Unrecognized": 3059,
      "quit": 3060,
      "windows": 3061,
      "igner": 3062,
      "internation": 3063,
      "errors": 3064,
      "marker": 3065,
      "markup": 3066,
      "System": 3067,
      "correspon": 3068,
      "needed": 3069,
      "fonts": 3070,
      "themes": 3071,
      "Assistance": 3072,
      "detection": 3073,
      "offset": 3074,
      "PAL": 3075,
      "capacity": 3076,
      "undone": 3077,
      "focused": 3078,
      "xxx": 3079,
      "Tasks": 3080,
      "drawing": 3081,
      "Event": 3082,
      "Implementation": 3083,
      "arball": 3084,
      "Modified": 3085,
      "Slicing": 3086,
      "IMAP": 3087,
      "meta": 3088,
      "origin": 3089,
      "Menu": 3090,
      "Balsa": 3091,
      "Focus": 3092,
      "internationalization": 3093,
      ".,": 3094,
      "110": 3095,
      "130": 3096,
      "Car": 3097,
      "Fort": 3098,
      "Fif": 3099,
      "Flo": 3100,
      "Fran": 3101,
      "GE": 3102,
      "IG": 3103,
      "Klondike": 3104,
      "Multiple": 3105,
      "Pan": 3106,
      "Sort": 3107,
      "Two": 3108,
      "USA": 3109,
      "Wes": 3110,
      "WID": 3111,
      "aint": 3112,
      "both": 3113,
      "cj": 3114,
      "faces": 3115,
      "ged": 3116,
      "gdb": 3117,
      "gcj": 3118,
      "hue": 3119,
      "klin": 3120,
      "ose": 3121,
      "pad": 3122,
      "sis": 3123,
      "saturation": 3124,
      "wise": 3125,
      "xt": 3126,
      "ink": 3127,
      "ins": 3128,
      "lead": 3129,
      "ones": 3130,
      "orter": 3131,
      "self": 3132,
      "ross": 3133,
      "deck": 3134,
      "aster": 3135,
      "aming": 3136,
      "ston": 3137,
      "advis": 3138,
      "imit": 3139,
      "verse": 3140,
      "Defin": 3141,
      "restore": 3142,
      "Inc": 3143,
      "ride": 3144,
      "cessary": 3145,
      "shorter": 3146,
      "ments": 3147,
      "versioned": 3148,
      "ulate": 3149,
      "what": 3150,
      "syntax": 3151,
      "interfaces": 3152,
      "erence": 3153,
      "keys": 3154,
      "02110": 3155,
      "Renaming": 3156,
      "Tableau": 3157,
      "ulti": 3158,
      "Photos": 3159,
      "applying": 3160,
      "Symbols": 3161,
      "Foundations": 3162,
      "maller": 3163,
      "Boston": 3164,
      "Offset": 3165,
      "encry": 3166,
      "necessary": 3167,
      "returned": 3168,
      "wodim": 3169,
      "Conflicted": 3170,
      "Scope": 3171,
      "canceled": 3172,
      "methods": 3173,
      "Animations": 3174,
      "Accerciser": 3175,
      "thentication": 3176,
      "uffle": 3177,
      "1301": 3178,
      "Fifth": 3179,
      "Floor": 3180,
      "Franklin": 3181,
      "advised": 3182,
      "':%": 3183,
      ")%.": 3184,
      "90": 3185,
      "Ag": 3186,
      "Bac": 3187,
      "Blanking": 3188,
      "Homogeneous": 3189,
      "NOT": 3190,
      "PH": 3191,
      "Sample": 3192,
      "TR": 3193,
      "TCP": 3194,
      "brace": 3195,
      "cal": 3196,
      "cac": 3197,
      "global": 3198,
      "holds": 3199,
      "ique": 3200,
      "kground": 3201,
      "ling": 3202,
      "land": 3203,
      "pause": 3204,
      "padded": 3205,
      "paint": 3206,
      "rad": 3207,
      "sf": 3208,
      "sources": 3209,
      "tist": 3210,
      "ving": 3211,
      "ware": 3212,
      "yon": 3213,
      "ley": 3214,
      "onnect": 3215,
      "retry": 3216,
      "reloaded": 3217,
      "redirect": 3218,
      "erarch": 3219,
      "tocol": 3220,
      "atibility": 3221,
      "edded": 3222,
      "offl": 3223,
      "icking": 3224,
      "adient": 3225,
      "plugg": 3226,
      "beyon": 3227,
      "util": 3228,
      "reconnect": 3229,
      "gradient": 3230,
      "Developer": 3231,
      "siz": 3232,
      ":%.": 3233,
      "usage": 3234,
      "ourite": 3235,
      "uncommitted": 3236,
      "istive": 3237,
      "arguments": 3238,
      "pluginview": 3239,
      "constraint": 3240,
      "avourite": 3241,
      "playing": 3242,
      "assistive": 3243,
      "manently": 3244,
      "common": 3245,
      "optim": 3246,
      "body": 3247,
      "Setup": 3248,
      "calling": 3249,
      "points": 3250,
      "permanently": 3251,
      "operating": 3252,
      "iali": 3253,
      "colors": 3254,
      "Checksum": 3255,
      "reports": 3256,
      "formatted": 3257,
      "wayland": 3258,
      "Compatibility": 3259,
      "objects": 3260,
      "meeting": 3261,
      "locked": 3262,
      "provides": 3263,
      "mostly": 3264,
      "mismatch": 3265,
      "matching": 3266,
      "splitting": 3267,
      "Artist": 3268,
      "hierarch": 3269,
      "Transcoding": 3270,
      "initialized": 3271,
      "definition": 3272,
      "handle": 3273,
      "ROM": 3274,
      "embedded": 3275,
      "239": 3276,
      "luke": 3277,
      "silences": 3278,
      "across": 3279,
      "icons": 3280,
      "hardware": 3281,
      "Playlists": 3282,
      "nchronous": 3283,
      "Reply": 3284,
      "Netmeeting": 3285,
      "Converting": 3286,
      "Again": 3287,
      "radio": 3288,
      "offline": 3289,
      "pluggable": 3290,
      "beyond": 3291,
      "hierarchy": 3292,
      "(\"%": 3293,
      ",%": 3294,
      "Db": 3295,
      "Effect": 3296,
      "Gen": 3297,
      "Ker": 3298,
      "Lang": 3299,
      "VID": 3300,
      "Yes": 3301,
      "cv": 3302,
      "junction": 3303,
      "ml": 3304,
      "wire": 3305,
      "anese": 3306,
      "encoding": 3307,
      "itter": 3308,
      "always": 3309,
      "algor": 3310,
      "stashe": 3311,
      "come": 3312,
      "ocate": 3313,
      "ighb": 3314,
      "Deactivate": 3315,
      "unsaved": 3316,
      "conjunction": 3317,
      "apanese": 3318,
      "Thread": 3319,
      "Burns": 3320,
      "estab": 3321,
      "Used": 3322,
      "designer": 3323,
      "Couldn": 3324,
      "overwrite": 3325,
      "menus": 3326,
      "Database": 3327,
      "occurs": 3328,
      "Record": 3329,
      "Timeout": 3330,
      "SymbolDb": 3331,
      "Actions": 3332,
      "Active": 3333,
      "Activate": 3334,
      "phone": 3335,
      "receive": 3336,
      "Analyzer": 3337,
      "ithm": 3338,
      "Box": 3339,
      "Execute": 3340,
      "separator": 3341,
      "Visual": 3342,
      "conflicted": 3343,
      "better": 3344,
      "Flag": 3345,
      "Interrupting": 3346,
      "Memory": 3347,
      "immediately": 3348,
      "Kernel": 3349,
      "VIDEO": 3350,
      "cvs": 3351,
      "algorithm": 3352,
      "stashes": 3353,
      "established": 3354,
      "And": 3355,
      "Aspect": 3356,
      "Cor": 3357,
      "Cut": 3358,
      "DG": 3359,
      "Ele": 3360,
      "Folds": 3361,
      "Journal": 3362,
      "Japanese": 3363,
      "Lay": 3364,
      "Languages": 3365,
      "Mac": 3366,
      "TX": 3367,
      "Tilt": 3368,
      "Volume": 3369,
      "XDG": 3370,
      "ade": 3371,
      "bits": 3372,
      "fp": 3373,
      "lation": 3374,
      "md": 3375,
      "mall": 3376,
      "nor": 3377,
      "tilt": 3378,
      "tog": 3379,
      "isk": 3380,
      "declaration": 3381,
      "amp": 3382,
      "amed": 3383,
      "ilst": 3384,
      "impossible": 3385,
      "distance": 3386,
      "ontinue": 3387,
      "ternative": 3388,
      "ppercase": 3389,
      "unset": 3390,
      "rix": 3391,
      "Star": 3392,
      "clipping": 3393,
      "arger": 3394,
      "lette": 3395,
      "context": 3396,
      "whilst": 3397,
      "atching": 3398,
      "estamp": 3399,
      "More": 3400,
      "Allocate": 3401,
      "ivot": 3402,
      "interpol": 3403,
      "renamed": 3404,
      "matrix": 3405,
      "rather": 3406,
      "Texture": 3407,
      "Checks": 3408,
      "folds": 3409,
      "rule": 3410,
      "Align": 3411,
      "filtering": 3412,
      "Vertex": 3413,
      "PyGTK": 3414,
      "Output": 3415,
      "signed": 3416,
      "signals": 3417,
      "offscreen": 3418,
      "Libraries": 3419,
      "Converts": 3420,
      "Hypertext": 3421,
      "GLSL": 3422,
      "Detach": 3423,
      "bookmarks": 3424,
      "blanked": 3425,
      "Template": 3426,
      "static": 3427,
      "rectangles": 3428,
      "Perl": 3429,
      "console": 3430,
      "Palette": 3431,
      "Nautil": 3432,
      "Defines": 3433,
      "Layer": 3434,
      "interpolated": 3435,
      "Nautilus": 3436,
      "Brightness": 3437,
      "Ed": 3438,
      "Gdb": 3439,
      "Medi": 3440,
      "None": 3441,
      "Prefix": 3442,
      "Sof": 3443,
      "Sol": 3444,
      "Vo": 3445,
      "cing": 3446,
      "der": 3447,
      "destination": 3448,
      "fer": 3449,
      "fun": 3450,
      "glade": 3451,
      "ming": 3452,
      "pages": 3453,
      "prefix": 3454,
      "rg": 3455,
      "rong": 3456,
      "she": 3457,
      "her": 3458,
      "indi": 3459,
      "onents": 3460,
      "represent": 3461,
      "aneous": 3462,
      "isp": 3463,
      "stream": 3464,
      "grind": 3465,
      "resources": 3466,
      "Street": 3467,
      "conf": 3468,
      "Short": 3469,
      "components": 3470,
      "Audi": 3471,
      "flat": 3472,
      "ulating": 3473,
      "Contrast": 3474,
      "minutes": 3475,
      "Errors": 3476,
      "whether": 3477,
      "Autotools": 3478,
      "linker": 3479,
      "Submit": 3480,
      "Direct": 3481,
      "backup": 3482,
      "require": 3483,
      "Paths": 3484,
      "keyword": 3485,
      "ruler": 3486,
      "configured": 3487,
      "summary": 3488,
      "statusbar": 3489,
      "signature": 3490,
      "Username": 3491,
      "Lines": 3492,
      "Website": 3493,
      "Transfer": 3494,
      "Attributes": 3495,
      "submit": 3496,
      "valuate": 3497,
      "implementation": 3498,
      "analyze": 3499,
      "toolbars": 3500,
      "steps": 3501,
      "Children": 3502,
      "Registers": 3503,
      "browser": 3504,
      "Countdown": 3505,
      "Edge": 3506,
      "Soft": 3507,
      "sheet": 3508,
      "indivi": 3509,
      "':": 3510,
      "31": 3511,
      "50": 3512,
      "AQ": 3513,
      "Case": 3514,
      "Done": 3515,
      "Easing": 3516,
      "Either": 3517,
      "Fog": 3518,
      "FAQ": 3519,
      "Give": 3520,
      "IB": 3521,
      "Jav": 3522,
      "Kit": 3523,
      "Kill": 3524,
      "Low": 3525,
      "Large": 3526,
      "OP": 3527,
      "Port": 3528,
      "Rest": 3529,
      "TP": 3530,
      "Tiles": 3531,
      "UI": 3532,
      "Us": 3533,
      "apt": 3534,
      "atory": 3535,
      "dash": 3536,
      "gate": 3537,
      "gest": 3538,
      "iro": 3539,
      "kish": 3540,
      "mand": 3541,
      "pick": 3542,
      "rry": 3543,
      "swit": 3544,
      "tone": 3545,
      "tiles": 3546,
      "ui": 3547,
      "…%": 3548,
      "rele": 3549,
      "real": 3550,
      "theme": 3551,
      "ances": 3552,
      "anian": 3553,
      "delay": 3554,
      "determ": 3555,
      "dependencies": 3556,
      "otes": 3557,
      "ascript": 3558,
      "urkish": 3559,
      "stashed": 3560,
      "adjust": 3561,
      "adapt": 3562,
      "entage": 3563,
      "plore": 3564,
      "They": 3565,
      "protocol": 3566,
      "direction": 3567,
      "ntime": 3568,
      "auses": 3569,
      "Rebase": 3570,
      "omain": 3571,
      "Profiling": 3572,
      "ifies": 3573,
      "ifier": 3574,
      "sian": 3575,
      "ussian": 3576,
      "resource": 3577,
      "Distance": 3578,
      "isting": 3579,
      "Remo": 3580,
      "Remotes": 3581,
      "short": 3582,
      "outlines": 3583,
      "avig": 3584,
      "addition": 3585,
      "reek": 3586,
      "flash": 3587,
      "questions": 3588,
      "libgnome": 3589,
      "libxxx": 3590,
      "upgr": 3591,
      "Opening": 3592,
      "instant": 3593,
      "Allocation": 3594,
      "ivatable": 3595,
      "interactive": 3596,
      "Autogen": 3597,
      "starting": 3598,
      "Extern": 3599,
      "Existing": 3600,
      "autotools": 3601,
      "parser": 3602,
      "parsing": 3603,
      "CVSRO": 3604,
      "packets": 3605,
      "orean": 3606,
      "somebody": 3607,
      "generate": 3608,
      "Locale": 3609,
      "reporting": 3610,
      "insertion": 3611,
      "optional": 3612,
      "groups": 3613,
      "documentation": 3614,
      "runtime": 3615,
      "PID": 3616,
      "Syncronize": 3617,
      "02d": 3618,
      "workspace": 3619,
      "Updated": 3620,
      "latest": 3621,
      "recordable": 3622,
      "animations": 3623,
      "Packages": 3624,
      "trying": 3625,
      "PackageKit": 3626,
      "actionable": 3627,
      "Specifies": 3628,
      "contacts": 3629,
      "accerciser": 3630,
      "subdir": 3631,
      "GtkBuilder": 3632,
      "maximized": 3633,
      "Alphabet": 3634,
      "attachment": 3635,
      "Pixel": 3636,
      "Advanced": 3637,
      "recognize": 3638,
      "Keywords": 3639,
      "Sending": 3640,
      "titles": 3641,
      "warnings": 3642,
      "likely": 3643,
      "analyser": 3644,
      "INFO": 3645,
      "Offscreen": 3646,
      "binary": 3647,
      "Cairo": 3648,
      "Methods": 3649,
      "focusable": 3650,
      "codecs": 3651,
      "lexical": 3652,
      "rolename": 3653,
      "Conflicts": 3654,
      "variables": 3655,
      "CRLF": 3656,
      "Timeline": 3657,
      "$:%%": 3658,
      "+,.": 3659,
      "merge": 3660,
      "heritance": 3661,
      "rejected": 3662,
      "Registry": 3663,
      "corresponding": 3664,
      "Javascript": 3665,
      "Restart": 3666,
      "Usage": 3667,
      "mandatory": 3668,
      "determine": 3669,
      "plorer": 3670,
      "libgnomeui": 3671,
      "CVSROOT": 3672,
      "'.": 3673,
      "FC": 3674,
      "FIL": 3675,
      "GUI": 3676,
      "Greek": 3677,
      "Just": 3678,
      "Korean": 3679,
      "Ma": 3680,
      "Mak": 3681,
      "OK": 3682,
      "Perc": 3683,
      "Rom": 3684,
      "Russian": 3685,
      "RFC": 3686,
      "Same": 3687,
      "Turkish": 3688,
      "bad": 3689,
      "done": 3690,
      "hit": 3691,
      "haven": 3692,
      "idden": 3693,
      "jitter": 3694,
      "krain": 3695,
      "mment": 3696,
      "pect": 3697,
      "ues": 3698,
      "ons": 3699,
      "once": 3700,
      "repositories": 3701,
      "attributes": 3702,
      "issu": 3703,
      "ental": 3704,
      "though": 3705,
      "Theme": 3706,
      "loo": 3707,
      "Inheritance": 3708,
      "made": 3709,
      "mapping": 3710,
      "Authentication": 3711,
      "ersonal": 3712,
      "Cons": 3713,
      "Charact": 3714,
      "Context": 3715,
      "Sets": 3716,
      "rende": 3717,
      "Ext": 3718,
      "Expression": 3719,
      "otherwise": 3720,
      "username": 3721,
      "Minimal": 3722,
      "applet": 3723,
      "Writable": 3724,
      "Accept": 3725,
      "Devices": 3726,
      "transformation": 3727,
      "Buffer": 3728,
      "kernel": 3729,
      "party": 3730,
      "Service": 3731,
      "fields": 3732,
      "Statistics": 3733,
      "analyzer": 3734,
      "Events": 3735,
      "BDs": 3736,
      "ejected": 3737,
      "collection": 3738,
      "feature": 3739,
      "Override": 3740,
      "ighbor": 3741,
      "Medium": 3742,
      "VoIP": 3743,
      "FILE": 3744,
      "Makes": 3745,
      "Percentage": 3746,
      "Romanian": 3747,
      "krainian": 3748,
      "/.": 3749,
      "Am": 3750,
      "Bal": 3751,
      "Bak": 3752,
      "CI": 3753,
      "CK": 3754,
      "Cel": 3755,
      "Draw": 3756,
      "Dump": 3757,
      "Fragment": 3758,
      "Ge": 3759,
      "Gap": 3760,
      "History": 3761,
      "Mat": 3762,
      "Mine": 3763,
      "Mapped": 3764,
      "Now": 3765,
      "Numbers": 3766,
      "NTS": 3767,
      "Od": 3768,
      "Popup": 3769,
      "Personal": 3770,
      "RX": 3771,
      "Root": 3772,
      "Scor": 3773,
      "SEC": 3774,
      "Tre": 3775,
      "Ten": 3776,
      "Tom": 3777,
      "Too": 3778,
      "Ukrainian": 3779,
      "Watches": 3780,
      "Wrap": 3781,
      "Wins": 3782,
      "br": 3783,
      "cer": 3784,
      "cross": 3785,
      "dot": 3786,
      "echo": 3787,
      "kbit": 3788,
      "multi": 3789,
      "ode": 3790,
      "oid": 3791,
      "pat": 3792,
      "tint": 3793,
      "teen": 3794,
      "incre": 3795,
      "these": 3796,
      "outh": 3797,
      "semb": 3798,
      "rodu": 3799,
      "decrease": 3800,
      "otch": 3801,
      "assemb": 3802,
      "icode": 3803,
      "urb": 3804,
      "stap": 3805,
      "struct": 3806,
      "thaven": 3807,
      "plified": 3808,
      "cover": 3809,
      "ument": 3810,
      "essa": 3811,
      "Profiles": 3812,
      "Proxy": 3813,
      "Deck": 3814,
      "Decrease": 3815,
      "ours": 3816,
      "undefined": 3817,
      "unique": 3818,
      "Distribut": 3819,
      "Disassemb": 3820,
      "Increase": 3821,
      "argument": 3822,
      "Another": 3823,
      "Shutter": 3824,
      "shown": 3825,
      "avoid": 3826,
      "Uncommitted": 3827,
      "Unnamed": 3828,
      "Unicode": 3829,
      "Compo": 3830,
      "manip": 3831,
      "Const": 3832,
      "byte": 3833,
      "Thiev": 3834,
      "True": 3835,
      "Traditional": 3836,
      "slow": 3837,
      "slider": 3838,
      "supporting": 3839,
      "Automake": 3840,
      "Autocompletion": 3841,
      "Started": 3842,
      "Disabled": 3843,
      "lower": 3844,
      "know": 3845,
      "generated": 3846,
      "Simplified": 3847,
      "modules": 3848,
      "menian": 3849,
      "sounds": 3850,
      "Goto": 3851,
      "Graph": 3852,
      "filters": 3853,
      "Suits": 3854,
      "Recently": 3855,
      "scotch": 3856,
      "Spider": 3857,
      "Armenian": 3858,
      "Activated": 3859,
      "Backend": 3860,
      "accounts": 3861,
      "FreeCell": 3862,
      "piles": 3863,
      "Pixbuf": 3864,
      "spective": 3865,
      "ING": 3866,
      "Markers": 3867,
      "Stopped": 3868,
      "WARN": 3869,
      "OVR": 3870,
      "Shortcuts": 3871,
      "acceleration": 3872,
      "Perspective": 3873,
      "orgian": 3874,
      "beginning": 3875,
      "Misc": 3876,
      "Realm": 3877,
      "acceptable": 3878,
      "SHA1": 3879,
      "SHA25": 3880,
      "Redeal": 3881,
      "Redeals": 3882,
      "wrapping": 3883,
      "nthesis": 3884,
      "Preferred": 3885,
      "Western": 3886,
      "sizes": 3887,
      "Flags": 3888,
      "md5": 3889,
      "individual": 3890,
      "Americ": 3891,
      "Baltic": 3892,
      "Bakers": 3893,
      "Celtic": 3894,
      "Georgian": 3895,
      "Gaps": 3896,
      "Material": 3897,
      "NTSC": 3898,
      "Odessa": 3899,
      "SECAM": 3900,
      "Decks": 3901,
      "Distribution": 3902,
      "Disassembly": 3903,
      "Thieves": 3904,
      "SHA256": 3905,
      "/%": 3906,
      "33": 3907,
      "Ber": 3908,
      "Cd": 3909,
      "DSL": 3910,
      "EIG": 3911,
      "Frequently": 3912,
      "Gu": 3913,
      "Ho": 3914,
      "Hard": 3915,
      "HEIG": 3916,
      "Kum": 3917,
      "Mixed": 3918,
      "Nord": 3919,
      "Nab": 3920,
      "Ori": 3921,
      "Ring": 3922,
      "Sche": 3923,
      "Span": 3924,
      "SPI": 3925,
      "South": 3926,
      "Tarball": 3927,
      "Wx": 3928,
      "XOFF": 3929,
      "YOFF": 3930,
      "ai": 3931,
      "cs": 3932,
      "eper": 3933,
      "frequently": 3934,
      "good": 3935,
      "mk": 3936,
      "none": 3937,
      "pen": 3938,
      "ral": 3939,
      "sample": 3940,
      "tutorial": 3941,
      "v2": 3942,
      "wx": 3943,
      "were": 3944,
      "xHEIG": 3945,
      "yp": 3946,
      "include": 3947,
      "lean": 3948,
      "less": 3949,
      "rer": 3950,
      "secs": 3951,
      "itself": 3952,
      "amily": 3953,
      "thoriz": 3954,
      "etname": 3955,
      "Regenerate": 3956,
      "keley": 3957,
      "keeper": 3958,
      "introdu": 3959,
      "concer": 3960,
      "oolean": 3961,
      "assign": 3962,
      "Unversioned": 3963,
      "Comma": 3964,
      "Vietname": 3965,
      "Thai": 3966,
      "sync": 3967,
      "among": 3968,
      "abic": 3969,
      "calltips": 3970,
      "...)": 3971,
      "refresh": 3972,
      "caution": 3973,
      "Editable": 3974,
      "Optimized": 3975,
      "special": 3976,
      "ictures": 3977,
      "Installed": 3978,
      "Questions": 3979,
      "Component": 3980,
      "Point": 3981,
      "Calltips": 3982,
      "THxHEIG": 3983,
      "Notification": 3984,
      "cluded": 3985,
      "Arabic": 3986,
      "ringing": 3987,
      "partic": 3988,
      "asked": 3989,
      "INS": 3990,
      "Translate": 3991,
      "323v2": 3992,
      "clean": 3993,
      "pixbufs": 3994,
      "Ident": 3995,
      "Asked": 3996,
      "Central": 3997,
      "supplied": 3998,
      "DTMFs": 3999,
      "2833": 4000,
      "WIDTHxHEIG": 4001,
      "Berkeley": 4002,
      "Cdr": 4003,
      "Host": 4004,
      "Kumar": 4005,
      "Nordic": 4006,
      "Naba": 4007,
      "Orientation": 4008,
      "introduced": 4009,
      "Vietnamese": 4010,
      "WIDTHxHEIGHT": 4011,
      "\"),": 4012,
      ",...)": 4013,
      "Ant": 4014,
      "By": 4015,
      "Ble": 4016,
      "Break": 4017,
      "Core": 4018,
      "CLang": 4019,
      "DN": 4020,
      "Dy": 4021,
      "Dial": 4022,
      "Fire": 4023,
      "Hidden": 4024,
      "MP": 4025,
      "Mouse": 4026,
      "NAT": 4027,
      "Pres": 4028,
      "Pivot": 4029,
      "Que": 4030,
      "Redi": 4031,
      "TT": 4032,
      "Tri": 4033,
      "Tree": 4034,
      "UE": 4035,
      "UV": 4036,
      "Wel": 4037,
      "Wide": 4038,
      "YUV": 4039,
      "bgr": 4040,
      "bloc": 4041,
      "break": 4042,
      "batching": 4043,
      "cc": 4044,
      "dro": 4045,
      "fetch": 4046,
      "fragment": 4047,
      "journal": 4048,
      "mount": 4049,
      "napped": 4050,
      "ob": 4051,
      "pon": 4052,
      "picking": 4053,
      "sugg": 4054,
      "snapped": 4055,
      "uch": 4056,
      "wi": 4057,
      "yed": 4058,
      "ynchronous": 4059,
      "resi": 4060,
      "istr": 4061,
      "enab": 4062,
      "secut": 4063,
      "esp": 4064,
      "royed": 4065,
      "determin": 4066,
      "depen": 4067,
      "asynchronous": 4068,
      "iced": 4069,
      "blend": 4070,
      "prob": 4071,
      "prom": 4072,
      "profiling": 4073,
      "beha": 4074,
      "chat": 4075,
      "iggle": 4076,
      "utility": 4077,
      "alloc": 4078,
      "very": 4079,
      "combin": 4080,
      "celer": 4081,
      "viour": 4082,
      "authoriz": 4083,
      "span": 4084,
      "spare": 4085,
      "spans": 4086,
      "Review": 4087,
      "ift": 4088,
      "angular": 4089,
      "unc": 4090,
      "unloading": 4091,
      "pointer": 4092,
      "ides": 4093,
      "ants": 4094,
      "antiali": 4095,
      "Plain": 4096,
      "consecut": 4097,
      "controll": 4098,
      "itions": 4099,
      "ffers": 4100,
      "texturing": 4101,
      "redu": 4102,
      "actors": 4103,
      "Copier": 4104,
      "sysf": 4105,
      "sliced": 4106,
      "estroyed": 4107,
      "instruct": 4108,
      "Autocomplete": 4109,
      "Subtitle": 4110,
      "vertex": 4111,
      "parsed": 4112,
      "material": 4113,
      "Loop": 4114,
      "panning": 4115,
      "enables": 4116,
      "rectangular": 4117,
      "Accessibility": 4118,
      "Online": 4119,
      "timeout": 4120,
      "registr": 4121,
      "CoglObject": 4122,
      "Area": 4123,
      "ARB": 4124,
      "early": 4125,
      "Outbound": 4126,
      "Codec": 4127,
      "Filtering": 4128,
      "tered": 4129,
      "layered": 4130,
      "Special": 4131,
      "Buffers": 4132,
      "clicks": 4133,
      "clickable": 4134,
      "hinting": 4135,
      "partitions": 4136,
      "initializing": 4137,
      "requested": 4138,
      "ocket": 4139,
      "Initializing": 4140,
      "disables": 4141,
      "highlighting": 4142,
      "Warnings": 4143,
      "Executing": 4144,
      "namic": 4145,
      "filtered": 4146,
      "Attaching": 4147,
      "atlasing": 4148,
      "Native": 4149,
      "Tabs": 4150,
      "Appending": 4151,
      "cleared": 4152,
      "cueing": 4153,
      "capability": 4154,
      "expressions": 4155,
      "Score": 4156,
      "arbfp": 4157,
      "feat": 4158,
      "solute": 4159,
      "types": 4160,
      "Squiggle": 4161,
      "supply": 4162,
      "Pressing": 4163,
      "Panel": 4164,
      "encrypted": 4165,
      "NOTE": 4166,
      "TRUE": 4167,
      "caches": 4168,
      "painting": 4169,
      "optimization": 4170,
      "rgb": 4171,
      "submitting": 4172,
      "gesture": 4173,
      "adaptive": 4174,
      "RFC2833": 4175,
      "assigned": 4176,
      "Hostname": 4177,
      "Blend": 4178,
      "Dynamic": 4179,
      "Redirect": 4180,
      "Welcome": 4181,
      "blocking": 4182,
      "dropped": 4183,
      "resides": 4184,
      "enabling": 4185,
      "depends": 4186,
      "asynchronously": 4187,
      "blending": 4188,
      "behaviour": 4189,
      "allocating": 4190,
      "antialiasing": 4191,
      "consecutive": 4192,
      "controlling": 4193,
      "sysfs": 4194,
      "instructions": 4195,
      "Codecs": 4196,
      "#%": 4197,
      "AY": 4198,
      "Brace": 4199,
      "EX": 4200,
      "GP": 4201,
      "Gb": 4202,
      "Gd": 4203,
      "Gate": 4204,
      "GType": 4205,
      "Hue": 4206,
      "LIS": 4207,
      "PC": 4208,
      "Pri": 4209,
      "Pull": 4210,
      "RPC": 4211,
      "Saturation": 4212,
      "Smart": 4213,
      "Tutorial": 4214,
      "Wra": 4215,
      "aler": 4216,
      "ef": 4217,
      "eplace": 4218,
      "few": 4219,
      "fProject": 4220,
      "ience": 4221,
      "larger": 4222,
      "oimage": 4223,
      "upl": 4224,
      "rest": 4225,
      "redeals": 4226,
      "toc": 4227,
      "ised": 4228,
      "isoimage": 4229,
      "ctions": 4230,
      "alk": 4231,
      "alone": 4232,
      "ason": 4233,
      "amSpec": 4234,
      "placed": 4235,
      "exp": 4236,
      "exce": 4237,
      "verbo": 4238,
      "combo": 4239,
      "occ": 4240,
      "Reverse": 4241,
      "sider": 4242,
      "istered": 4243,
      "Incoming": 4244,
      "Placed": 4245,
      "outgoing": 4246,
      "Images": 4247,
      "Chat": 4248,
      "estim": 4249,
      "Enum": 4250,
      "listed": 4251,
      "Valgrind": 4252,
      "Manage": 4253,
      "getting": 4254,
      "erencing": 4255,
      "Important": 4256,
      "Synchron": 4257,
      "Altern": 4258,
      "sessions": 4259,
      "medium": 4260,
      "ameter": 4261,
      "building": 4262,
      "servers": 4263,
      "connected": 4264,
      "Freecell": 4265,
      "Strike": 4266,
      "timed": 4267,
      "genisoimage": 4268,
      "levels": 4269,
      "handled": 4270,
      "Reference": 4271,
      "recognised": 4272,
      "ParamSpec": 4273,
      "Booth": 4274,
      "simulation": 4275,
      "PLAY": 4276,
      "Without": 4277,
      "Frames": 4278,
      "launchable": 4279,
      "Missed": 4280,
      "identifier": 4281,
      "Modify": 4282,
      "response": 4283,
      "solution": 4284,
      "`~\"": 4285,
      "Elements": 4286,
      "toggle": 4287,
      "Starter": 4288,
      "Detaching": 4289,
      "look": 4290,
      "mkisofs": 4291,
      "Cdrdao": 4292,
      "GbfProject": 4293,
      "Gdk": 4294,
      "Gatekeeper": 4295,
      "LIST": 4296,
      "Priority": 4297,
      "alert": 4298,
      "exception": 4299,
      "verbose": 4300,
      "Synchronization": 4301,
      "Alternating": 4302,
      "PLAYLIST": 4303,
      "%)": 4304,
      "'?": 4305,
      "()": 4306,
      "16": 4307,
      "3U": 4308,
      "64": 4309,
      "Aver": 4310,
      "Alt": 4311,
      "ACK": 4312,
      "Broken": 4313,
      "BACK": 4314,
      "Cue": 4315,
      "CSS": 4316,
      "Dri": 4317,
      "Domain": 4318,
      "EG": 4319,
      "FRO": 4320,
      "Favourite": 4321,
      "Gives": 4322,
      "Hot": 4323,
      "Hash": 4324,
      "Hours": 4325,
      "JEC": 4326,
      "Let": 4327,
      "Less": 4328,
      "Lisp": 4329,
      "MM": 4330,
      "M3U": 4331,
      "NT": 4332,
      "Nick": 4333,
      "NUL": 4334,
      "PF": 4335,
      "Pas": 4336,
      "Pages": 4337,
      "PRO": 4338,
      "Rate": 4339,
      "Rew": 4340,
      "RAM": 4341,
      "Sl": 4342,
      "Say": 4343,
      "Sca": 4344,
      "Side": 4345,
      "SIDE": 4346,
      "SPF": 4347,
      "TV": 4348,
      "Tiled": 4349,
      "XID": 4350,
      "XSPF": 4351,
      "affects": 4352,
      "bes": 4353,
      "best": 4354,
      "car": 4355,
      "cant": 4356,
      "eger": 4357,
      "eep": 4358,
      "fall": 4359,
      "favourite": 4360,
      "hon": 4361,
      "ia": 4362,
      "ired": 4363,
      "lugin": 4364,
      "mlink": 4365,
      "monitor": 4366,
      "nsert": 4367,
      "navig": 4368,
      "os": 4369,
      "padding": 4370,
      "raph": 4371,
      "risk": 4372,
      "sin": 4373,
      "smaller": 4374,
      "small": 4375,
      "tear": 4376,
      "tivate": 4377,
      "tected": 4378,
      "vd": 4379,
      "zy": 4380,
      "heading": 4381,
      "invisible": 4382,
      "lear": 4383,
      "rewriting": 4384,
      "erprint": 4385,
      "atal": 4386,
      "anjuta": 4387,
      "ename": 4388,
      "ional": 4389,
      "ctivate": 4390,
      "itute": 4391,
      "alternative": 4392,
      "ingerprint": 4393,
      "arrow": 4394,
      "agle": 4395,
      "agraph": 4396,
      "oter": 4397,
      "filenames": 4398,
      "icate": 4399,
      "stere": 4400,
      "stitute": 4401,
      "plain": 4402,
      "proof": 4403,
      "protected": 4404,
      "behave": 4405,
      "directly": 4406,
      "trunc": 4407,
      "via": 4408,
      "vies": 4409,
      "ndar": 4410,
      "Seconds": 4411,
      "spin": 4412,
      "suer": 4413,
      "artist": 4414,
      "Recur": 4415,
      "Really": 4416,
      "grab": 4417,
      "unusable": 4418,
      "unlocked": 4419,
      "Disk": 4420,
      "istent": 4421,
      "Inline": 4422,
      "Incompatible": 4423,
      "ritable": 4424,
      "playable": 4425,
      "actual": 4426,
      "Unsaved": 4427,
      "Unreadable": 4428,
      "quick": 4429,
      "redund": 4430,
      "Consult": 4431,
      "optical": 4432,
      "readers": 4433,
      "That": 4434,
      "Those": 4435,
      "symlink": 4436,
      "slice": 4437,
      "Movies": 4438,
      "listen": 4439,
      "nodes": 4440,
      "pointing": 4441,
      "Autodetect": 4442,
      "widesp": 4443,
      "Discs": 4444,
      "aks": 4445,
      "started": 4446,
      "Substitute": 4447,
      "autocomplete": 4448,
      "autodetected": 4449,
      "wasn": 4450,
      "parameter": 4451,
      "paragraph": 4452,
      "checked": 4453,
      "Optional": 4454,
      "dateeditor": 4455,
      "Simulate": 4456,
      "tribute": 4457,
      "viewport": 4458,
      "calendar": 4459,
      "PIN": 4460,
      "stores": 4461,
      "Design": 4462,
      "Desktop": 4463,
      "Ital": 4464,
      "Quality": 4465,
      "Question": 4466,
      "mainly": 4467,
      "Minutes": 4468,
      "recorded": 4469,
      "Interval": 4470,
      "fontchooser": 4471,
      "Success": 4472,
      "thorough": 4473,
      "Playing": 4474,
      "Libtool": 4475,
      "Outrange": 4476,
      "posite": 4477,
      "Issuer": 4478,
      "Merging": 4479,
      "speeds": 4480,
      "integration": 4481,
      "integrities": 4482,
      "detecting": 4483,
      "transmission": 4484,
      "Rows": 4485,
      "playlists": 4486,
      "footer": 4487,
      "scanned": 4488,
      "North": 4489,
      "Songs": 4490,
      "Scanning": 4491,
      "analysed": 4492,
      "ethod": 4493,
      "simulate": 4494,
      "separate": 4495,
      "imported": 4496,
      "Finalizing": 4497,
      "printing": 4498,
      "SVCDs": 4499,
      "filler": 4500,
      "Tracks": 4501,
      "AtkHypertext": 4502,
      "%%)": 4503,
      "PLS": 4504,
      "Normalizing": 4505,
      "Estimation": 4506,
      "failures": 4507,
      "compatibility": 4508,
      "Formatting": 4509,
      "Homepage": 4510,
      "Emptying": 4511,
      "DAO": 4512,
      "Links": 4513,
      "html": 4514,
      "Readom": 4515,
      "Readcd": 4516,
      "anchors": 4517,
      "identified": 4518,
      "Anchors": 4519,
      "computer": 4520,
      "computers": 4521,
      "occurrences": 4522,
      "Integrity": 4523,
      "Slices": 4524,
      "Downloading": 4525,
      "Downloader": 4526,
      "discarded": 4527,
      "method": 4528,
      "Replacing": 4529,
      "However": 4530,
      "Timestamp": 4531,
      "glass": 4532,
      "consistent": 4533,
      "Centered": 4534,
      "Overburn": 4535,
      "wrapped": 4536,
      "including": 4537,
      "Parent": 4538,
      "Parenthesis": 4539,
      "pads": 4540,
      "leadin": 4541,
      "leadout": 4542,
      "Genre": 4543,
      "Corrupted": 4544,
      "normal": 4545,
      "Solid": 4546,
      "representing": 4547,
      "Removing": 4548,
      "pattern": 4549,
      "covers": 4550,
      "Composer": 4551,
      "American": 4552,
      "MPEG": 4553,
      "registration": 4554,
      "estimation": 4555,
      "Average": 4556,
      "Drive": 4557,
      "FRONT": 4558,
      "Hashing": 4559,
      "JECT": 4560,
      "NULL": 4561,
      "PROJECT": 4562,
      "Rewritable": 4563,
      "Slice": 4564,
      "Scaled": 4565,
      "SIDES": 4566,
      "beside": 4567,
      "carry": 4568,
      "honour": 4569,
      "lugins": 4570,
      "navigations": 4571,
      "since": 4572,
      "stereos": 4573,
      "truncated": 4574,
      "Recursive": 4575,
      "redundant": 4576,
      "widespread": 4577,
      "MPEG2": 4578,
      "'/": 4579,
      "AME": 4580,
      "Bl": 4581,
      "Bold": 4582,
      "Busy": 4583,
      "Boolean": 4584,
      "Dem": 4585,
      "Evaluate": 4586,
      "Fun": 4587,
      "Five": 4588,
      "Foot": 4589,
      "Fingerprint": 4590,
      "His": 4591,
      "H323": 4592,
      "Lu": 4593,
      "NAME": 4594,
      "Or": 4595,
      "Pauses": 4596,
      "Test": 4597,
      "Uppercase": 4598,
      "Wrong": 4599,
      "bs": 4600,
      "cy": 4601,
      "dog": 4602,
      "faster": 4603,
      "family": 4604,
      "iri": 4605,
      "ipe": 4606,
      "ious": 4607,
      "lated": 4608,
      "limit": 4609,
      "ner": 4610,
      "pictures": 4611,
      "ratch": 4612,
      "spl": 4613,
      "tarball": 4614,
      "ule": 4615,
      "uppercase": 4616,
      "vp": 4617,
      "vate": 4618,
      "xml": 4619,
      "…)": 4620,
      "ony": 4621,
      "rename": 4622,
      "reason": 4623,
      "ane": 4624,
      "ision": 4625,
      "ouch": 4626,
      "agonal": 4627,
      "asses": 4628,
      "amine": 4629,
      "These": 4630,
      "diction": 4631,
      "exec": 4632,
      "oppo": 4633,
      "verify": 4634,
      "ternal": 4635,
      "indent": 4636,
      "ression": 4637,
      "Dist": 4638,
      "Ins": 4639,
      "classes": 4640,
      "Any": 4641,
      "formating": 4642,
      "Unloaded": 4643,
      "video0": 4644,
      "Does": 4645,
      "bye": 4646,
      "Moved": 4647,
      "supports": 4648,
      "AutoGen": 4649,
      "Useful": 4650,
      "Subject": 4651,
      "boxes": 4652,
      "Examine": 4653,
      "External": 4654,
      "cessed": 4655,
      "autosave": 4656,
      "Viewer": 4657,
      "lowercase": 4658,
      "Loader": 4659,
      "Diagonal": 4660,
      "screens": 4661,
      "generating": 4662,
      "Locals": 4663,
      "contained": 4664,
      "detached": 4665,
      "Makefiles": 4666,
      "Result": 4667,
      "Respon": 4668,
      "defaults": 4669,
      "Committing": 4670,
      "correct": 4671,
      "Modules": 4672,
      "buttons": 4673,
      "Internet": 4674,
      "Interpre": 4675,
      "presentation": 4676,
      "signaling": 4677,
      "integrated": 4678,
      "Indicator": 4679,
      "commenting": 4680,
      "styles": 4681,
      "checksumming": 4682,
      "Hyperlink": 4683,
      "passwords": 4684,
      "Required": 4685,
      "private": 4686,
      "forwarding": 4687,
      "ROR": 4688,
      "Statement": 4689,
      "cdrtools": 4690,
      "cdrkit": 4691,
      "jobs": 4692,
      "cellaneous": 4693,
      "OTO": 4694,
      "Accounts": 4695,
      "ERROR": 4696,
      "Marker": 4697,
      "alphabet": 4698,
      "Integer": 4699,
      "Others": 4700,
      "launching": 4701,
      "continent": 4702,
      "clear": 4703,
      "decimal": 4704,
      "decision": 4705,
      "Compiler": 4706,
      "pending": 4707,
      "Miscellaneous": 4708,
      "dirs": 4709,
      "IMAGE": 4710,
      "CPU": 4711,
      "Macros": 4712,
      "shortcuts": 4713,
      "libburnia": 4714,
      "printers": 4715,
      "Folders": 4716,
      "Scratch": 4717,
      "PHP": 4718,
      "PHOTO": 4719,
      "Lowercase": 4720,
      "realm": 4721,
      "mappings": 4722,
      "Characters": 4723,
      "goodbye": 4724,
      "particular": 4725,
      "determines": 4726,
      "Wrapping": 4727,
      "looks": 4728,
      "Pascal": 4729,
      "Italic": 4730,
      "Demo": 4731,
      "Functions": 4732,
      "Footer": 4733,
      "Histor": 4734,
      "Lua": 4735,
      "iriver": 4736,
      "splash": 4737,
      "execvp": 4738,
      "opposed": 4739,
      "Results": 4740,
      "Response": 4741,
      "Interpreter": 4742,
      "Indicators": 4743,
      "alphabetical": 4744,
      "Scratchbox": 4745,
      "\")": 4746,
      "'(": 4747,
      "'-": 4748,
      ")%": 4749,
      "*:": 4750,
      ",.": 4751,
      "-.": 4752,
      "/%.": 4753,
      "17": 4754,
      "32": 4755,
      "931": 4756,
      "Ap": 4757,
      "Ada": 4758,
      "BO": 4759,
      "BU": 4760,
      "CE": 4761,
      "CJ": 4762,
      "Cam": 4763,
      "Cast": 4764,
      "Crash": 4765,
      "COP": 4766,
      "DP": 4767,
      "Dim": 4768,
      "Dub": 4769,
      "Due": 4770,
      "DPI": 4771,
      "DOS": 4772,
      "El": 4773,
      "Ell": 4774,
      "Every": 4775,
      "FI": 4776,
      "Fol": 4777,
      "Gj": 4778,
      "Gir": 4779,
      "GLib": 4780,
      "GCJ": 4781,
      "Hand": 4782,
      "Hang": 4783,
      "Have": 4784,
      "HBuild": 4785,
      "IPython": 4786,
      "JHBuild": 4787,
      "LGPL": 4788,
      "LTR": 4789,
      "LIB": 4790,
      "Mar": 4791,
      "Must": 4792,
      "Member": 4793,
      "Never": 4794,
      "Ob": 4795,
      "OPAL": 4796,
      "PM": 4797,
      "PT": 4798,
      "PW": 4799,
      "Pp": 4800,
      "Pr": 4801,
      "Pat": 4802,
      "Pop": 4803,
      "POP": 4804,
      "PPM": 4805,
      "Ratio": 4806,
      "Sect": 4807,
      "Slow": 4808,
      "Sources": 4809,
      "Scheme": 4810,
      "SIG": 4811,
      "Small": 4812,
      "Te": 4813,
      "Tint": 4814,
      "Tone": 4815,
      "Tele": 4816,
      "UDP": 4817,
      "YING": 4818,
      "[%": 4819,
      "ape": 4820,
      "aled": 4821,
      "adecimal": 4822,
      "band": 4823,
      "bly": 4824,
      "ci": 4825,
      "cour": 4826,
      "coff": 4827,
      "dx": 4828,
      "dru": 4829,
      "dvd": 4830,
      "easing": 4831,
      "epping": 4832,
      "evaluate": 4833,
      "fails": 4834,
      "fund": 4835,
      "fatal": 4836,
      "ges": 4837,
      "happ": 4838,
      "having": 4839,
      "ipro": 4840,
      "iable": 4841,
      "jority": 4842,
      "kg": 4843,
      "kbits": 4844,
      "mp": 4845,
      "my": 4846,
      "mic": 4847,
      "mally": 4848,
      "pus": 4849,
      "pull": 4850,
      "pure": 4851,
      "pserver": 4852,
      "pkg": 4853,
      "rc": 4854,
      "rsh": 4855,
      "ract": 4856,
      "sv": 4857,
      "socket": 4858,
      "tak": 4859,
      "tunneling": 4860,
      "tclean": 4861,
      "uz": 4862,
      "vim": 4863,
      "vant": 4864,
      "wn": 4865,
      "wrong": 4866,
      "xterm": 4867,
      "xadecimal": 4868,
      "ypertext": 4869,
      "×%": 4870,
      "’,": 4871,
      "’.": 4872,
      "……": 4873,
      "™.": 4874,
      "hexadecimal": 4875,
      "inum": 4876,
      "informat": 4877,
      "increase": 4878,
      "inherit": 4879,
      "lel": 4880,
      "resize": 4881,
      "revert": 4882,
      "repres": 4883,
      "reactive": 4884,
      "reverse": 4885,
      "relation": 4886,
      "eras": 4887,
      "touch": 4888,
      "atul": 4889,
      "atial": 4890,
      "ishes": 4891,
      "encount": 4892,
      "sear": 4893,
      "semic": 4894,
      "ctive": 4895,
      "alid": 4896,
      "aller": 4897,
      "allel": 4898,
      "espe": 4899,
      "arly": 4900,
      "arily": 4901,
      "room": 4902,
      "acs": 4903,
      "devel": 4904,
      "deactivated": 4905,
      "amental": 4906,
      "urge": 4907,
      "ilarly": 4908,
      "forge": 4909,
      "stack": 4910,
      "stick": 4911,
      "strange": 4912,
      "entered": 4913,
      "threading": 4914,
      "plication": 4915,
      "profiles": 4916,
      "produ": 4917,
      "processed": 4918,
      "core": 4919,
      "dictive": 4920,
      "note": 4921,
      "notate": 4922,
      "imary": 4923,
      "ower": 4924,
      "emove": 4925,
      "emacs": 4926,
      "olon": 4927,
      "except": 4928,
      "explorer": 4929,
      "ople": 4930,
      "lection": 4931,
      "lecting": 4932,
      "distclean": 4933,
      "uming": 4934,
      "extract": 4935,
      "trace": 4936,
      "vides": 4937,
      "Secon": 4938,
      "spee": 4939,
      "ackets": 4940,
      "sudo": 4941,
      "suspend": 4942,
      "Rece": 4943,
      "Revis": 4944,
      "Relative": 4945,
      "Repositories": 4946,
      "Provides": 4947,
      "llable": 4948,
      "uses": 4949,
      "recipro": 4950,
      "gratul": 4951,
      "Dependencies": 4952,
      "aren": 4953,
      "arest": 4954,
      "resume": 4955,
      "arding": 4956,
      "loop": 4957,
      "unavailable": 4958,
      "uncomment": 4959,
      "unfinished": 4960,
      "unstaged": 4961,
      "unversioned": 4962,
      "Selectable": 4963,
      "Stand": 4964,
      "Stage": 4965,
      "Stashed": 4966,
      "Stepping": 4967,
      "client": 4968,
      "clicking": 4969,
      "Annotate": 4970,
      "people": 4971,
      "conclu": 4972,
      "Shut": 4973,
      "Shader": 4974,
      "Shift": 4975,
      "shaller": 4976,
      "bugzilla": 4977,
      "activatable": 4978,
      "mention": 4979,
      "izer": 4980,
      "izations": 4981,
      "assword": 4982,
      "Unix": 4983,
      "Unified": 4984,
      "Unsupported": 4985,
      "Unexp": 4986,
      "ports": 4987,
      "question": 4988,
      "Node": 4989,
      "erscore": 4990,
      "writting": 4991,
      "yourself": 4992,
      "libtool": 4993,
      "libanjuta": 4994,
      "libsv": 4995,
      "Congratul": 4996,
      "who": 4997,
      "white": 4998,
      "aining": 4999,
      "cher": 5000,
      "cherry": 5001,
      "updated": 5002,
      "Shows": 5003,
      "syncronize": 5004,
      "synchronous": 5005,
      "doing": 5006,
      "OpenH323": 5007,
      "Trust": 5008,
      "Training": 5009,
      "newer": 5010,
      "Most": 5011,
      "hasn": 5012,
      "Setter": 5013,
      "ipsize": 5014,
      "Generating": 5015,
      "programming": 5016,
      "applies": 5017,
      "Autoconf": 5018,
      "sourceforge": 5019,
      "Cherry": 5020,
      "modelines": 5021,
      "Colour": 5022,
      "Collecting": 5023,
      "Explorer": 5024,
      "desaturation": 5025,
      "lowing": 5026,
      "para": 5027,
      "Held": 5028,
      "Heading": 5029,
      "matches": 5030,
      "Values": 5031,
      "Forget": 5032,
      "Manages": 5033,
      "diffing": 5034,
      "differences": 5035,
      "Todo": 5036,
      "marks": 5037,
      "Helper": 5038,
      "built": 5039,
      "backoff": 5040,
      "Fonts": 5041,
      "Fontconfig": 5042,
      "tempt": 5043,
      "Similarly": 5044,
      "requires": 5045,
      "Instant": 5046,
      "viewing": 5047,
      "cameras": 5048,
      "keypres": 5049,
      "keywords": 5050,
      "Changed": 5051,
      "Imports": 5052,
      "overwritting": 5053,
      "Absolute": 5054,
      "followed": 5055,
      "Resize": 5056,
      "Resume": 5057,
      "Resuming": 5058,
      "addressbook": 5059,
      "Compression": 5060,
      "committing": 5061,
      "Highlighting": 5062,
      "Mininum": 5063,
      "Leading": 5064,
      "workout": 5065,
      "finishes": 5066,
      "regarding": 5067,
      "indexed": 5068,
      "Alternative": 5069,
      "apps": 5070,
      "wards": 5071,
      "poration": 5072,
      "porarily": 5073,
      "terminate": 5074,
      "documentations": 5075,
      "Bugs": 5076,
      "Interactive": 5077,
      "Pointer": 5078,
      "accessibles": 5079,
      "Toolkit": 5080,
      "logout": 5081,
      "Actor": 5082,
      "signaled": 5083,
      "Printing": 5084,
      "Speed": 5085,
      "Merged": 5086,
      "ultaneous": 5087,
      "framework": 5088,
      "Coordinate": 5089,
      "Columns": 5090,
      "parenthe": 5091,
      "ensional": 5092,
      "missed": 5093,
      "possibly": 5094,
      "tea": 5095,
      "\".%": 5096,
      "packagekit": 5097,
      "Acti": 5098,
      "Activatable": 5099,
      "Linker": 5100,
      "webproject": 5101,
      "connections": 5102,
      "phony": 5103,
      "initialization": 5104,
      "reamable": 5105,
      "timestamp": 5106,
      "translations": 5107,
      "resolving": 5108,
      "Series": 5109,
      "Serial": 5110,
      "ClutterGravity": 5111,
      "against": 5112,
      "Initializer": 5113,
      "Statusbar": 5114,
      "handling": 5115,
      "modifiable": 5116,
      "Cancellable": 5117,
      "Detected": 5118,
      "Parallel": 5119,
      "highlighted": 5120,
      "Connected": 5121,
      "Getter": 5122,
      "namically": 5123,
      "simultaneous": 5124,
      "important": 5125,
      "INT": 5126,
      "statistics": 5127,
      "appearance": 5128,
      "Axes": 5129,
      "neighbor": 5130,
      "nearest": 5131,
      "Normalization": 5132,
      "underscore": 5133,
      "Validator": 5134,
      "Validating": 5135,
      "Validates": 5136,
      "Very": 5137,
      "labels": 5138,
      "Skipping": 5139,
      "tests": 5140,
      "executables": 5141,
      "warned": 5142,
      "What": 5143,
      "Container": 5144,
      "Perform": 5145,
      "primary": 5146,
      "Ignored": 5147,
      "suffix": 5148,
      "transmitting": 5149,
      "Contacts": 5150,
      "identify": 5151,
      "computed": 5152,
      "natively": 5153,
      "Requests": 5154,
      "Hinting": 5155,
      "Idle": 5156,
      "collected": 5157,
      "dynamically": 5158,
      "alphanumerics": 5159,
      "DEBU": 5160,
      "Framework": 5161,
      "Before": 5162,
      "Begin": 5163,
      "SASL": 5164,
      "meters": 5165,
      "docking": 5166,
      "Locked": 5167,
      "glb": 5168,
      "xyz": 5169,
      "restarted": 5170,
      "typing": 5171,
      "typically": 5172,
      "recursively": 5173,
      "Squash": 5174,
      "2006": 5175,
      "2007": 5176,
      "browsed": 5177,
      "`~\".": 5178,
      "merges": 5179,
      "num1": 5180,
      "num2": 5181,
      "included": 5182,
      "belongs": 5183,
      "GET": 5184,
      "WIDGET": 5185,
      "asterisk": 5186,
      "encryption": 5187,
      "NOTICE": 5188,
      "cache": 5189,
      "painted": 5190,
      "optimizations": 5191,
      "ialias": 5192,
      "separators": 5193,
      "cvsrc": 5194,
      "Corporation": 5195,
      "normally": 5196,
      "requirements": 5197,
      "FAQs": 5198,
      "IBM": 5199,
      "gateway": 5200,
      "switched": 5201,
      "switcher": 5202,
      "releasing": 5203,
      "relevant": 5204,
      "ancestry": 5205,
      "adjusted": 5206,
      "upgrading": 5207,
      "upgrade": 5208,
      "Externally": 5209,
      "'.'": 5210,
      "Justify": 5211,
      "Majority": 5212,
      "issue": 5213,
      "Console": 5214,
      "rendered": 5215,
      "Extents": 5216,
      "CIF": 5217,
      "brackets": 5218,
      "increment": 5219,
      "structed": 5220,
      "manipulating": 5221,
      "Constants": 5222,
      "Guess": 5223,
      "concerned": 5224,
      "Identity": 5225,
      "Antialias": 5226,
      "Dialpad": 5227,
      "Pressed": 5228,
      "probing": 5229,
      "prompted": 5230,
      "authorization": 5231,
      "features": 5232,
      "EXCE": 5233,
      "Tutorials": 5234,
      "Hotkeys": 5235,
      "Lesser": 5236,
      "quickly": 5237,
      "'/'": 5238,
      "Blurb": 5239,
      "Tests": 5240,
      "'('": 5241,
      "'-',": 5242,
      "Adapt": 5243,
      "BOX": 5244,
      "Camera": 5245,
      "COPYING": 5246,
      "Dimensional": 5247,
      "Dubious": 5248,
      "Ellipsize": 5249,
      "Everything": 5250,
      "FIFO": 5251,
      "Following": 5252,
      "Gjs": 5253,
      "Handle": 5254,
      "Marshaller": 5255,
      "Obstructed": 5256,
      "PWLIB": 5257,
      "Populating": 5258,
      "Section": 5259,
      "SIGINT": 5260,
      "Telephony": 5261,
      "bandwidth": 5262,
      "cially": 5263,
      "course": 5264,
      "coffee": 5265,
      "druid": 5266,
      "fundamental": 5267,
      "happen": 5268,
      "mponent": 5269,
      "pushes": 5270,
      "purely": 5271,
      "taken": 5272,
      "informative": 5273,
      "inheritances": 5274,
      "represents": 5275,
      "encountered": 5276,
      "searched": 5277,
      "semicolon": 5278,
      "alidate": 5279,
      "especially": 5280,
      "sticky": 5281,
      "Second": 5282,
      "speech": 5283,
      "Revisions": 5284,
      "reciprocal": 5285,
      "concludes": 5286,
      "Unexpected": 5287,
      "libsvn": 5288,
      "Congratulations": 5289,
      "Headings": 5290,
      "keypresses": 5291,
      "parentheses": 5292,
      "simultaneously": 5293,
      "DEBUG": 5294,
      "EXCEPT": 5295,
      "56": 5296,
      "Aim": 5297,
      "Ace": 5298,
      "Agn": 5299,
      "Athen": 5300,
      "Br": 5301,
      "Bind": 5302,
      "Best": 5303,
      "Brun": 5304,
      "Bear": 5305,
      "Bele": 5306,
      "Blon": 5307,
      "Cr": 5308,
      "Came": 5309,
      "Clock": 5310,
      "Eas": 5311,
      "Eight": 5312,
      "East": 5313,
      "Esc": 5314,
      "Eagle": 5315,
      "Fall": 5316,
      "Fish": 5317,
      "Gi": 5318,
      "Gn": 5319,
      "Gol": 5320,
      "Gay": 5321,
      "Gord": 5322,
      "Gold": 5323,
      "Games": 5324,
      "Glen": 5325,
      "Gyp": 5326,
      "Hop": 5327,
      "High": 5328,
      "ISD": 5329,
      "Jum": 5330,
      "Jack": 5331,
      "James": 5332,
      "JOK": 5333,
      "Jane": 5334,
      "Kans": 5335,
      "Lad": 5336,
      "Look": 5337,
      "LAN": 5338,
      "Larger": 5339,
      "Me": 5340,
      "Mont": 5341,
      "Mary": 5342,
      "Multi": 5343,
      "Os": 5344,
      "Pe": 5345,
      "Pile": 5346,
      "Pee": 5347,
      "Pouch": 5348,
      "Ro": 5349,
      "Rand": 5350,
      "Round": 5351,
      "Sar": 5352,
      "Six": 5353,
      "Sir": 5354,
      "Tour": 5355,
      "Vit": 5356,
      "Vale": 5357,
      "Wing": 5358,
      "Will": 5359,
      "Wait": 5360,
      "Wood": 5361,
      "Wisp": 5362,
      "Yu": 5363,
      "Yield": 5364,
      "Zeb": 5365,
      "`%": 5366,
      "aight": 5367,
      "abel": 5368,
      "atog": 5369,
      "ahaven": 5370,
      "bert": 5371,
      "bone": 5372,
      "blow": 5373,
      "css": 5374,
      "causes": 5375,
      "day": 5376,
      "drop": 5377,
      "dental": 5378,
      "flo": 5379,
      "fits": 5380,
      "fives": 5381,
      "ferencing": 5382,
      "gu": 5383,
      "gres": 5384,
      "give": 5385,
      "hug": 5386,
      "home": 5387,
      "huffle": 5388,
      "iqu": 5389,
      "kon": 5390,
      "kes": 5391,
      "lot": 5392,
      "lap": 5393,
      "nin": 5394,
      "nlight": 5395,
      "nification": 5396,
      "niqu": 5397,
      "pion": 5398,
      "pet": 5399,
      "pipe": 5400,
      "rin": 5401,
      "rub": 5402,
      "round": 5403,
      "sink": 5404,
      "ts": 5405,
      "tat": 5406,
      "tal": 5407,
      "tes": 5408,
      "uct": 5409,
      "vator": 5410,
      "would": 5411,
      "woo": 5412,
      "wood": 5413,
      "wins": 5414,
      "walk": 5415,
      "yal": 5416,
      "zen": 5417,
      "inator": 5418,
      "lec": 5419,
      "leons": 5420,
      "onferencing": 5421,
      "rees": 5422,
      "rear": 5423,
      "rede": 5424,
      "reets": 5425,
      "ergen": 5426,
      "tol": 5427,
      "town": 5428,
      "total": 5429,
      "atched": 5430,
      "attempt": 5431,
      "ora": 5432,
      "istol": 5433,
      "itted": 5434,
      "alator": 5435,
      "deoc": 5436,
      "dealing": 5437,
      "ague": 5438,
      "agnification": 5439,
      "ots": 5440,
      "amin": 5441,
      "urally": 5442,
      "street": 5443,
      "advanced": 5444,
      "threes": 5445,
      "plier": 5446,
      "direst": 5447,
      "iminator": 5448,
      "ettes": 5449,
      "emergen": 5450,
      "excluded": 5451,
      "ntine": 5452,
      "trar": 5453,
      "Seahaven": 5454,
      "spread": 5455,
      "spots": 5456,
      "suits": 5457,
      "sunlight": 5458,
      "omly": 5459,
      "Progres": 5460,
      "Deals": 5461,
      "unes": 5462,
      "unless": 5463,
      "poker": 5464,
      "poleons": 5465,
      "mosis": 5466,
      "istenc": 5467,
      "ibou": 5468,
      "uel": 5469,
      "intup": 5470,
      "Streets": 5471,
      "Plait": 5472,
      "makes": 5473,
      "condition": 5474,
      "Shuffle": 5475,
      "burns": 5476,
      "shar": 5477,
      "share": 5478,
      "ordion": 5479,
      "izard": 5480,
      "Union": 5481,
      "Unplayed": 5482,
      "Undefined": 5483,
      "Aunt": 5484,
      "Auld": 5485,
      "Dozen": 5486,
      "quintup": 5487,
      "Consider": 5488,
      "byrin": 5489,
      "Thumb": 5490,
      "Thir": 5491,
      "amond": 5492,
      "kings": 5493,
      "Setting": 5494,
      "cribe": 5495,
      "Chess": 5496,
      "Collap": 5497,
      "atorze": 5498,
      "worst": 5499,
      "tens": 5500,
      "Diamond": 5501,
      "Helsink": 5502,
      "buddy": 5503,
      "backrub": 5504,
      "ideret": 5505,
      "Canfield": 5506,
      "twos": 5507,
      "Reserve": 5508,
      "Reshuffle": 5509,
      "Syne": 5510,
      "Quatorze": 5511,
      "mean": 5512,
      "eights": 5513,
      "Alley": 5514,
      "Albert": 5515,
      "corner": 5516,
      "fours": 5517,
      "jacks": 5518,
      "sevens": 5519,
      "sixes": 5520,
      "queens": 5521,
      "gameplay": 5522,
      "leftmost": 5523,
      "Poker": 5524,
      "Suit": 5525,
      "login": 5526,
      "Across": 5527,
      "Calls": 5528,
      "Played": 5529,
      "Isabel": 5530,
      "Defaults": 5531,
      "Filters": 5532,
      "Spideret": 5533,
      "Applications": 5534,
      "editable": 5535,
      "Signora": 5536,
      "Redhead": 5537,
      "Cards": 5538,
      "Backbone": 5539,
      "Straight": 5540,
      "Struct": 5541,
      "naturally": 5542,
      "reception": 5543,
      "subfolder": 5544,
      "Return": 5545,
      "hands": 5546,
      "Terrace": 5547,
      "Law": 5548,
      "Labyrin": 5549,
      "strings": 5550,
      "Refreshing": 5551,
      "Worst": 5552,
      "ranging": 5553,
      "hopscotch": 5554,
      "Doublets": 5555,
      "graphics": 5556,
      "Neighbor": 5557,
      "cancel": 5558,
      "River": 5559,
      "headers": 5560,
      "Animatable": 5561,
      "Accordion": 5562,
      "Square": 5563,
      "Monitors": 5564,
      "Whitehead": 5565,
      "Napoleons": 5566,
      "Fourteen": 5567,
      "Kings": 5568,
      "Registrar": 5569,
      "Scuffle": 5570,
      "Carlo": 5571,
      "Carpet": 5572,
      "Caribou": 5573,
      "Forty": 5574,
      "Fortress": 5575,
      "Fortunes": 5576,
      "Westhaven": 5577,
      "pluginviews": 5578,
      "Elevator": 5579,
      "Stars": 5580,
      "represented": 5581,
      "Audience": 5582,
      "Maze": 5583,
      "Consistenc": 5584,
      "renderer": 5585,
      "Extended": 5586,
      "Scoring": 5587,
      "Scorpion": 5588,
      "Treize": 5589,
      "Tomb": 5590,
      "Tommy": 5591,
      "crosswalk": 5592,
      "staple": 5593,
      "stapler": 5594,
      "Ringing": 5595,
      "Queen": 5596,
      "Triple": 5597,
      "eferences": 5598,
      "occured": 5599,
      "Castle": 5600,
      "Eliminator": 5601,
      "Patience": 5602,
      "Agnes": 5603,
      "Athena": 5604,
      "Bristol": 5605,
      "Brunettes": 5606,
      "Beleague": 5607,
      "Blondes": 5608,
      "Cruel": 5609,
      "Camelot": 5610,
      "Easthaven": 5611,
      "Escalator": 5612,
      "Falling": 5613,
      "Fishing": 5614,
      "Giant": 5615,
      "Gnome": 5616,
      "Golf": 5617,
      "Gordons": 5618,
      "Glenwood": 5619,
      "Gypsy": 5620,
      "Hopscotch": 5621,
      "ISDN": 5622,
      "Jumbo": 5623,
      "Jamestown": 5624,
      "JOKER": 5625,
      "Kansas": 5626,
      "Lady": 5627,
      "Monte": 5628,
      "Multiplier": 5629,
      "Osmosis": 5630,
      "Peaks": 5631,
      "Pileon": 5632,
      "Peek": 5633,
      "Royal": 5634,
      "Randomly": 5635,
      "Rounds": 5636,
      "Saratog": 5637,
      "Tourniqu": 5638,
      "Vitamin": 5639,
      "Valentine": 5640,
      "Yukon": 5641,
      "Zebra": 5642,
      "floss": 5643,
      "nines": 5644,
      "tatistics": 5645,
      "woods": 5646,
      "rearranging": 5647,
      "redeal": 5648,
      "deoconferencing": 5649,
      "emergency": 5650,
      "spreadsheet": 5651,
      "Progressive": 5652,
      "quintuple": 5653,
      "Thirteen": 5654,
      "Chessboard": 5655,
      "Collapse": 5656,
      "Helsinki": 5657,
      "Alleys": 5658,
      "Spiderette": 5659,
      "Redheads": 5660,
      "Labyrinth": 5661,
      "Consistency": 5662,
      "Beleaguered": 5663,
      "Saratoga": 5664,
      "Tourniquets": 5665,
      "')": 5666,
      "-%": 5667,
      "1p": 5668,
      "1st": 5669,
      "102": 5670,
      "125": 5671,
      "128": 5672,
      "175": 5673,
      "150": 5674,
      "300": 5675,
      "400": 5676,
      "AS": 5677,
      "Ba": 5678,
      "Bus": 5679,
      "Batching": 5680,
      "Cable": 5681,
      "Cause": 5682,
      "Destroyed": 5683,
      "F2": 5684,
      "Hold": 5685,
      "Limit": 5686,
      "Mon": 5687,
      "Magnification": 5688,
      "NP": 5689,
      "Navig": 5690,
      "Rect": 5691,
      "Rend": 5692,
      "Rule": 5693,
      "She": 5694,
      "Sugg": 5695,
      "Tile": 5696,
      "Typ": 5697,
      "Win": 5698,
      "Waste": 5699,
      "XInput": 5700,
      "Zero": 5701,
      "aque": 5702,
      "bring": 5703,
      "batched": 5704,
      "dates": 5705,
      "domain": 5706,
      "destroyed": 5707,
      "fire": 5708,
      "fuz": 5709,
      "got": 5710,
      "gly": 5711,
      "horizont": 5712,
      "homogeneous": 5713,
      "ientation": 5714,
      "ieving": 5715,
      "ki": 5716,
      "kable": 5717,
      "kip": 5718,
      "las": 5719,
      "mom": 5720,
      "mip": 5721,
      "pace": 5722,
      "pone": 5723,
      "pivot": 5724,
      "power": 5725,
      "rames": 5726,
      "rices": 5727,
      "surn": 5728,
      "tain": 5729,
      "uated": 5730,
      "vbgr": 5731,
      "vrgb": 5732,
      "yy": 5733,
      "zero": 5734,
      "inch": 5735,
      "iness": 5736,
      "legate": 5737,
      "oned": 5738,
      "rever": 5739,
      "reach": 5740,
      "resiz": 5741,
      "ering": 5742,
      "eration": 5743,
      "todo": 5744,
      "ative": 5745,
      "orientation": 5746,
      "ission": 5747,
      "enes": 5748,
      "align": 5749,
      "def": 5750,
      "derer": 5751,
      "deceler": 5752,
      "agade": 5753,
      "oted": 5754,
      "aspect": 5755,
      "icy": 5756,
      "ilation": 5757,
      "ilds": 5758,
      "stages": 5759,
      "strain": 5760,
      "stpone": 5761,
      "adds": 5762,
      "entum": 5763,
      "entri": 5764,
      "entire": 5765,
      "entuated": 5766,
      "threshold": 5767,
      "think": 5768,
      "proxy": 5769,
      "becom": 5770,
      "childs": 5771,
      "dimen": 5772,
      "emap": 5773,
      "emitted": 5774,
      "emission": 5775,
      "igo": 5776,
      "opaque": 5777,
      "projection": 5778,
      "compo": 5779,
      "composite": 5780,
      "trave": 5781,
      "Self": 5782,
      "pture": 5783,
      "auve": 5784,
      "authentication": 5785,
      "spell": 5786,
      "subject": 5787,
      "Reactive": 5788,
      "Decode": 5789,
      "Deceler": 5790,
      "Delegate": 5791,
      "ppend": 5792,
      "ific": 5793,
      "sions": 5794,
      "uncomp": 5795,
      "pool": 5796,
      "curity": 5797,
      "kept": 5798,
      "cloned": 5799,
      "mapped": 5800,
      "constrain": 5801,
      "Shape": 5802,
      "..%": 5803,
      "outside": 5804,
      "playback": 5805,
      "compilation": 5806,
      "izable": 5807,
      "Unique": 5808,
      "textues": 5809,
      "flip": 5810,
      "ulk": 5811,
      "upon": 5812,
      "sys": 5813,
      "Traces": 5814,
      "Tracing": 5815,
      "slight": 5816,
      "locations": 5817,
      "lined": 5818,
      "axes": 5819,
      "interaction": 5820,
      "singular": 5821,
      "reframes": 5822,
      "Startup": 5823,
      "linked": 5824,
      "Subpixel": 5825,
      "Enables": 5826,
      "perc": 5827,
      "Debugging": 5828,
      "Excluded": 5829,
      "Disables": 5830,
      "vertically": 5831,
      "Here": 5832,
      "matrices": 5833,
      "lanc": 5834,
      "Textures": 5835,
      "Forces": 5836,
      "specific": 5837,
      "grouping": 5838,
      "counting": 5839,
      "positioning": 5840,
      "override": 5841,
      "DisplayName": 5842,
      "Resizable": 5843,
      "stopped": 5844,
      "Sync": 5845,
      "Compiled": 5846,
      "Minification": 5847,
      "Updates": 5848,
      "registered": 5849,
      "CoglTexture": 5850,
      "CoglBlend": 5851,
      "CoglWin": 5852,
      "Logs": 5853,
      "animated": 5854,
      "animatable": 5855,
      "Interpol": 5856,
      "fontconfig": 5857,
      "logo": 5858,
      "pressed": 5859,
      "seekable": 5860,
      "Outline": 5861,
      "Prints": 5862,
      "Renderer": 5863,
      "scenes": 5864,
      "localize": 5865,
      "misc": 5866,
      "DevHelp": 5867,
      "justified": 5868,
      "retrieving": 5869,
      "parented": 5870,
      "Transformation": 5871,
      "Attribute": 5872,
      "Atlas": 5873,
      "Backward": 5874,
      "hintfull": 5875,
      "hintnone": 5876,
      "hintmedium": 5877,
      "hintslight": 5878,
      "connecting": 5879,
      "phase": 5880,
      "requesting": 5881,
      "accentuated": 5882,
      "passing": 5883,
      "times": 5884,
      "translation": 5885,
      "subpixel": 5886,
      "subtitle": 5887,
      "subtitles": 5888,
      "ClutterPath": 5889,
      "ClutterBackend": 5890,
      "Keyword": 5891,
      "implementing": 5892,
      "Seek": 5893,
      "INBOX": 5894,
      "printable": 5895,
      "dragged": 5896,
      "bounding": 5897,
      "examples": 5898,
      "Forwarding": 5899,
      "Capture": 5900,
      "Strings": 5901,
      "pressing": 5902,
      "Expected": 5903,
      "focus": 5904,
      "Otherwise": 5905,
      "Which": 5906,
      "namespace": 5907,
      "ellipsize": 5908,
      "primit": 5909,
      "Clipboard": 5910,
      "Realized": 5911,
      "cancelation": 5912,
      "compute": 5913,
      "collecting": 5914,
      "Download": 5915,
      "Categories": 5916,
      "policy": 5917,
      "Supported": 5918,
      "Flip": 5919,
      "glsl": 5920,
      "restarting": 5921,
      "512": 5922,
      "rains": 5923,
      "Headers": 5924,
      "scrolling": 5925,
      "Convers": 5926,
      "HTTP": 5927,
      "includes": 5928,
      "Scroll": 5929,
      "redirects": 5930,
      "Visualize": 5931,
      "flatten": 5932,
      "realized": 5933,
      "Removed": 5934,
      "issues": 5935,
      "Character": 5936,
      "CII": 5937,
      "Drawing": 5938,
      "Treemap": 5939,
      "dots": 5940,
      "increasing": 5941,
      "manipulation": 5942,
      "Constrains": 5943,
      "WARNING": 5944,
      "Rings": 5945,
      "YUV2": 5946,
      "obab": 5947,
      "obtain": 5948,
      "suggestion": 5949,
      "wiki": 5950,
      "wireframes": 5951,
      "combined": 5952,
      "combination": 5953,
      "reduce": 5954,
      "reducing": 5955,
      "CoglObjects": 5956,
      "ARBfp": 5957,
      "Specialist": 5958,
      "behavioural": 5959,
      "GPU": 5960,
      "uplink": 5961,
      "GdkDisplay": 5962,
      "fallback": 5963,
      "Order": 5964,
      "Disturb": 5965,
      "Received": 5966,
      "56k": 5967,
      "pipeline": 5968,
      "attempts": 5969,
      "sharing": 5970,
      "cancelled": 5971,
      "')'": 5972,
      "1px": 5973,
      "1024": 5974,
      "ASCII": 5975,
      "Baobab": 5976,
      "Business": 5977,
      "NPOT": 5978,
      "Navigate": 5979,
      "Rectangle": 5980,
      "Rendering": 5981,
      "Shelf": 5982,
      "Typing": 5983,
      "fuzzy": 5984,
      "glyph": 5985,
      "horizontally": 5986,
      "momentum": 5987,
      "mipmapping": 5988,
      "surname": 5989,
      "reversed": 5990,
      "reaching": 5991,
      "resized": 5992,
      "decelerate": 5993,
      "agadelic": 5994,
      "entries": 5995,
      "becomes": 5996,
      "dimensions": 5997,
      "travel": 5998,
      "Deceleration": 5999,
      "uncompress": 6000,
      "CoglTexturePixmap": 6001,
      "CoglBlendString": 6002,
      "CoglWinsys": 6003,
      "Interpolate": 6004,
      "primitives": 6005,
      "/\"": 6006,
      "Dupl": 6007,
      "Face": 6008,
      "Fav": 6009,
      "Flat": 6010,
      "LS": 6011,
      "Lt": 6012,
      "MH": 6013,
      "Ph": 6014,
      "Smaller": 6015,
      "TOS": 6016,
      "TLS": 6017,
      "Urg": 6018,
      "We": 6019,
      "Word": 6020,
      "Wizard": 6021,
      "cry": 6022,
      "dconf": 6023,
      "gative": 6024,
      "him": 6025,
      "hig": 6026,
      "high": 6027,
      "jk": 6028,
      "lations": 6029,
      "mbox": 6030,
      "ns": 6031,
      "rib": 6032,
      "say": 6033,
      "ssi": 6034,
      "sche": 6035,
      "switch": 6036,
      "vices": 6037,
      "ying": 6038,
      "incomplete": 6039,
      "leg": 6040,
      "onical": 6041,
      "related": 6042,
      "orite": 6043,
      "ital": 6044,
      "dead": 6045,
      "developer": 6046,
      "agree": 6047,
      "Separ": 6048,
      "sport": 6049,
      "Relations": 6050,
      "unread": 6051,
      "unlink": 6052,
      "unregister": 6053,
      "unsent": 6054,
      "Disposition": 6055,
      "Inbox": 6056,
      "Index": 6057,
      "DVDCSS": 6058,
      "Share": 6059,
      "Shoot": 6060,
      "outbox": 6061,
      "player": 6062,
      "oosing": 6063,
      "assume": 6064,
      "Unregistered": 6065,
      "Composition": 6066,
      "quer": 6067,
      "whit": 6068,
      "optimal": 6069,
      "reader": 6070,
      "abc": 6071,
      "Generates": 6072,
      "Autoplay": 6073,
      "Directly": 6074,
      "raft": 6075,
      "Today": 6076,
      "temp": 6077,
      "METHO": 6078,
      "Canonical": 6079,
      "Model": 6080,
      "Highlights": 6081,
      "Leak": 6082,
      "ghi": 6083,
      "Possi": 6084,
      "presence": 6085,
      "Libisofs": 6086,
      "Blanks": 6087,
      "Registered": 6088,
      "extensions": 6089,
      "tabulation": 6090,
      "States": 6091,
      "Resolution": 6092,
      "folding": 6093,
      "negative": 6094,
      "performance": 6095,
      "answered": 6096,
      "Ejecting": 6097,
      "pretend": 6098,
      "regionset": 6099,
      "digital": 6100,
      "solve": 6101,
      "Network": 6102,
      "HTML": 6103,
      "devices": 6104,
      "correspond": 6105,
      "Guides": 6106,
      "Schema": 6107,
      "concerns": 6108,
      "Tries": 6109,
      "Enumeration": 6110,
      "normalization": 6111,
      "dictionary": 6112,
      "POP3": 6113,
      "Mono": 6114,
      "Suggestion": 6115,
      "percent": 6116,
      "Downloads": 6117,
      "Conversations": 6118,
      "Favorite": 6119,
      "Ltd": 6120,
      "Urgent": 6121,
      "higher": 6122,
      "schema": 6123,
      "raftbox": 6124,
      "METHOD": 6125,
      "Possible": 6126,
      "\"=": 6127,
      "):%": 6128,
      "14": 6129,
      "20": 6130,
      "26": 6131,
      "2x": 6132,
      "225": 6133,
      "35": 6134,
      "6x": 6135,
      ">,": 6136,
      "AU": 6137,
      "Amb": 6138,
      "AGE": 6139,
      "Cc": 6140,
      "Cra": 6141,
      "DB": 6142,
      "Echo": 6143,
      "Fin": 6144,
      "Fri": 6145,
      "Fore": 6146,
      "Family": 6147,
      "GR": 6148,
      "GFile": 6149,
      "Glob": 6150,
      "GDB": 6151,
      "Hig": 6152,
      "Il": 6153,
      "Jitter": 6154,
      "Kind": 6155,
      "Kick": 6156,
      "Lag": 6157,
      "Late": 6158,
      "Mix": 6159,
      "Put": 6160,
      "Pay": 6161,
      "Part": 6162,
      "Pager": 6163,
      "Pictures": 6164,
      "Purge": 6165,
      "QCIF": 6166,
      "RS": 6167,
      "RTP": 6168,
      "SB": 6169,
      "SM": 6170,
      "Sm": 6171,
      "Sile": 6172,
      "Sent": 6173,
      "Smo": 6174,
      "Sup": 6175,
      "Saf": 6176,
      "Store": 6177,
      "Socket": 6178,
      "Taking": 6179,
      "Talk": 6180,
      "USB": 6181,
      "Wave": 6182,
      "XVideo": 6183,
      "air": 6184,
      "bp": 6185,
      "bal": 6186,
      "bil": 6187,
      "big": 6188,
      "bol": 6189,
      "bine": 6190,
      "bri": 6191,
      "boolean": 6192,
      "cro": 6193,
      "cast": 6194,
      "cir": 6195,
      "cmd": 6196,
      "due": 6197,
      "eas": 6198,
      "eve": 6199,
      "glib": 6200,
      "hy": 6201,
      "ias": 6202,
      "iform": 6203,
      "klondike": 6204,
      "lus": 6205,
      "mno": 6206,
      "mits": 6207,
      "macro": 6208,
      "master": 6209,
      "much": 6210,
      "pq": 6211,
      "pid": 6212,
      "purge": 6213,
      "rs": 6214,
      "rase": 6215,
      "rides": 6216,
      "sur": 6217,
      "stor": 6218,
      "ssh": 6219,
      "sorted": 6220,
      "tu": 6221,
      "tv": 6222,
      "tail": 6223,
      "ture": 6224,
      "task": 6225,
      "txt": 6226,
      "ually": 6227,
      "uous": 6228,
      "vest": 6229,
      "ww": 6230,
      "win": 6231,
      "wish": 6232,
      "wxyz": 6233,
      "x26": 6234,
      "ylus": 6235,
      "hest": 6236,
      "inac": 6237,
      "invest": 6238,
      "leave": 6239,
      "rep": 6240,
      "repor": 6241,
      "reinstalling": 6242,
      "reprodu": 6243,
      "ervis": 6244,
      "attribute": 6245,
      "ork": 6246,
      "ank": 6247,
      "ansport": 6248,
      "eness": 6249,
      "ensure": 6250,
      "encap": 6251,
      "outer": 6252,
      "alias": 6253,
      "arant": 6254,
      "deletion": 6255,
      "stand": 6256,
      "stain": 6257,
      "entity": 6258,
      "thus": 6259,
      "thick": 6260,
      "proced": 6261,
      "chrom": 6262,
      "charge": 6263,
      "impro": 6264,
      "imize": 6265,
      "ety": 6266,
      "igating": 6267,
      "iguous": 6268,
      "opy": 6269,
      "opposite": 6270,
      "utilities": 6271,
      "extended": 6272,
      "combine": 6273,
      "celation": 6274,
      "triple": 6275,
      "Security": 6276,
      "authent": 6277,
      "spider": 6278,
      "spatial": 6279,
      "sulated": 6280,
      "sustain": 6281,
      "orting": 6282,
      "Reject": 6283,
      "Reloading": 6284,
      "Recharge": 6285,
      "Produ": 6286,
      "Protocol": 6287,
      "reconfig": 6288,
      "Decl": 6289,
      "ificate": 6290,
      "sip": 6291,
      "users": 6292,
      "resses": 6293,
      "unsupported": 6294,
      "unanswered": 6295,
      "uniform": 6296,
      "post": 6297,
      "inear": 6298,
      "Insufficient": 6299,
      "curate": 6300,
      "ertificate": 6301,
      "Stylus": 6302,
      "clang": 6303,
      "peer": 6304,
      "cancell": 6305,
      "leting": 6306,
      "consider": 6307,
      "shift": 6308,
      "bugs": 6309,
      "bugreport": 6310,
      "bugmaster": 6311,
      "addresses": 6312,
      "actually": 6313,
      "Undec": 6314,
      "Unauthoriz": 6315,
      "Unlimit": 6316,
      "Unsorted": 6317,
      "endpoint": 6318,
      "Videoconferencing": 6319,
      "manage": 6320,
      "ailing": 6321,
      "Congest": 6322,
      "twork": 6323,
      "Channel": 6324,
      "Choosing": 6325,
      "upwards": 6326,
      "colour": 6327,
      "Thank": 6328,
      "Trade": 6329,
      "Transport": 6330,
      "Client": 6331,
      "tracker": 6332,
      "Contrib": 6333,
      "ably": 6334,
      "absolute": 6335,
      "aborting": 6336,
      "minimize": 6337,
      "Enlarge": 6338,
      "Engl": 6339,
      "Encry": 6340,
      "dupl": 6341,
      "ipher": 6342,
      "ipants": 6343,
      "AutoComplete": 6344,
      "pathname": 6345,
      "perbol": 6346,
      "permits": 6347,
      "lowest": 6348,
      "Lost": 6349,
      "Forb": 6350,
      "accessing": 6351,
      "Toler": 6352,
      "Helgrind": 6353,
      "helps": 6354,
      "helping": 6355,
      "mails": 6356,
      "temporarily": 6357,
      "detailing": 6358,
      "overrides": 6359,
      "anymore": 6360,
      "Abnormal": 6361,
      "lasts": 6362,
      "follows": 6363,
      "freecell": 6364,
      "Once": 6365,
      "PIP": 6366,
      "Describe": 6367,
      "WindowState": 6368,
      "Compass": 6369,
      "appname": 6370,
      "soundcard": 6371,
      "poral": 6372,
      "termination": 6373,
      "saves": 6374,
      "Internal": 6375,
      "Postpone": 6376,
      "Libburn": 6377,
      "positive": 6378,
      "Spell": 6379,
      "Speak": 6380,
      "Associ": 6381,
      "Addressbook": 6382,
      "mailboxes": 6383,
      "parenthesis": 6384,
      "Spatial": 6385,
      "understand": 6386,
      "Artwork": 6387,
      "contacted": 6388,
      "downwards": 6389,
      "Maildir": 6390,
      "php": 6391,
      "choices": 6392,
      "passage": 6393,
      "timing": 6394,
      "PACK": 6395,
      "Services": 6396,
      "Detect": 6397,
      "Keyboard": 6398,
      "Retrieve": 6399,
      "allowing": 6400,
      "allowed": 6401,
      "FOGR": 6402,
      "Listen": 6403,
      "othing": 6404,
      "Temporarily": 6405,
      "Temporal": 6406,
      "Office": 6407,
      "TSTO": 6408,
      "sender": 6409,
      "Underlined": 6410,
      "folded": 6411,
      "scripts": 6412,
      "Stopping": 6413,
      "France": 6414,
      "effective": 6415,
      "hops": 6416,
      "roles": 6417,
      "Prediction": 6418,
      "Predictive": 6419,
      "prepare": 6420,
      "predictive": 6421,
      "THORS": 6422,
      "accelerated": 6423,
      "drawn": 6424,
      "specifying": 6425,
      "margins": 6426,
      "Toolbars": 6427,
      "Conference": 6428,
      "Conferencing": 6429,
      "Neighb": 6430,
      "Processing": 6431,
      "Roles": 6432,
      "crashes": 6433,
      "resulting": 6434,
      "didn": 6435,
      "licensed": 6436,
      "utors": 6437,
      "Centre": 6438,
      "voices": 6439,
      "original": 6440,
      "everywhere": 6441,
      "288": 6442,
      "Screencast": 6443,
      "Memcheck": 6444,
      "conference": 6445,
      "DirectX": 6446,
      "Softphone": 6447,
      "adapts": 6448,
      "Pixels": 6449,
      "looking": 6450,
      "braces": 6451,
      "patience": 6452,
      "covering": 6453,
      "Compose": 6454,
      "America": 6455,
      "refreshing": 6456,
      "participants": 6457,
      "cleanup": 6458,
      "Identifier": 6459,
      "Antler": 6460,
      "Dialog": 6461,
      "Queue": 6462,
      "ccc": 6463,
      "suggestions": 6464,
      "probably": 6465,
      "prompt": 6466,
      "featured": 6467,
      "GdkWindowState": 6468,
      "honouring": 6469,
      "1720": 6470,
      "176x": 6471,
      "dvdcss": 6472,
      "product": 6473,
      "Standby": 6474,
      "Adaptation": 6475,
      "Binding": 6476,
      "guarant": 6477,
      "lector": 6478,
      "compose": 6479,
      "obtained": 6480,
      "Duplicate": 6481,
      "jkl": 6482,
      "says": 6483,
      "legal": 6484,
      "whiteness": 6485,
      "tempfile": 6486,
      "correspondence": 6487,
      "Monochrom": 6488,
      "\"=\".": 6489,
      "144": 6490,
      "2x288": 6491,
      "352x288": 6492,
      "AUTHORS": 6493,
      "Ambiguous": 6494,
      "Crazy": 6495,
      "Friend": 6496,
      "Globally": 6497,
      "Highest": 6498,
      "Illegal": 6499,
      "Mixture": 6500,
      "Payment": 6501,
      "Smile": 6502,
      "Silent": 6503,
      "Smoothing": 6504,
      "Supervis": 6505,
      "Safety": 6506,
      "Wavefiles": 6507,
      "airs": 6508,
      "bps": 6509,
      "balance": 6510,
      "bilinear": 6511,
      "brief": 6512,
      "crossh": 6513,
      "circle": 6514,
      "easily": 6515,
      "hyperbol": 6516,
      "pqrs": 6517,
      "surpass": 6518,
      "storage": 6519,
      "tuv": 6520,
      "win32": 6521,
      "inaccurate": 6522,
      "investigating": 6523,
      "reporter": 6524,
      "reproduce": 6525,
      "encapsulated": 6526,
      "thickness": 6527,
      "procedure": 6528,
      "Product": 6529,
      "Protocols": 6530,
      "reconfigured": 6531,
      "Decline": 6532,
      "uniformity": 6533,
      "cancellation": 6534,
      "Undecipher": 6535,
      "Unauthorized": 6536,
      "Unlimited": 6537,
      "Congested": 6538,
      "Contributors": 6539,
      "English": 6540,
      "Tolerance": 6541,
      "Associate": 6542,
      "PACKAGE": 6543,
      "FOGRA": 6544,
      "Neighbours": 6545,
      "176x144": 6546,
      "guarantee": 6547,
      "Monochrome": 6548,
      "Supervisor": 6549,
      "crosshairs": 6550,
      "hyperbolic": 6551,
      "Undecipherable": 6552,
      "0x": 6553,
      "Away": 6554,
      "Blanc": 6555,
      "Cu": 6556,
      "DO": 6557,
      "Dice": 6558,
      "Draftbox": 6559,
      "EF": 6560,
      "Eyet": 6561,
      "FP": 6562,
      "Fo": 6563,
      "FTP": 6564,
      "Grow": 6565,
      "Good": 6566,
      "Grep": 6567,
      "Hulk": 6568,
      "JW": 6569,
      "Live": 6570,
      "Launch": 6571,
      "My": 6572,
      "Mal": 6573,
      "Milliseconds": 6574,
      "Mauve": 6575,
      "Pid": 6576,
      "PGP": 6577,
      "Si": 6578,
      "Subs": 6579,
      "TEX": 6580,
      "UP": 6581,
      "Using": 6582,
      "WN": 6583,
      "War": 6584,
      "Well": 6585,
      "ber": 6586,
      "bis": 6587,
      "blanc": 6588,
      "certificate": 6589,
      "dang": 6590,
      "dice": 6591,
      "fur": 6592,
      "fine": 6593,
      "his": 6594,
      "hang": 6595,
      "hulk": 6596,
      "mem": 6597,
      "mus": 6598,
      "mach": 6599,
      "mauve": 6600,
      "oing": 6601,
      "pop": 6602,
      "ration": 6603,
      "rack": 6604,
      "skip": 6605,
      "tt": 6606,
      "tact": 6607,
      "weight": 6608,
      "leaks": 6609,
      "erous": 6610,
      "ater": 6611,
      "atform": 6612,
      "anis": 6613,
      "allen": 6614,
      "deleting": 6615,
      "asking": 6616,
      "icating": 6617,
      "icates": 6618,
      "stret": 6619,
      "platform": 6620,
      "Then": 6621,
      "chanis": 6622,
      "ems": 6623,
      "iginal": 6624,
      "export": 6625,
      "videoconferencing": 6626,
      "Selector": 6627,
      "lder": 6628,
      "ldwide": 6629,
      "Declar": 6630,
      "Define": 6631,
      "ppress": 6632,
      "indents": 6633,
      "unge": 6634,
      "ibration": 6635,
      "ubject": 6636,
      "formed": 6637,
      "Shagadelic": 6638,
      "shagadelic": 6639,
      "Unread": 6640,
      "quoted": 6641,
      "Noir": 6642,
      "Chooser": 6643,
      "Challen": 6644,
      "upied": 6645,
      "Opens": 6646,
      "flagged": 6647,
      "windowed": 6648,
      "abber": 6649,
      "Enjo": 6650,
      "dually": 6651,
      "ongoing": 6652,
      "noir": 6653,
      "Subtree": 6654,
      "permit": 6655,
      "Exit": 6656,
      "worldwide": 6657,
      "vertigo": 6658,
      "matter": 6659,
      "general": 6660,
      "buy": 6661,
      "Modem": 6662,
      "Rescan": 6663,
      "Designer": 6664,
      "Quoted": 6665,
      "Colors": 6666,
      "cdrom": 6667,
      "Interact": 6668,
      "Interaction": 6669,
      "Suppress": 6670,
      "Vertigo": 6671,
      "Calling": 6672,
      "Outbox": 6673,
      "signing": 6674,
      "Signature": 6675,
      "dialpad": 6676,
      "MDN": 6677,
      "phones": 6678,
      "Sender": 6679,
      "Body": 6680,
      "Execution": 6681,
      "Books": 6682,
      "things": 6683,
      "MAIL": 6684,
      "Work": 6685,
      "Normalize": 6686,
      "books": 6687,
      "warp": 6688,
      "Prev": 6689,
      "Contacted": 6690,
      "closed": 6691,
      "identity": 6692,
      "GtkSourceview": 6693,
      "capture": 6694,
      "Beagle": 6695,
      "Customize": 6696,
      "Flash": 6697,
      "variant": 6698,
      "threads": 6699,
      "sentence": 6700,
      "Pane": 6701,
      "Definition": 6702,
      "SamplePlugin": 6703,
      "calibration": 6704,
      "Flagged": 6705,
      "streamer": 6706,
      "individually": 6707,
      "DSL128": 6708,
      "DSL512": 6709,
      "Presentation": 6710,
      "poned": 6711,
      "determining": 6712,
      "occupied": 6713,
      "Original": 6714,
      "Distant": 6715,
      "Hangup": 6716,
      "Waiting": 6717,
      "guides": 6718,
      "lecule": 6719,
      "Rules": 6720,
      "56kbps": 6721,
      "Phone": 6722,
      "Separator": 6723,
      "querying": 6724,
      "Foreground": 6725,
      "SMTP": 6726,
      "Sentbox": 6727,
      "improve": 6728,
      "postponed": 6729,
      "Forbidden": 6730,
      "DOWN": 6731,
      "Eyetrack": 6732,
      "FPS": 6733,
      "JWZ": 6734,
      "Malformed": 6735,
      "TEXT": 6736,
      "Warp": 6737,
      "bisect": 6738,
      "dangerous": 6739,
      "further": 6740,
      "memory": 6741,
      "music": 6742,
      "machine": 6743,
      "popular": 6744,
      "tacts": 6745,
      "stretch": 6746,
      "platforms": 6747,
      "chanism": 6748,
      "Declarations": 6749,
      "Challenge": 6750,
      "Enjoy": 6751,
      "Eyetracker": 6752,
      "18": 6753,
      "324": 6754,
      "40": 6755,
      ":\"": 6756,
      ">:": 6757,
      "@%": 6758,
      "Af": 6759,
      "Atom": 6760,
      "B8": 6761,
      "Bin": 6762,
      "Bcc": 6763,
      "Cac": 6764,
      "DI": 6765,
      "Din": 6766,
      "Dvd": 6767,
      "Ent": 6768,
      "Ger": 6769,
      "GConf": 6770,
      "Growisofs": 6771,
      "Hol": 6772,
      "IM": 6773,
      "Lun": 6774,
      "Loo": 6775,
      "LDT": 6776,
      "Matches": 6777,
      "Mask": 6778,
      "Num": 6779,
      "Oc": 6780,
      "Pipe": 6781,
      "Power": 6782,
      "Qo": 6783,
      "Rub": 6784,
      "Rise": 6785,
      "Sle": 6786,
      "Touch": 6787,
      "XMP": 6788,
      "]:": 6789,
      "bigger": 6790,
      "dw": 6791,
      "europe": 6792,
      "fc": 6793,
      "gre": 6794,
      "gtail": 6795,
      "gstreamer": 6796,
      "hrase": 6797,
      "iDump": 6798,
      "jim": 6799,
      "jabber": 6800,
      "live": 6801,
      "mes": 6802,
      "mult": 6803,
      "mask": 6804,
      "moni": 6805,
      "ng": 6806,
      "ping": 6807,
      "pers": 6808,
      "puz": 6809,
      "png": 6810,
      "ric": 6811,
      "rcheck": 6812,
      "rise": 6813,
      "rink": 6814,
      "rfc": 6815,
      "sw": 6816,
      "sit": 6817,
      "udon": 6818,
      "we": 6819,
      "west": 6820,
      "wrot": 6821,
      "wizard": 6822,
      "xp": 6823,
      "ym": 6824,
      "zle": 6825,
      "©.": 6826,
      "–%": 6827,
      "hegrind": 6828,
      "inline": 6829,
      "incorrect": 6830,
      "inlined": 6831,
      "repl": 6832,
      "replaced": 6833,
      "tored": 6834,
      "atk": 6835,
      "enforce": 6836,
      "security": 6837,
      "seudon": 6838,
      "arches": 6839,
      "icated": 6840,
      "stri": 6841,
      "plane": 6842,
      "coated": 6843,
      "chain": 6844,
      "imization": 6845,
      "opping": 6846,
      "disposition": 6847,
      "ntact": 6848,
      "ontrol": 6849,
      "ocated": 6850,
      "terday": 6851,
      "Searches": 6852,
      "sphrase": 6853,
      "Reason": 6854,
      "Problem": 6855,
      "recip": 6856,
      "Declaration": 6857,
      "Addrcheck": 6858,
      "inder": 6859,
      "unused": 6860,
      "unsuccessful": 6861,
      "Disconnected": 6862,
      "postpone": 6863,
      "iday": 6864,
      "idge": 6865,
      "idump": 6866,
      "Inverse": 6867,
      "curren": 6868,
      "Reminder": 6869,
      "Answ": 6870,
      "convert": 6871,
      "construct": 6872,
      "Shrink": 6873,
      "Shopping": 6874,
      "shot": 6875,
      "shape": 6876,
      "complex": 6877,
      "activ": 6878,
      "assoc": 6879,
      "aper": 6880,
      "Uncoated": 6881,
      "ending": 6882,
      "Dogtail": 6883,
      "flow": 6884,
      "libdvdcss": 6885,
      "readonly": 6886,
      "OpenPGP": 6887,
      "Molecule": 6888,
      "Contin": 6889,
      "linear": 6890,
      "fullscale": 6891,
      "minute": 6892,
      "minidump": 6893,
      "lists": 6894,
      "criptive": 6895,
      "...%": 6896,
      "Autoformat": 6897,
      "Autogenerate": 6898,
      "reference": 6899,
      "Subkey": 6900,
      "Subgroups": 6901,
      "validity": 6902,
      "Dir": 6903,
      "checking": 6904,
      "ilters": 6905,
      "Optimization": 6906,
      "ToDo": 6907,
      "eping": 6908,
      "pplication": 6909,
      "viewer": 6910,
      "Linear": 6911,
      "Resource": 6912,
      "baseline": 6913,
      "Descriptive": 6914,
      "Quote": 6915,
      "MiniDump": 6916,
      "finish": 6917,
      "gnu": 6918,
      "gnature": 6919,
      "Recorder": 6920,
      "Maximal": 6921,
      "Libdvdcss": 6922,
      "Outgoing": 6923,
      "comments": 6924,
      "downloaded": 6925,
      "transit": 6926,
      "Signed": 6927,
      "retried": 6928,
      "MailDir": 6929,
      "WebDA": 6930,
      "elling": 6931,
      "choice": 6932,
      "subfolders": 6933,
      "subgroups": 6934,
      "asks": 6935,
      "ustomize": 6936,
      "Apps": 6937,
      "Connecting": 6938,
      "Terminate": 6939,
      "association": 6940,
      "associations": 6941,
      "Offline": 6942,
      "Comments": 6943,
      "AttachFile": 6944,
      "Marked": 6945,
      "Expedited": 6946,
      "Expunge": 6947,
      "SSL": 6948,
      "cles": 6949,
      "dbus": 6950,
      "Args": 6951,
      "Versioning": 6952,
      "Items": 6953,
      "identities": 6954,
      "feel": 6955,
      "Times": 6956,
      "licenses": 6957,
      "transitions": 6958,
      "https": 6959,
      "Menus": 6960,
      "sentbox": 6961,
      "devhelp": 6962,
      "Confirmation": 6963,
      "Sorting": 6964,
      "PHB": 6965,
      "utils": 6966,
      "Yesterday": 6967,
      "Media": 6968,
      "functions": 6969,
      "Portug": 6970,
      "gatekeeper": 6971,
      "bridge": 6972,
      "mkdir": 6973,
      "Breakfast": 6974,
      "suggest": 6975,
      "espaces": 6976,
      "registrar": 6977,
      "Strikethrough": 6978,
      "Hotkey": 6979,
      "MMM": 6980,
      "MMMM": 6981,
      "monitoring": 6982,
      "cycles": 6983,
      "dogtail": 6984,
      "Receive": 6985,
      "BOXNAME": 6986,
      "Meal": 6987,
      "Meeting": 6988,
      "Mechanism": 6989,
      "conditions": 6990,
      "GnomeCard": 6991,
      "yyyy": 6992,
      "composing": 6993,
      "spelling": 6994,
      "Phrase": 6995,
      "Separate": 6996,
      "query": 6997,
      "macros": 6998,
      "www": 6999,
      "authenticating": 7000,
      "Encrypt": 7001,
      "Encrypted": 7002,
      "duplicates": 7003,
      "Spelling": 7004,
      "0xB8": 7005,
      "MyAccount": 7006,
      "Subscribe": 7007,
      "hangup": 7008,
      "MAILBOXNAME": 7009,
      "184": 7010,
      "3246": 7011,
      "After": 7012,
      "Atomix": 7013,
      "Binary": 7014,
      "Cachegrind": 7015,
      "Dinner": 7016,
      "Entry": 7017,
      "German": 7018,
      "Holiday": 7019,
      "Lunch": 7020,
      "Looking": 7021,
      "LDTP": 7022,
      "Occurren": 7023,
      "Powerful": 7024,
      "QoS": 7025,
      "Rubric": 7026,
      "Sleeping": 7027,
      "XMPP": 7028,
      "dwelling": 7029,
      "greater": 7030,
      "mesg": 7031,
      "monitored": 7032,
      "person": 7033,
      "puzzle": 7034,
      "sites": 7035,
      "wrote": 7036,
      "replying": 7037,
      "seudonym": 7038,
      "strike": 7039,
      "Answered": 7040,
      "converts": 7041,
      "complexity": 7042,
      "activation": 7043,
      "WebDAV": 7044,
      "Occurrence": 7045,
      "Rubrica": 7046
    },
    "merges": [
      [
        "h",
        "e"
      ],
      [
        "i",
        "n"
      ],
      [
        "l",
        "e"
      ],
      [
        "o",
        "n"
      ],
      [
        "r",
        "e"
      ],
      [
        "t",
        "he"
      ],
      [
        "e",
        "r"
      ],
      [
        "t",
        "o"
      ],
      [
        "a",
        "t"
      ],
      [
        "o",
        "r"
      ],
      [
        "a",
        "n"
      ],
      [
        "i",
        "s"
      ],
      [
        "e",
        "n"
      ],
      [
        "i",
        "on"
      ],
      [
        "o",
        "u"
      ],
      [
        "s",
        "e"
      ],
      [
        "c",
        "t"
      ],
      [
        "i",
        "t"
      ],
      [
        "a",
        "l"
      ],
      [
        "in",
        "g"
      ],
      [
        "e",
        "s"
      ],
      [
        "a",
        "r"
      ],
      [
        "e",
        "d"
      ],
      [
        "r",
        "o"
      ],
      [
        "o",
        "f"
      ],
      [
        "i",
        "le"
      ],
      [
        "a",
        "c"
      ],
      [
        "d",
        "e"
      ],
      [
        "a",
        "g"
      ],
      [
        "o",
        "t"
      ],
      [
        "a",
        "s"
      ],
      [
        "v",
        "e"
      ],
      [
        "a",
        "m"
      ],
      [
        "f",
        "ile"
      ],
      [
        "e",
        "ct"
      ],
      [
        "i",
        "c"
      ],
      [
        "b",
        "le"
      ],
      [
        "u",
        "r"
      ],
      [
        "i",
        "l"
      ],
      [
        "at",
        "ion"
      ],
      [
        "f",
        "or"
      ],
      [
        "s",
        "t"
      ],
      [
        "a",
        "d"
      ],
      [
        "en",
        "t"
      ],
      [
        "t",
        "h"
      ],
      [
        "p",
        "l"
      ],
      [
        "T",
        "he"
      ],
      [
        "p",
        "ro"
      ],
      [
        "j",
        "ect"
      ],
      [
        "c",
        "o"
      ],
      [
        "b",
        "e"
      ],
      [
        "c",
        "h"
      ],
      [
        "d",
        "i"
      ],
      [
        "a",
        "ble"
      ],
      [
        "to",
        "r"
      ],
      [
        "n",
        "ot"
      ],
      [
        "i",
        "m"
      ],
      [
        "e",
        "t"
      ],
      [
        "o",
        "w"
      ],
      [
        "e",
        "m"
      ],
      [
        "i",
        "g"
      ],
      [
        "o",
        "l"
      ],
      [
        "e",
        "x"
      ],
      [
        "u",
        "g"
      ],
      [
        "an",
        "d"
      ],
      [
        "o",
        "p"
      ],
      [
        "y",
        "ou"
      ],
      [
        "le",
        "ct"
      ],
      [
        "ag",
        "e"
      ],
      [
        "u",
        "t"
      ],
      [
        "al",
        "l"
      ],
      [
        "d",
        "is"
      ],
      [
        "n",
        "t"
      ],
      [
        "u",
        "m"
      ],
      [
        "am",
        "e"
      ],
      [
        "on",
        "t"
      ],
      [
        "es",
        "s"
      ],
      [
        "pro",
        "ject"
      ],
      [
        "at",
        "e"
      ],
      [
        "e",
        "w"
      ],
      [
        "o",
        "ve"
      ],
      [
        "ex",
        "t"
      ],
      [
        "v",
        "er"
      ],
      [
        "co",
        "m"
      ],
      [
        "ac",
        "e"
      ],
      [
        "o",
        "c"
      ],
      [
        "c",
        "e"
      ],
      [
        "a",
        "se"
      ],
      [
        "dis",
        "c"
      ],
      [
        "t",
        "r"
      ],
      [
        "v",
        "i"
      ],
      [
        "n",
        "d"
      ],
      [
        "t",
        "er"
      ],
      [
        "S",
        "e"
      ],
      [
        "p",
        "t"
      ],
      [
        "a",
        "u"
      ],
      [
        "s",
        "p"
      ],
      [
        "a",
        "y"
      ],
      [
        "ac",
        "k"
      ],
      [
        "s",
        "u"
      ],
      [
        "or",
        "t"
      ],
      [
        "ar",
        "t"
      ],
      [
        "w",
        "it"
      ],
      [
        "l",
        "d"
      ],
      [
        "R",
        "e"
      ],
      [
        "ur",
        "n"
      ],
      [
        "o",
        "m"
      ],
      [
        "file",
        "s"
      ],
      [
        "P",
        "ro"
      ],
      [
        "d",
        "d"
      ],
      [
        "ug",
        "in"
      ],
      [
        "wit",
        "h"
      ],
      [
        "l",
        "l"
      ],
      [
        "u",
        "se"
      ],
      [
        "il",
        "l"
      ],
      [
        "re",
        "c"
      ],
      [
        "ou",
        "ld"
      ],
      [
        "g",
        "r"
      ],
      [
        "ig",
        "h"
      ],
      [
        "D",
        "e"
      ],
      [
        "A",
        "dd"
      ],
      [
        "p",
        "p"
      ],
      [
        "i",
        "f"
      ],
      [
        "tor",
        "y"
      ],
      [
        "in",
        "d"
      ],
      [
        "a",
        "re"
      ],
      [
        "s",
        "i"
      ],
      [
        ":",
        "%"
      ],
      [
        "u",
        "s"
      ],
      [
        "le",
        "ase"
      ],
      [
        "s",
        "ion"
      ],
      [
        "an",
        "g"
      ],
      [
        "se",
        "lect"
      ],
      [
        "re",
        "s"
      ],
      [
        "ou",
        "r"
      ],
      [
        "the",
        "r"
      ],
      [
        "ar",
        "d"
      ],
      [
        "l",
        "o"
      ],
      [
        "u",
        "n"
      ],
      [
        "D",
        "is"
      ],
      [
        "re",
        "nt"
      ],
      [
        "F",
        "ile"
      ],
      [
        "p",
        "o"
      ],
      [
        "Se",
        "lect"
      ],
      [
        "i",
        "d"
      ],
      [
        "m",
        "o"
      ],
      [
        "is",
        "t"
      ],
      [
        "i",
        "b"
      ],
      [
        "an",
        "t"
      ],
      [
        "P",
        "lease"
      ],
      [
        "u",
        "b"
      ],
      [
        "in",
        "e"
      ],
      [
        "I",
        "n"
      ],
      [
        "r",
        "i"
      ],
      [
        "u",
        "e"
      ],
      [
        "c",
        "ess"
      ],
      [
        "l",
        "y"
      ],
      [
        "n",
        "ame"
      ],
      [
        "c",
        "ur"
      ],
      [
        "th",
        "is"
      ],
      [
        "igh",
        "t"
      ],
      [
        "C",
        "D"
      ],
      [
        "k",
        "e"
      ],
      [
        "de",
        "o"
      ],
      [
        "R",
        "em"
      ],
      [
        "a",
        "ve"
      ],
      [
        "in",
        "t"
      ],
      [
        "\"",
        "%"
      ],
      [
        "er",
        "t"
      ],
      [
        "S",
        "t"
      ],
      [
        "w",
        "ill"
      ],
      [
        "c",
        "re"
      ],
      [
        "ro",
        "m"
      ],
      [
        "c",
        "l"
      ],
      [
        "P",
        "l"
      ],
      [
        "ou",
        "nd"
      ],
      [
        "ar",
        "g"
      ],
      [
        "pl",
        "ugin"
      ],
      [
        "A",
        "n"
      ],
      [
        "m",
        "a"
      ],
      [
        "p",
        "e"
      ],
      [
        "f",
        "rom"
      ],
      [
        "rec",
        "tory"
      ],
      [
        "for",
        "m"
      ],
      [
        "c",
        "an"
      ],
      [
        "D",
        "V"
      ],
      [
        "DV",
        "D"
      ],
      [
        "le",
        "t"
      ],
      [
        "c",
        "on"
      ],
      [
        "S",
        "h"
      ],
      [
        "b",
        "urn"
      ],
      [
        "d",
        "s"
      ],
      [
        "c",
        "ont"
      ],
      [
        "it",
        "ion"
      ],
      [
        ".",
        "."
      ],
      [
        "s",
        "h"
      ],
      [
        "r",
        "it"
      ],
      [
        "Pro",
        "ject"
      ],
      [
        "ou",
        "t"
      ],
      [
        "im",
        "age"
      ],
      [
        "b",
        "ug"
      ],
      [
        "r",
        "as"
      ],
      [
        "a",
        "v"
      ],
      [
        "ad",
        "d"
      ],
      [
        "pl",
        "ay"
      ],
      [
        "r",
        "or"
      ],
      [
        "com",
        "p"
      ],
      [
        "a",
        "ct"
      ],
      [
        "m",
        "ent"
      ],
      [
        "or",
        "d"
      ],
      [
        "o",
        "o"
      ],
      [
        "f",
        "f"
      ],
      [
        "di",
        "rectory"
      ],
      [
        "i",
        "z"
      ],
      [
        "re",
        "e"
      ],
      [
        "th",
        "at"
      ],
      [
        "cur",
        "rent"
      ],
      [
        "i",
        "es"
      ],
      [
        "as",
        "s"
      ],
      [
        "Rem",
        "ove"
      ],
      [
        "a",
        "p"
      ],
      [
        "e",
        "l"
      ],
      [
        "U",
        "n"
      ],
      [
        "se",
        "t"
      ],
      [
        "W",
        "he"
      ],
      [
        "w",
        "ant"
      ],
      [
        "p",
        "ort"
      ],
      [
        "M",
        "ove"
      ],
      [
        "t",
        "ext"
      ],
      [
        "our",
        "ce"
      ],
      [
        "A",
        "u"
      ],
      [
        "v",
        "al"
      ],
      [
        "vi",
        "deo"
      ],
      [
        "C",
        "om"
      ],
      [
        "Whe",
        "ther"
      ],
      [
        "en",
        "d"
      ],
      [
        "select",
        "ed"
      ],
      [
        "D",
        "o"
      ],
      [
        "f",
        "l"
      ],
      [
        "ion",
        "s"
      ],
      [
        "il",
        "d"
      ],
      [
        "q",
        "u"
      ],
      [
        "gr",
        "am"
      ],
      [
        "c",
        "k"
      ],
      [
        "en",
        "er"
      ],
      [
        "di",
        "o"
      ],
      [
        "arg",
        "et"
      ],
      [
        "ver",
        "sion"
      ],
      [
        "N",
        "o"
      ],
      [
        "ind",
        "ow"
      ],
      [
        "V",
        "i"
      ],
      [
        "re",
        "d"
      ],
      [
        "i",
        "ve"
      ],
      [
        "ol",
        "d"
      ],
      [
        "at",
        "a"
      ],
      [
        "o",
        "g"
      ],
      [
        "er",
        "s"
      ],
      [
        "w",
        "rit"
      ],
      [
        "ar",
        "y"
      ],
      [
        "ar",
        "ch"
      ],
      [
        "ac",
        "tor"
      ],
      [
        "m",
        "an"
      ],
      [
        "use",
        "d"
      ],
      [
        "ic",
        "e"
      ],
      [
        "com",
        "m"
      ],
      [
        "at",
        "ed"
      ],
      [
        "I",
        "m"
      ],
      [
        "u",
        "ll"
      ],
      [
        "at",
        "h"
      ],
      [
        "a",
        "il"
      ],
      [
        "as",
        "t"
      ],
      [
        "you",
        "r"
      ],
      [
        "u",
        "l"
      ],
      [
        "l",
        "ib"
      ],
      [
        "C",
        "on"
      ],
      [
        "y",
        "pe"
      ],
      [
        "t",
        "w"
      ],
      [
        "er",
        "o"
      ],
      [
        "w",
        "h"
      ],
      [
        "ag",
        "es"
      ],
      [
        "C",
        "h"
      ],
      [
        "a",
        "in"
      ],
      [
        "b",
        "y"
      ],
      [
        "it",
        "y"
      ],
      [
        "c",
        "he"
      ],
      [
        "C",
        "op"
      ],
      [
        "ras",
        "ero"
      ],
      [
        "ent",
        "s"
      ],
      [
        "op",
        "t"
      ],
      [
        "u",
        "re"
      ],
      [
        "u",
        "p"
      ],
      [
        "re",
        "ad"
      ],
      [
        "co",
        "l"
      ],
      [
        "v",
        "ice"
      ],
      [
        "C",
        "re"
      ],
      [
        "O",
        "p"
      ],
      [
        "Sh",
        "ow"
      ],
      [
        "N",
        "ew"
      ],
      [
        "T",
        "h"
      ],
      [
        "s",
        "y"
      ],
      [
        "B",
        "urn"
      ],
      [
        "ess",
        "age"
      ],
      [
        "i",
        "x"
      ],
      [
        "d",
        "o"
      ],
      [
        "art",
        "s"
      ],
      [
        "t",
        "arget"
      ],
      [
        "on",
        "to"
      ],
      [
        "j",
        "ut"
      ],
      [
        "jut",
        "a"
      ],
      [
        "c",
        "ard"
      ],
      [
        "b",
        "o"
      ],
      [
        "at",
        "ch"
      ],
      [
        "pt",
        "y"
      ],
      [
        "Op",
        "en"
      ],
      [
        "An",
        "juta"
      ],
      [
        "T",
        "r"
      ],
      [
        "am",
        "on"
      ],
      [
        "s",
        "l"
      ],
      [
        "e",
        "c"
      ],
      [
        "ch",
        "ang"
      ],
      [
        "l",
        "oc"
      ],
      [
        "lo",
        "ad"
      ],
      [
        "k",
        "ing"
      ],
      [
        "c",
        "cess"
      ],
      [
        "fl",
        "ag"
      ],
      [
        "n",
        "ew"
      ],
      [
        "pp",
        "ort"
      ],
      [
        "res",
        "s"
      ],
      [
        "all",
        "y"
      ],
      [
        "Pl",
        "ugin"
      ],
      [
        "es",
        "t"
      ],
      [
        "C",
        "l"
      ],
      [
        "c",
        "ould"
      ],
      [
        "au",
        "dio"
      ],
      [
        "ub",
        "s"
      ],
      [
        "he",
        "arts"
      ],
      [
        "ag",
        "er"
      ],
      [
        "ad",
        "es"
      ],
      [
        "di",
        "amon"
      ],
      [
        "sp",
        "ades"
      ],
      [
        "cl",
        "ubs"
      ],
      [
        "Cop",
        "y"
      ],
      [
        "diamon",
        "ds"
      ],
      [
        "M",
        "o"
      ],
      [
        "g",
        "er"
      ],
      [
        "on",
        "e"
      ],
      [
        "op",
        "en"
      ],
      [
        "d",
        "ata"
      ],
      [
        "ent",
        "er"
      ],
      [
        "ot",
        "e"
      ],
      [
        "tr",
        "ack"
      ],
      [
        "w",
        "indow"
      ],
      [
        "in",
        "st"
      ],
      [
        "S",
        "ave"
      ],
      [
        "i",
        "ble"
      ],
      [
        "su",
        "pport"
      ],
      [
        "C",
        "ont"
      ],
      [
        "ig",
        "n"
      ],
      [
        "A",
        "ll"
      ],
      [
        "u",
        "ild"
      ],
      [
        "l",
        "in"
      ],
      [
        "em",
        "pty"
      ],
      [
        "let",
        "e"
      ],
      [
        "a",
        "b"
      ],
      [
        "h",
        "as"
      ],
      [
        "re",
        "vi"
      ],
      [
        "p",
        "ert"
      ],
      [
        "l",
        "ine"
      ],
      [
        "f",
        "ull"
      ],
      [
        "m",
        "in"
      ],
      [
        "ow",
        "n"
      ],
      [
        "E",
        "n"
      ],
      [
        "h",
        "o"
      ],
      [
        "ic",
        "ation"
      ],
      [
        "i",
        "ed"
      ],
      [
        "om",
        "e"
      ],
      [
        "form",
        "ation"
      ],
      [
        "re",
        "m"
      ],
      [
        "d",
        "u"
      ],
      [
        "S",
        "et"
      ],
      [
        "l",
        "ist"
      ],
      [
        "s",
        "er"
      ],
      [
        "on",
        "g"
      ],
      [
        "a",
        "x"
      ],
      [
        "c",
        "ri"
      ],
      [
        "n",
        "o"
      ],
      [
        "i",
        "p"
      ],
      [
        "um",
        "b"
      ],
      [
        "i",
        "v"
      ],
      [
        "cri",
        "pt"
      ],
      [
        "U",
        "R"
      ],
      [
        "c",
        "all"
      ],
      [
        "in",
        "ter"
      ],
      [
        "B",
        "rasero"
      ],
      [
        "Com",
        "m"
      ],
      [
        "..",
        "."
      ],
      [
        "pl",
        "ace"
      ],
      [
        "re",
        "n"
      ],
      [
        "ed",
        "i"
      ],
      [
        "z",
        "e"
      ],
      [
        "G",
        "ener"
      ],
      [
        "s",
        "ing"
      ],
      [
        "de",
        "vice"
      ],
      [
        "sh",
        "ould"
      ],
      [
        "pro",
        "gram"
      ],
      [
        "ap",
        "pl"
      ],
      [
        "E",
        "r"
      ],
      [
        "Y",
        "ou"
      ],
      [
        "er",
        "ror"
      ],
      [
        "ou",
        "s"
      ],
      [
        "Er",
        "ror"
      ],
      [
        "w",
        "he"
      ],
      [
        "po",
        "int"
      ],
      [
        "Au",
        "to"
      ],
      [
        "w",
        "id"
      ],
      [
        "re",
        "f"
      ],
      [
        "St",
        "art"
      ],
      [
        "to",
        "p"
      ],
      [
        "U",
        "se"
      ],
      [
        "l",
        "t"
      ],
      [
        "ct",
        "ion"
      ],
      [
        "s",
        "ition"
      ],
      [
        "ation",
        "s"
      ],
      [
        "Dis",
        "c"
      ],
      [
        "Th",
        "is"
      ],
      [
        "l",
        "a"
      ],
      [
        "p",
        "y"
      ],
      [
        "comm",
        "and"
      ],
      [
        "\\",
        "\\"
      ],
      [
        "b",
        "ject"
      ],
      [
        "p",
        "ath"
      ],
      [
        "a",
        "k"
      ],
      [
        "t",
        "ype"
      ],
      [
        "st",
        "art"
      ],
      [
        "t",
        "ing"
      ],
      [
        "ro",
        "w"
      ],
      [
        "si",
        "ze"
      ],
      [
        "f",
        "ig"
      ],
      [
        "Cre",
        "ate"
      ],
      [
        "lin",
        "k"
      ],
      [
        "f",
        "ound"
      ],
      [
        "s",
        "ert"
      ],
      [
        "old",
        "er"
      ],
      [
        "lib",
        "r"
      ],
      [
        "ition",
        "al"
      ],
      [
        "S",
        "ub"
      ],
      [
        "oc",
        "um"
      ],
      [
        "i",
        "pp"
      ],
      [
        "n",
        "ing"
      ],
      [
        "En",
        "able"
      ],
      [
        "s",
        "ource"
      ],
      [
        "d",
        "it"
      ],
      [
        "ur",
        "ation"
      ],
      [
        "C",
        "he"
      ],
      [
        "n",
        "ext"
      ],
      [
        "re",
        "qu"
      ],
      [
        "p",
        "er"
      ],
      [
        "I",
        "f"
      ],
      [
        "m",
        "b"
      ],
      [
        "im",
        "um"
      ],
      [
        "mo",
        "de"
      ],
      [
        "flag",
        "s"
      ],
      [
        "De",
        "bug"
      ],
      [
        "v",
        "is"
      ],
      [
        "a",
        "ke"
      ],
      [
        "sp",
        "ace"
      ],
      [
        "ile",
        "d"
      ],
      [
        "op",
        "er"
      ],
      [
        "bo",
        "x"
      ],
      [
        "m",
        "essage"
      ],
      [
        "do",
        "es"
      ],
      [
        "du",
        "le"
      ],
      [
        "C",
        "ol"
      ],
      [
        "E",
        "x"
      ],
      [
        "l",
        "p"
      ],
      [
        "ou",
        "p"
      ],
      [
        "ic",
        "k"
      ],
      [
        "Se",
        "arch"
      ],
      [
        "Dis",
        "able"
      ],
      [
        "a",
        "tor"
      ],
      [
        "c",
        "es"
      ],
      [
        "au",
        "to"
      ],
      [
        "burn",
        "ing"
      ],
      [
        "d",
        "es"
      ],
      [
        "Vi",
        "ew"
      ],
      [
        "chang",
        "es"
      ],
      [
        "umb",
        "er"
      ],
      [
        "n",
        "ipp"
      ],
      [
        "de",
        "bug"
      ],
      [
        "im",
        "e"
      ],
      [
        "nipp",
        "et"
      ],
      [
        "i",
        "al"
      ],
      [
        "p",
        "ut"
      ],
      [
        "mb",
        "ol"
      ],
      [
        "S",
        "ource"
      ],
      [
        "w",
        "or"
      ],
      [
        "um",
        "n"
      ],
      [
        "oo",
        "k"
      ],
      [
        "oo",
        "se"
      ],
      [
        "N",
        "ame"
      ],
      [
        "ver",
        "t"
      ],
      [
        "f",
        "au"
      ],
      [
        "fau",
        "lt"
      ],
      [
        "B",
        "uild"
      ],
      [
        "w",
        "as"
      ],
      [
        "ou",
        "nt"
      ],
      [
        "ad",
        "er"
      ],
      [
        "(",
        "%"
      ],
      [
        "l",
        "ow"
      ],
      [
        "p",
        "ar"
      ],
      [
        "ho",
        "to"
      ],
      [
        "c",
        "a"
      ],
      [
        "ar",
        "k"
      ],
      [
        "co",
        "py"
      ],
      [
        "C",
        "V"
      ],
      [
        "val",
        "id"
      ],
      [
        "CV",
        "S"
      ],
      [
        "C",
        "ur"
      ],
      [
        "t",
        "en"
      ],
      [
        "H",
        "e"
      ],
      [
        "f",
        "ace"
      ],
      [
        "h",
        "ave"
      ],
      [
        "re",
        "ak"
      ],
      [
        "ent",
        "ation"
      ],
      [
        "m",
        "at"
      ],
      [
        "en",
        "se"
      ],
      [
        "ic",
        "ense"
      ],
      [
        "G",
        "N"
      ],
      [
        "e",
        "v"
      ],
      [
        "to",
        "ol"
      ],
      [
        "an",
        "s"
      ],
      [
        "cre",
        "en"
      ],
      [
        "can",
        "not"
      ],
      [
        "V",
        "al"
      ],
      [
        "b",
        "ut"
      ],
      [
        "p",
        "le"
      ],
      [
        "an",
        "ce"
      ],
      [
        "Vi",
        "deo"
      ],
      [
        "d",
        "ri"
      ],
      [
        "u",
        "st"
      ],
      [
        "in",
        "formation"
      ],
      [
        "Im",
        "age"
      ],
      [
        "C",
        "ould"
      ],
      [
        "Un",
        "able"
      ],
      [
        "p",
        "ack"
      ],
      [
        "a",
        "iled"
      ],
      [
        "plugin",
        "s"
      ],
      [
        "t",
        "able"
      ],
      [
        "L",
        "o"
      ],
      [
        "libr",
        "ary"
      ],
      [
        "D",
        "i"
      ],
      [
        "e",
        "ed"
      ],
      [
        "he",
        "d"
      ],
      [
        "man",
        "ager"
      ],
      [
        "UR",
        "I"
      ],
      [
        "l",
        "an"
      ],
      [
        "k",
        "n"
      ],
      [
        "ve",
        "l"
      ],
      [
        "pert",
        "ies"
      ],
      [
        "E",
        "dit"
      ],
      [
        "o",
        "re"
      ],
      [
        "wid",
        "th"
      ],
      [
        "st",
        "em"
      ],
      [
        "che",
        "ck"
      ],
      [
        "Sub",
        "version"
      ],
      [
        "su",
        "ccess"
      ],
      [
        "reak",
        "point"
      ],
      [
        "r",
        "a"
      ],
      [
        "co",
        "de"
      ],
      [
        "col",
        "or"
      ],
      [
        "o",
        "ther"
      ],
      [
        "Pl",
        "ace"
      ],
      [
        "s",
        "creen"
      ],
      [
        "on",
        "ly"
      ],
      [
        "il",
        "ter"
      ],
      [
        "full",
        "y"
      ],
      [
        "whe",
        "n"
      ],
      [
        "T",
        "ext"
      ],
      [
        "l",
        "ight"
      ],
      [
        "p",
        "an"
      ],
      [
        "revi",
        "ous"
      ],
      [
        "L",
        "icense"
      ],
      [
        "ic",
        "al"
      ],
      [
        "Pro",
        "gram"
      ],
      [
        "F",
        "or"
      ],
      [
        "M",
        "an"
      ],
      [
        "i",
        "r"
      ],
      [
        "cript",
        "ion"
      ],
      [
        "se",
        "arch"
      ],
      [
        "iz",
        "e"
      ],
      [
        "kn",
        "own"
      ],
      [
        "O",
        "pt"
      ],
      [
        "ac",
        "cess"
      ],
      [
        "po",
        "si"
      ],
      [
        "Burn",
        "ing"
      ],
      [
        "vis",
        "ion"
      ],
      [
        "s",
        "ome"
      ],
      [
        "The",
        "re"
      ],
      [
        "sp",
        "ec"
      ],
      [
        "igh",
        "light"
      ],
      [
        "File",
        "s"
      ],
      [
        "opt",
        "ions"
      ],
      [
        "Che",
        "ck"
      ],
      [
        "g",
        "ener"
      ],
      [
        "at",
        "ing"
      ],
      [
        "di",
        "ff"
      ],
      [
        "us",
        "ing"
      ],
      [
        "select",
        "ion"
      ],
      [
        "T",
        "o"
      ],
      [
        "e",
        "p"
      ],
      [
        "m",
        "ark"
      ],
      [
        "nt",
        "er"
      ],
      [
        "ax",
        "is"
      ],
      [
        "H",
        "el"
      ],
      [
        "L",
        "oc"
      ],
      [
        "'",
        "%"
      ],
      [
        "b",
        "u"
      ],
      [
        "g",
        "e"
      ],
      [
        "re",
        "port"
      ],
      [
        "E",
        "di"
      ],
      [
        "b",
        "ack"
      ],
      [
        "d",
        "ate"
      ],
      [
        "g",
        "et"
      ],
      [
        "he",
        "lp"
      ],
      [
        "if",
        "y"
      ],
      [
        "Select",
        "ed"
      ],
      [
        "cont",
        "ain"
      ],
      [
        "in",
        "sert"
      ],
      [
        "opt",
        "ion"
      ],
      [
        "Lo",
        "ad"
      ],
      [
        "success",
        "fully"
      ],
      [
        "Edi",
        "tor"
      ],
      [
        "i",
        "ct"
      ],
      [
        "r",
        "an"
      ],
      [
        "pl",
        "it"
      ],
      [
        "su",
        "re"
      ],
      [
        "gr",
        "oup"
      ],
      [
        "e",
        "ren"
      ],
      [
        "you",
        "t"
      ],
      [
        "Cl",
        "ass"
      ],
      [
        "c",
        "ount"
      ],
      [
        "ac",
        "h"
      ],
      [
        "us",
        "er"
      ],
      [
        "ma",
        "il"
      ],
      [
        "if",
        "ied"
      ],
      [
        "po",
        "sition"
      ],
      [
        "edi",
        "tor"
      ],
      [
        "F",
        "ont"
      ],
      [
        "t",
        "em"
      ],
      [
        "S",
        "im"
      ],
      [
        "b",
        "ar"
      ],
      [
        "t",
        "ree"
      ],
      [
        "Cur",
        "rent"
      ],
      [
        "posi",
        "tory"
      ],
      [
        "g",
        "le"
      ],
      [
        "le",
        "d"
      ],
      [
        "writ",
        "able"
      ],
      [
        "appl",
        "ication"
      ],
      [
        "oper",
        "ations"
      ],
      [
        "Opt",
        "ions"
      ],
      [
        "at",
        "us"
      ],
      [
        "requ",
        "i"
      ],
      [
        "it",
        "s"
      ],
      [
        "lo",
        "se"
      ],
      [
        "wh",
        "ile"
      ],
      [
        "ec",
        "ut"
      ],
      [
        "writ",
        "e"
      ],
      [
        "Hel",
        "p"
      ],
      [
        "ex",
        "ist"
      ],
      [
        "val",
        "ue"
      ],
      [
        "en",
        "able"
      ],
      [
        "is",
        "sing"
      ],
      [
        "ail",
        "able"
      ],
      [
        "as",
        "h"
      ],
      [
        "In",
        "st"
      ],
      [
        "sy",
        "stem"
      ],
      [
        "rem",
        "ote"
      ],
      [
        "M",
        "E"
      ],
      [
        "tr",
        "ib"
      ],
      [
        "un",
        "ction"
      ],
      [
        "trib",
        "ut"
      ],
      [
        "i",
        "de"
      ],
      [
        "p",
        "pl"
      ],
      [
        "de",
        "t"
      ],
      [
        "cre",
        "ated"
      ],
      [
        "av",
        "a"
      ],
      [
        "f",
        "ol"
      ],
      [
        "m",
        "ay"
      ],
      [
        "re",
        "ct"
      ],
      [
        "form",
        "at"
      ],
      [
        "sl",
        "ot"
      ],
      [
        "P",
        "ath"
      ],
      [
        "p",
        "ix"
      ],
      [
        "pro",
        "cess"
      ],
      [
        "C",
        "an"
      ],
      [
        "vi",
        "ew"
      ],
      [
        "w",
        "ord"
      ],
      [
        "nd",
        "er"
      ],
      [
        "sy",
        "mbol"
      ],
      [
        "L",
        "ine"
      ],
      [
        "c",
        "am"
      ],
      [
        "d",
        "ocum"
      ],
      [
        "s",
        "s"
      ],
      [
        "ke",
        "y"
      ],
      [
        "Ch",
        "ang"
      ],
      [
        "t",
        "ag"
      ],
      [
        "ic",
        "h"
      ],
      [
        "Im",
        "port"
      ],
      [
        "Mo",
        "de"
      ],
      [
        "C",
        "le"
      ],
      [
        "k",
        "ig"
      ],
      [
        "o",
        "ver"
      ],
      [
        "he",
        "ight"
      ],
      [
        "ar",
        "act"
      ],
      [
        "Dis",
        "play"
      ],
      [
        "cre",
        "ate"
      ],
      [
        "ma",
        "ke"
      ],
      [
        "comp",
        "ile"
      ],
      [
        "rem",
        "ove"
      ],
      [
        "kig",
        "a"
      ],
      [
        "A",
        "ccess"
      ],
      [
        "tw",
        "o"
      ],
      [
        "Debug",
        "ger"
      ],
      [
        "Gener",
        "al"
      ],
      [
        "e",
        "b"
      ],
      [
        "col",
        "umn"
      ],
      [
        "f",
        "t"
      ],
      [
        "r",
        "u"
      ],
      [
        "r",
        "y"
      ],
      [
        "w",
        "ay"
      ],
      [
        "an",
        "y"
      ],
      [
        "wh",
        "ich"
      ],
      [
        "eren",
        "ces"
      ],
      [
        "se",
        "s"
      ],
      [
        "A",
        "b"
      ],
      [
        "l",
        "ast"
      ],
      [
        "requi",
        "red"
      ],
      [
        "with",
        "out"
      ],
      [
        "let",
        "ed"
      ],
      [
        "R",
        "un"
      ],
      [
        "s",
        "nippet"
      ],
      [
        "or",
        "iz"
      ],
      [
        "Inst",
        "all"
      ],
      [
        "M",
        "ake"
      ],
      [
        "T",
        "ype"
      ],
      [
        "q",
        "ue"
      ],
      [
        "r",
        "int"
      ],
      [
        "fol",
        "low"
      ],
      [
        "p",
        "hoto"
      ],
      [
        "in",
        "ue"
      ],
      [
        "it",
        "e"
      ],
      [
        "ca",
        "le"
      ],
      [
        "R",
        "es"
      ],
      [
        "b",
        "ase"
      ],
      [
        "f",
        "ree"
      ],
      [
        "mo",
        "re"
      ],
      [
        "M",
        "essage"
      ],
      [
        "se",
        "con"
      ],
      [
        "spec",
        "ified"
      ],
      [
        "l",
        "ic"
      ],
      [
        "am",
        "es"
      ],
      [
        "add",
        "ress"
      ],
      [
        "mat",
        "ic"
      ],
      [
        "dri",
        "ve"
      ],
      [
        "O",
        "n"
      ],
      [
        "P",
        "I"
      ],
      [
        "n",
        "ect"
      ],
      [
        "s",
        "to"
      ],
      [
        "t",
        "ime"
      ],
      [
        "of",
        "tw"
      ],
      [
        "ch",
        "aract"
      ],
      [
        "dis",
        "play"
      ],
      [
        "ul",
        "ation"
      ],
      [
        "call",
        "s"
      ],
      [
        "ook",
        "mark"
      ],
      [
        "lan",
        "k"
      ],
      [
        "oftw",
        "are"
      ],
      [
        "S",
        "y"
      ],
      [
        "C",
        "lose"
      ],
      [
        "ff",
        "er"
      ],
      [
        "loc",
        "ation"
      ],
      [
        "Man",
        "ager"
      ],
      [
        "Access",
        "ible"
      ],
      [
        "D",
        "es"
      ],
      [
        "I",
        "t"
      ],
      [
        "Q",
        "u"
      ],
      [
        "A",
        "ppl"
      ],
      [
        "F",
        "ind"
      ],
      [
        "W",
        "indow"
      ],
      [
        "r",
        "un"
      ],
      [
        "ar",
        "i"
      ],
      [
        "de",
        "fault"
      ],
      [
        "Com",
        "p"
      ],
      [
        "t",
        "on"
      ],
      [
        "re",
        "place"
      ],
      [
        "comm",
        "it"
      ],
      [
        "la",
        "yout"
      ],
      [
        "n",
        "umber"
      ],
      [
        "o",
        "bject"
      ],
      [
        "ma",
        "in"
      ],
      [
        "con",
        "fig"
      ],
      [
        "read",
        "y"
      ],
      [
        "ref",
        "erences"
      ],
      [
        "H",
        "ighlight"
      ],
      [
        "oriz",
        "ont"
      ],
      [
        "M",
        "in"
      ],
      [
        "O",
        "bject"
      ],
      [
        "e",
        "en"
      ],
      [
        "m",
        "e"
      ],
      [
        "th",
        "on"
      ],
      [
        "comp",
        "lete"
      ],
      [
        "f",
        "older"
      ],
      [
        "f",
        "ore"
      ],
      [
        "r",
        "ag"
      ],
      [
        "to",
        "m"
      ],
      [
        "Can",
        "not"
      ],
      [
        "L",
        "e"
      ],
      [
        "Rem",
        "ote"
      ],
      [
        "Ch",
        "oose"
      ],
      [
        "cont",
        "ents"
      ],
      [
        "Comm",
        "it"
      ],
      [
        "0",
        "2"
      ],
      [
        "W",
        "id"
      ],
      [
        "it",
        "ial"
      ],
      [
        "sh",
        "ow"
      ],
      [
        "revi",
        "ew"
      ],
      [
        "wor",
        "k"
      ],
      [
        "Au",
        "dio"
      ],
      [
        "orizont",
        "al"
      ],
      [
        "t",
        "k"
      ],
      [
        "al",
        "s"
      ],
      [
        "de",
        "x"
      ],
      [
        "mo",
        "dule"
      ],
      [
        "ist",
        "ant"
      ],
      [
        "U",
        "p"
      ],
      [
        "f",
        "in"
      ],
      [
        "be",
        "en"
      ],
      [
        "Add",
        "itional"
      ],
      [
        "si",
        "de"
      ],
      [
        "l",
        "at"
      ],
      [
        "m",
        "en"
      ],
      [
        "re",
        "g"
      ],
      [
        "ff",
        "ect"
      ],
      [
        "compile",
        "r"
      ],
      [
        "i",
        "re"
      ],
      [
        "s",
        "or"
      ],
      [
        "De",
        "lete"
      ],
      [
        "support",
        "ed"
      ],
      [
        "bu",
        "ffer"
      ],
      [
        "C",
        "og"
      ],
      [
        "E",
        "kiga"
      ],
      [
        "J",
        "ava"
      ],
      [
        "be",
        "fore"
      ],
      [
        "Cog",
        "l"
      ],
      [
        "E",
        "nd"
      ],
      [
        "K",
        "e"
      ],
      [
        "e",
        "ight"
      ],
      [
        "n",
        "al"
      ],
      [
        "r",
        "ight"
      ],
      [
        "in",
        "dex"
      ],
      [
        "i",
        "e"
      ],
      [
        "it",
        "em"
      ],
      [
        "gener",
        "ic"
      ],
      [
        "A",
        "l"
      ],
      [
        "A",
        "re"
      ],
      [
        "a",
        "pp"
      ],
      [
        "s",
        "ound"
      ],
      [
        "al",
        "led"
      ],
      [
        "ch",
        "ild"
      ],
      [
        "rec",
        "ord"
      ],
      [
        "av",
        "ailable"
      ],
      [
        "GN",
        "U"
      ],
      [
        "c",
        "or"
      ],
      [
        "f",
        "our"
      ],
      [
        "j",
        "ack"
      ],
      [
        "v",
        "en"
      ],
      [
        "se",
        "ven"
      ],
      [
        "be",
        "tw"
      ],
      [
        "si",
        "x"
      ],
      [
        "Sim",
        "ulation"
      ],
      [
        "que",
        "en"
      ],
      [
        "betw",
        "een"
      ],
      [
        "B",
        "reakpoint"
      ],
      [
        "re",
        "vision"
      ],
      [
        "ran",
        "ch"
      ],
      [
        "P",
        "atch"
      ],
      [
        "w",
        "ard"
      ],
      [
        "le",
        "r"
      ],
      [
        "ras",
        "h"
      ],
      [
        "Mo",
        "dule"
      ],
      [
        "ting",
        "s"
      ],
      [
        "Col",
        "or"
      ],
      [
        "a",
        "f"
      ],
      [
        "f",
        "r"
      ],
      [
        "g",
        "ing"
      ],
      [
        "n",
        "eed"
      ],
      [
        "D",
        "ata"
      ],
      [
        "p",
        "or"
      ],
      [
        "al",
        "ready"
      ],
      [
        "ter",
        "min"
      ],
      [
        "che",
        "s"
      ],
      [
        "\"",
        "-"
      ],
      [
        "G",
        "o"
      ],
      [
        "c",
        "d"
      ],
      [
        "ex",
        "ecut"
      ],
      [
        "ord",
        "er"
      ],
      [
        "Ab",
        "out"
      ],
      [
        "G",
        "r"
      ],
      [
        "e",
        "gr"
      ],
      [
        "g",
        "ame"
      ],
      [
        "it",
        "le"
      ],
      [
        "oc",
        "cur"
      ],
      [
        "f",
        "ive"
      ],
      [
        "i",
        "B"
      ],
      [
        "n",
        "ine"
      ],
      [
        "le",
        "ft"
      ],
      [
        "th",
        "ree"
      ],
      [
        "pro",
        "perties"
      ],
      [
        "af",
        "ter"
      ],
      [
        "F",
        "ailed"
      ],
      [
        "s",
        "av"
      ],
      [
        "an",
        "sl"
      ],
      [
        "Re",
        "place"
      ],
      [
        "card",
        "s"
      ],
      [
        "Copy",
        "ing"
      ],
      [
        "but",
        "ton"
      ],
      [
        "pan",
        "e"
      ],
      [
        "L",
        "og"
      ],
      [
        "h",
        "a"
      ],
      [
        "m",
        "ust"
      ],
      [
        "s",
        "ave"
      ],
      [
        "dis",
        "tribut"
      ],
      [
        "inst",
        "all"
      ],
      [
        "pack",
        "ages"
      ],
      [
        "an",
        "im"
      ],
      [
        "al",
        "y"
      ],
      [
        "docum",
        "ent"
      ],
      [
        "ari",
        "able"
      ],
      [
        "I",
        "D"
      ],
      [
        "f",
        "ilter"
      ],
      [
        "g",
        "h"
      ],
      [
        "enable",
        "d"
      ],
      [
        "follow",
        "ing"
      ],
      [
        "B",
        "ug"
      ],
      [
        "I",
        "nter"
      ],
      [
        "P",
        "o"
      ],
      [
        "o",
        "om"
      ],
      [
        "in",
        "to"
      ],
      [
        "man",
        "u"
      ],
      [
        "access",
        "ible"
      ],
      [
        "charact",
        "ers"
      ],
      [
        "W",
        "rit"
      ],
      [
        "mo",
        "v"
      ],
      [
        "burn",
        "ed"
      ],
      [
        "Un",
        "known"
      ],
      [
        "Con",
        "fig"
      ],
      [
        "D",
        "ocum"
      ],
      [
        "y",
        "le"
      ],
      [
        "ar",
        "ning"
      ],
      [
        "are",
        "d"
      ],
      [
        "load",
        "ing"
      ],
      [
        "ses",
        "sion"
      ],
      [
        "A",
        "R"
      ],
      [
        "P",
        "ack"
      ],
      [
        "s",
        "um"
      ],
      [
        "il",
        "ity"
      ],
      [
        "ub",
        "lic"
      ],
      [
        "inst",
        "alled"
      ],
      [
        "To",
        "ol"
      ],
      [
        "F",
        "older"
      ],
      [
        "P",
        "ublic"
      ],
      [
        "g",
        "n"
      ],
      [
        "ou",
        "gh"
      ],
      [
        "inter",
        "face"
      ],
      [
        "N",
        "umber"
      ],
      [
        "f",
        "ont"
      ],
      [
        "re",
        "pository"
      ],
      [
        "st",
        "atus"
      ],
      [
        "ch",
        "oose"
      ],
      [
        "ail",
        "s"
      ],
      [
        "Di",
        "rectory"
      ],
      [
        "P",
        "revious"
      ],
      [
        "S",
        "u"
      ],
      [
        "the",
        "m"
      ],
      [
        "th",
        "or"
      ],
      [
        "tor",
        "ies"
      ],
      [
        "lo",
        "g"
      ],
      [
        "add",
        "itional"
      ],
      [
        "symbol",
        "ic"
      ],
      [
        "A",
        "c"
      ],
      [
        "t",
        "ach"
      ],
      [
        "Re",
        "c"
      ],
      [
        "Des",
        "cription"
      ],
      [
        "ang",
        "u"
      ],
      [
        "V",
        "ert"
      ],
      [
        "tr",
        "y"
      ],
      [
        "out",
        "put"
      ],
      [
        "D",
        "if"
      ],
      [
        "P",
        "y"
      ],
      [
        "b",
        "rasero"
      ],
      [
        "r",
        "on"
      ],
      [
        "re",
        "ally"
      ],
      [
        "Dif",
        "f"
      ],
      [
        "M",
        "ax"
      ],
      [
        "T",
        "arget"
      ],
      [
        "s",
        "ong"
      ],
      [
        "com",
        "ing"
      ],
      [
        "au",
        "se"
      ],
      [
        "let",
        "ion"
      ],
      [
        "Comm",
        "and"
      ],
      [
        "C",
        "all"
      ],
      [
        "F",
        "ull"
      ],
      [
        "m",
        "edi"
      ],
      [
        "p",
        "res"
      ],
      [
        "se",
        "e"
      ],
      [
        "ess",
        "ages"
      ],
      [
        "Pl",
        "ay"
      ],
      [
        "P",
        "references"
      ],
      [
        "e",
        "ar"
      ],
      [
        "f",
        "ailed"
      ],
      [
        "chang",
        "ed"
      ],
      [
        "ign",
        "ment"
      ],
      [
        "Val",
        "ue"
      ],
      [
        "L",
        "ib"
      ],
      [
        "O",
        "ME"
      ],
      [
        "am",
        "et"
      ],
      [
        "GN",
        "OME"
      ],
      [
        "O",
        "ut"
      ],
      [
        "b",
        "uild"
      ],
      [
        "p",
        "age"
      ],
      [
        "po",
        "s"
      ],
      [
        "comp",
        "letion"
      ],
      [
        "S",
        "plit"
      ],
      [
        "V",
        "CD"
      ],
      [
        "f",
        "unction"
      ],
      [
        "s",
        "ign"
      ],
      [
        "im",
        "ages"
      ],
      [
        "search",
        "ing"
      ],
      [
        "secon",
        "ds"
      ],
      [
        "por",
        "ary"
      ],
      [
        "A",
        "PI"
      ],
      [
        "P",
        "rint"
      ],
      [
        "S",
        "pe"
      ],
      [
        "e",
        "rent"
      ],
      [
        "diff",
        "erent"
      ],
      [
        "I",
        "s"
      ],
      [
        "R",
        "en"
      ],
      [
        "S",
        "nippet"
      ],
      [
        "f",
        "ill"
      ],
      [
        "loc",
        "k"
      ],
      [
        "pix",
        "el"
      ],
      [
        "T",
        "able"
      ],
      [
        "o",
        "le"
      ],
      [
        "De",
        "fault"
      ],
      [
        "In",
        "valid"
      ],
      [
        "debug",
        "ger"
      ],
      [
        "M",
        "er"
      ],
      [
        "S",
        "ize"
      ],
      [
        "S",
        "cale"
      ],
      [
        "he",
        "ader"
      ],
      [
        "play",
        "ed"
      ],
      [
        "vel",
        "op"
      ],
      [
        "f",
        "ind"
      ],
      [
        "02",
        "i"
      ],
      [
        "men",
        "u"
      ],
      [
        "Max",
        "imum"
      ],
      [
        "A",
        "N"
      ],
      [
        "N",
        "ext"
      ],
      [
        "T",
        "ag"
      ],
      [
        "he",
        "re"
      ],
      [
        "pro",
        "vi"
      ],
      [
        "res",
        "h"
      ],
      [
        "ast",
        "e"
      ],
      [
        "des",
        "cription"
      ],
      [
        "M",
        "issing"
      ],
      [
        "an",
        "other"
      ],
      [
        "Pro",
        "perties"
      ],
      [
        "ind",
        "entation"
      ],
      [
        "ul",
        "t"
      ],
      [
        "photo",
        "s"
      ],
      [
        "fr",
        "ame"
      ],
      [
        "A",
        "ss"
      ],
      [
        "P",
        "ass"
      ],
      [
        "T",
        "H"
      ],
      [
        "g",
        "iv"
      ],
      [
        "in",
        "put"
      ],
      [
        "and",
        "ard"
      ],
      [
        "sp",
        "eed"
      ],
      [
        "Add",
        "ress"
      ],
      [
        "mo",
[...]
